{
  "version": "1.0",
  "truncation": null,
  "padding": null,
  "added_tokens": [
    {
      "id": 0,
      "content": "<sos>",
      "single_word": false,
      "lstrip": false,
      "rstrip": false,
      "normalized": false,
      "special": true
    },
    {
      "id": 1,
      "content": "<eos>",
      "single_word": false,
      "lstrip": false,
      "rstrip": false,
      "normalized": false,
      "special": true
    },
    {
      "id": 2,
      "content": "<pad>",
      "single_word": false,
      "lstrip": false,
      "rstrip": false,
      "normalized": false,
      "special": true
    },
    {
      "id": 3,
      "content": "<unk>",
      "single_word": false,
      "lstrip": false,
      "rstrip": false,
      "normalized": false,
      "special": true
    }
  ],
  "normalizer": null,
  "pre_tokenizer": null,
  "post_processor": null,
  "decoder": null,
  "model": {
    "type": "WordPiece",
    "unk_token": "<unk>",
    "continuing_subword_prefix": "##",
    "max_input_chars_per_word": 100,
    "vocab": {
      "<sos>": 0,
      "<eos>": 1,
      "<pad>": 2,
      "<unk>": 3,
      "\n": 4,
      " ": 5,
      "\"": 6,
      "'": 7,
      "(": 8,
      ")": 9,
      ",": 10,
      "-": 11,
      ".": 12,
      "/": 13,
      ";": 14,
      "I": 15,
      "J": 16,
      "K": 17,
      "L": 18,
      "P": 19,
      "V": 20,
      "Z": 21,
      "[": 22,
      "]": 23,
      "_": 24,
      "a": 25,
      "b": 26,
      "c": 27,
      "d": 28,
      "e": 29,
      "f": 30,
      "g": 31,
      "h": 32,
      "i": 33,
      "j": 34,
      "k": 35,
      "l": 36,
      "m": 37,
      "n": 38,
      "o": 39,
      "p": 40,
      "q": 41,
      "r": 42,
      "s": 43,
      "t": 44,
      "u": 45,
      "v": 46,
      "w": 47,
      "x": 48,
      "y": 49,
      "z": 50,
      "à": 51,
      "á": 52,
      "æ": 53,
      "ç": 54,
      "è": 55,
      "ì": 56,
      "í": 57,
      "ð": 58,
      "ò": 59,
      "ó": 60,
      "ø": 61,
      "ù": 62,
      "ú": 63,
      "û": 64,
      "ā": 65,
      "ħ": 66,
      "ĩ": 67,
      "ŋ": 68,
      "œ": 69,
      "ū": 70,
      "ǃ": 71,
      "ǎ": 72,
      "ǐ": 73,
      "ǒ": 74,
      "ɐ": 75,
      "ɑ": 76,
      "ɒ": 77,
      "ɓ": 78,
      "ɔ": 79,
      "ɕ": 80,
      "ɖ": 81,
      "ə": 82,
      "ɚ": 83,
      "ɛ": 84,
      "ɜ": 85,
      "ɝ": 86,
      "ɟ": 87,
      "ɡ": 88,
      "ɢ": 89,
      "ɣ": 90,
      "ɤ": 91,
      "ɥ": 92,
      "ɧ": 93,
      "ɨ": 94,
      "ɪ": 95,
      "ɫ": 96,
      "ɬ": 97,
      "ɭ": 98,
      "ɮ": 99,
      "ɯ": 100,
      "ɰ": 101,
      "ɲ": 102,
      "ɳ": 103,
      "ɴ": 104,
      "ɵ": 105,
      "ɹ": 106,
      "ɽ": 107,
      "ɾ": 108,
      "ʀ": 109,
      "ʁ": 110,
      "ʂ": 111,
      "ʃ": 112,
      "ʈ": 113,
      "ʉ": 114,
      "ʊ": 115,
      "ʋ": 116,
      "ʌ": 117,
      "ʎ": 118,
      "ʏ": 119,
      "ʐ": 120,
      "ʑ": 121,
      "ʒ": 122,
      "ʔ": 123,
      "ʕ": 124,
      "ʝ": 125,
      "ʣ": 126,
      "ʤ": 127,
      "ʥ": 128,
      "ʦ": 129,
      "ʧ": 130,
      "ʨ": 131,
      "ʰ": 132,
      "ʱ": 133,
      "ʲ": 134,
      "ʷ": 135,
      "ʹ": 136,
      "ˈ": 137,
      "ˌ": 138,
      "ː": 139,
      "ˑ": 140,
      "˞": 141,
      "ˠ": 142,
      "ˢ": 143,
      "̀": 144,
      "́": 145,
      "̂": 146,
      "̃": 147,
      "̄": 148,
      "̆": 149,
      "̊": 150,
      "̝": 151,
      "̞": 152,
      "̠": 153,
      "̤": 154,
      "̥": 155,
      "̩": 156,
      "̪": 157,
      "̬": 158,
      "̯": 159,
      "̰": 160,
      "̹": 161,
      "͈": 162,
      "͜": 163,
      "͡": 164,
      "β": 165,
      "θ": 166,
      "а": 167,
      "ṵ": 168,
      "ẽ": 169,
      "⁠": 170,
      "##a": 171,
      "##ʹ": 172,
      "##ʧ": 173,
      "##i": 174,
      "##ː": 175,
      "##k": 176,
      "##ɛ": 177,
      "##s": 178,
      "##\n": 179,
      "##m": 180,
      "##ʊ": 181,
      "##ŋ": 182,
      "##,": 183,
      "## ": 184,
      "##ʃ": 185,
      "##r": 186,
      "##l": 187,
      "##ɔ": 188,
      "##t": 189,
      "##ə": 190,
      "##ʦ": 191,
      "##u": 192,
      "##ɪ": 193,
      "##d": 194,
      "##o": 195,
      "##(": 196,
      "##ð": 197,
      "##)": 198,
      "##j": 199,
      "##b": 200,
      "##n": 201,
      "##ˌ": 202,
      "##æ": 203,
      "##ɫ": 204,
      "##h": 205,
      "##ɐ": 206,
      "##̯": 207,
      "##g": 208,
      "##e": 209,
      "##œ": 210,
      "##w": 211,
      "##f": 212,
      "##z": 213,
      "##v": 214,
      "##p": 215,
      "##ø": 216,
      "##ɑ": 217,
      "##θ": 218,
      "##͜": 219,
      "##.": 220,
      "##x": 221,
      "##̃": 222,
      "##̩": 223,
      "##ʔ": 224,
      "##y": 225,
      "##ʤ": 226,
      "##ɒ": 227,
      "##ɚ": 228,
      "##β": 229,
      "##ʒ": 230,
      "##ɜ": 231,
      "##ˑ": 232,
      "##ɲ": 233,
      "##ʌ": 234,
      "##ʏ": 235,
      "##ɕ": 236,
      "##ç": 237,
      "##ʨ": 238,
      "##̆": 239,
      "##ɥ": 240,
      "##ɨ": 241,
      "##˞": 242,
      "##ɣ": 243,
      "##ʣ": 244,
      "##/": 245,
      "##ʥ": 246,
      "##ɝ": 247,
      "##-": 248,
      "##ʎ": 249,
      "##̥": 250,
      "##q": 251,
      "##ʉ": 252,
      "##̬": 253,
      "##c": 254,
      "##͡": 255,
      "##ɯ": 256,
      "##ɵ": 257,
      "##;": 258,
      "##ʑ": 259,
      "##ʂ": 260,
      "##ʁ": 261,
      "##ɭ": 262,
      "##ɳ": 263,
      "##ɾ": 264,
      "##ʈ": 265,
      "##ʰ": 266,
      "##ʋ": 267,
      "##ɽ": 268,
      "##ɤ": 269,
      "##ɰ": 270,
      "##ʲ": 271,
      "##̊": 272,
      "##ɧ": 273,
      "##ɟ": 274,
      "##ɡ": 275,
      "##ʕ": 276,
      "##ħ": 277,
      "##ɬ": 278,
      "##L": 279,
      "##ˢ": 280,
      "##̝": 281,
      "##ɖ": 282,
      "##ˠ": 283,
      "##̀": 284,
      "##í": 285,
      "##ǒ": 286,
      "##á": 287,
      "##ɴ": 288,
      "##è": 289,
      "##̰": 290,
      "##[": 291,
      "##]": 292,
      "##⁠": 293,
      "##ṵ": 294,
      "##̄": 295,
      "##û": 296,
      "##ì": 297,
      "##ˈ": 298,
      "##ǃ": 299,
      "##ʱ": 300,
      "##́": 301,
      "##ó": 302,
      "##à": 303,
      "##̪": 304,
      "##I": 305,
      "##V": 306,
      "##ù": 307,
      "##а": 308,
      "##͈": 309,
      "##̠": 310,
      "##̂": 311,
      "##ʝ": 312,
      "##ǎ": 313,
      "##ɹ": 314,
      "##\"": 315,
      "##ĩ": 316,
      "##_": 317,
      "##ʷ": 318,
      "##̞": 319,
      "##ā": 320,
      "##Z": 321,
      "##̹": 322,
      "##ú": 323,
      "##ū": 324,
      "##ò": 325,
      "##ɓ": 326,
      "##J": 327,
      "##ẽ": 328,
      "##ʐ": 329,
      "##̤": 330,
      "##ʀ": 331,
      "##ɮ": 332,
      "##'": 333,
      "##K": 334,
      "##ɢ": 335,
      "##ǐ": 336,
      "##P": 337,
      "##  ": 338,
      "##    ": 339,
      "##        ": 340,
      "##, ": 341,
      "##                ": 342,
      "##iː": 343,
      "##, ˌ": 344,
      "##aː": 345,
      "## ʹ": 346,
      "## (": 347,
      "##aʹ": 348,
      "##an": 349,
      "##)\n": 350,
      "##eː": 351,
      "##n\n": 352,
      "##i̯": 353,
      "##ar": 354,
      "##uː": 355,
      "##a\n": 356,
      "##oː": 357,
      "##a͜": 358,
      "##, ʹ": 359,
      "##ɛr": 360,
      "##st": 361,
      "##ən": 362,
      "##i\n": 363,
      "##                                ": 364,
      "##al": 365,
      "##iʹ": 366,
      "##s\n": 367,
      "##ɛl": 368,
      "##ə\n": 369,
      "##ɪn": 370,
      "## ˌ": 371,
      "##ɛn": 372,
      "##t\n": 373,
      "## (ʹ": 374,
      "##kɔ": 375,
      "##a͜i": 376,
      "##ra": 377,
      "##rɪ": 378,
      "ʹb": 379,
      "##eɪ": 380,
      "## \n": 381,
      "##ʹt": 382,
      "##f\n": 383,
      "##aˌ": 384,
      "##ɔr": 385,
      "##ɔn": 386,
      "ʹk": 387,
      "##ɑː": 388,
      "##u̯": 389,
      "## d": 390,
      "##ɔː": 391,
      "##oʊ": 392,
      "##ʹl": 393,
      "##jɛ": 394,
      "##                                        ": 395,
      "##sk": 396,
      "##o\n": 397,
      "##riː": 398,
      "##k\n": 399,
      "##ɐ̯": 400,
      "##ʹn": 401,
      "##la": 402,
      "ʹm": 403,
      "##rɔ": 404,
      "##ri": 405,
      "##aːn": 406,
      "##ʹd": 407,
      "##a͜u": 408,
      "ʹh": 409,
      "##vɪ": 410,
      "##ɔl": 411,
      "##iːn": 412,
      "##rɛ": 413,
      "##ʹm": 414,
      "##ən\n": 415,
      "##m\n": 416,
      "##, m": 417,
      "##ɪl": 418,
      "##ʹk": 419,
      "##as": 420,
      "##ʹb": 421,
      "##ʹs": 422,
      "ʹg": 423,
      "##ɪŋ": 424,
      "ʹp": 425,
      "##ã": 426,
      "##ʹr": 427,
      "##am": 428,
      "## f": 429,
      "##   \n": 430,
      "##ɪk": 431,
      "##  \n": 432,
      "##l\n": 433,
      "ʹs": 434,
      "ʹʃ": 435,
      "ʹl": 436,
      "##at": 437,
      "ʹf": 438,
      "##æn": 439,
      "ʹd": 440,
      "ʹt": 441,
      "##ɛː": 442,
      "##ɛs": 443,
      "##, ˌm": 444,
      "##i, ": 445,
      "##aɪ": 446,
      "##ɛk": 447,
      "##ak": 448,
      "##d\n": 449,
      "##ʹv": 450,
      "##raː": 451,
      "##an\n": 452,
      "##..": 453,
      "##ˌt": 454,
      "##ɪs": 455,
      "##ɪn\n": 456,
      "##ʹg": 457,
      "## m": 458,
      "##aŋ": 459,
      "ʹv": 460,
      "##                                    ": 461,
      "##aːr": 462,
      "##li": 463,
      "##a, ": 464,
      "##ʊn": 465,
      "##ɛt": 466,
      "##ʃt": 467,
      "##n̩": 468,
      "##iˌ": 469,
      "##a (": 470,
      "##a ": 471,
      "##bɛr": 472,
      "##z\n": 473,
      "##, ˌk": 474,
      "##ɔf\n": 475,
      "##and": 476,
      "##oˌ": 477,
      "##ɔf": 478,
      "##juː": 479,
      "##yː": 480,
      "##ni": 481,
      "##ɐ\n": 482,
      "##͜y": 483,
      "ʹn": 484,
      "##ʊr": 485,
      "##e\n": 486,
      "##ə ʹ": 487,
      "##ɛi̯": 488,
      "##ax": 489,
      "##aːl": 490,
      "##ro": 491,
      "## k": 492,
      "##eˌ": 493,
      "##əl": 494,
      "##, ˌʤ": 495,
      "##ɔs": 496,
      "##ʹz": 497,
      "##əɫ": 498,
      "##aʹl": 499,
      "##ʹp": 500,
      "##ʊs": 501,
      "ʹr": 502,
      "##in": 503,
      "##ɪt": 504,
      "##, ˌd": 505,
      "##ɪr": 506,
      "##                        ": 507,
      "## b": 508,
      "##a)\n": 509,
      "##øː": 510,
      "##aːt": 511,
      "##aʹn": 512,
      "##ər": 513,
      "##reː": 514,
      "##ɛm": 515,
      "##iːt": 516,
      "## s": 517,
      "##oːn": 518,
      "##ɔ͜y": 519,
      "##i, ˌ": 520,
      "##ˌs": 521,
      "## ʹm": 522,
      "##, k": 523,
      "ʹz": 524,
      "##a͜in": 525,
      "## ʹk": 526,
      "##ɛ̃": 527,
      "##ɛf": 528,
      "##br": 529,
      "##iːl": 530,
      "##aːd": 531,
      "##ant": 532,
      "##uʹ": 533,
      "##aʹt": 534,
      "##ɛl\n": 535,
      "## p": 536,
      "##ks": 537,
      "##ɪm": 538,
      "##, s": 539,
      "##art": 540,
      "##ɔm": 541,
      "##də": 542,
      "##man": 543,
      "##re": 544,
      "##vi": 545,
      "##ʹh": 546,
      "##o̯": 547,
      "##ɔ̃": 548,
      "##ɔt": 549,
      "##ŋk": 550,
      "##ɪʃ": 551,
      "##ɔn\n": 552,
      "al": 553,
      "##aʹm": 554,
      "##ʹj": 555,
      "##ruː": 556,
      "##...": 557,
      "##ɔːr": 558,
      "##iː\n": 559,
      "##                                            ": 560,
      "##ʹf": 561,
      "##ab": 562,
      "##ɜː": 563,
      "##ʊs\n": 564,
      "##, ˌp": 565,
      "##əˌ": 566,
      "##o, ": 567,
      "## ʹs": 568,
      "##ɑːr": 569,
      "## fɔn": 570,
      "##iːn\n": 571,
      "##ʊl": 572,
      "## ʹb": 573,
      "##u\n": 574,
      "## ʹp": 575,
      "##as\n": 576,
      "##ˌd": 577,
      "## t": 578,
      "##aʃ": 579,
      "##ʦ\n": 580,
      "##roː": 581,
      "##eːn": 582,
      "##ɐ, ˌ": 583,
      "##ɝː": 584,
      "##                            ": 585,
      "ʹw": 586,
      "##əs": 587,
      "##l̩": 588,
      "##aʹd": 589,
      "##eːt": 590,
      "##, ʹm": 591,
      "##                                         \n": 592,
      "##əm": 593,
      "##                                          \n": 594,
      "##ɐ̯\n": 595,
      "##nt": 596,
      "##je": 597,
      "##p\n": 598,
      "##, ˌt": 599,
      "##, f": 600,
      "##ad": 601,
      "ʹj": 602,
      "## de": 603,
      "##ɔv": 604,
      "##o (": 605,
      "##ˌl": 606,
      "##r\n": 607,
      "##iːd": 608,
      "##ə ": 609,
      "##il": 610,
      "##ʹʃ": 611,
      "## ʹh": 612,
      "##ʹʧ": 613,
      "##ɪç": 614,
      "##ɛd": 615,
      "##ɛst": 616,
      "##eː\n": 617,
      "##, ˌj": 618,
      "##ap": 619,
      "##ɪɫ": 620,
      "##, ˌh": 621,
      "##ri\n": 622,
      "## ʹd": 623,
      "##ˌm": 624,
      "##                                        \n": 625,
      "##ʹkɔ": 626,
      "##vɪʧ": 627,
      "##a (ʹ": 628,
      "##ja\n": 629,
      "##ri̯": 630,
      "##ɛnt": 631,
      "##sən": 632,
      "##iːm": 633,
      "##aʹs": 634,
      "## ʹf": 635,
      "##, ˌl": 636,
      "##eːɐ̯": 637,
      "##eʹ": 638,
      "##ik": 639,
      "##                                           \n": 640,
      "##mən": 641,
      "##rə": 642,
      "## ʹt": 643,
      "##eːl": 644,
      "##ɪs\n": 645,
      "##ɐ, ʹ": 646,
      "##i ": 647,
      "ʹkɔ": 648,
      "##aʹb": 649,
      "##ran": 650,
      "##ʊnt": 651,
      "##, ʒ": 652,
      "##im": 653,
      "##iʹn": 654,
      "##...)\n": 655,
      "##ˌn": 656,
      "##iːk": 657,
      "##ɔk": 658,
      "##, ˌb": 659,
      "##ɐ, ": 660,
      "##, ˌs": 661,
      "##i (": 662,
      "## ʹl": 663,
      "##ɛŋ": 664,
      "##ɒn": 665,
      "##av": 666,
      "##iːv": 667,
      "##, ʤ": 668,
      "##o)\n": 669,
      "## l": 670,
      "##rã": 671,
      "##aːb": 672,
      "##rɪst": 673,
      "##ɪʧ": 674,
      "##sə\n": 675,
      "## ʹg": 676,
      "##ol": 677,
      "##ɔŋ": 678,
      "##, ˌf": 679,
      "## g": 680,
      "ʹʧ": 681,
      "##is": 682,
      "##ɪʦ": 683,
      "##af": 684,
      "##ænd": 685,
      "##ru": 686,
      "##                                       \n": 687,
      "##reɪ": 688,
      "##i̯a\n": 689,
      "##ra\n": 690,
      "ʹʤ": 691,
      "##f, ": 692,
      "##ɛt\n": 693,
      "##ət": 694,
      "##, ʹk": 695,
      "##aːn\n": 696,
      "##aːk": 697,
      "##aʹv": 698,
      "ˌk": 699,
      "##han": 700,
      "##ark": 701,
      "##j)\n": 702,
      "##), ": 703,
      "##riːn": 704,
      "ʹst": 705,
      "##uːn": 706,
      "##iːz": 707,
      "##aʹk": 708,
      "##n̩\n": 709,
      "##aːm": 710,
      "##nd": 711,
      "##æl": 712,
      "## (k": 713,
      "##ʊk": 714,
      "##ʊʃ": 715,
      "##, maˌ": 716,
      "##aːg": 717,
      "##rɪs": 718,
      "##ɛ\n": 719,
      "##riʹ": 720,
      "##ʊm": 721,
      "##ag": 722,
      "## ʹn": 723,
      "##ɪst": 724,
      "##ɛɫ": 725,
      "##ãː": 726,
      "## ʹv": 727,
      "##kɔf\n": 728,
      "##, ˌg": 729,
      "##i, ʹ": 730,
      "##oʹl": 731,
      "##eːd": 732,
      "##iʹl": 733,
      "##ja": 734,
      "##ɛf\n": 735,
      "##tən": 736,
      "##ɔʹ": 737,
      "## (b": 738,
      "## (ˌ": 739,
      "##rɪç": 740,
      "##ʊŋ": 741,
      "##oʊ\n": 742,
      "##əv": 743,
      "##ski\n": 744,
      "##, d": 745,
      "##ɛv": 746,
      "##raːsə\n": 747,
      "##                                            \n": 748,
      "##, ˌn": 749,
      "##i̯o": 750,
      "##uˌ": 751,
      "##aʊ": 752,
      "##kə": 753,
      "##uːt": 754,
      "## (m": 755,
      "##ɪg": 756,
      "##uːl": 757,
      "##, p": 758,
      "##æm": 759,
      "##ar\n": 760,
      "##ɛˌ": 761,
      "##to": 762,
      "##ɐ)\n": 763,
      "##, l": 764,
      "##ɛrn": 765,
      "##ɛn\n": 766,
      "##ra͜i": 767,
      "##ɪk\n": 768,
      "##arl": 769,
      "##əɫ\n": 770,
      "##tə": 771,
      "##iʹt": 772,
      "##ɚ\n": 773,
      "##, j": 774,
      "##ul": 775,
      "##ɔs\n": 776,
      "##ʃ\n": 777,
      "##ʃtraːsə\n": 778,
      "##jɛf\n": 779,
      "##oːm": 780,
      "ʹʃt": 781,
      "##i)\n": 782,
      "##, b": 783,
      "##aː\n": 784,
      "ˌb": 785,
      "##oːɐ̯": 786,
      "##val": 787,
      "##ˌg": 788,
      "##r)\n": 789,
      "##ɛp": 790,
      "##ɛnd": 791,
      "##ɪf": 792,
      "##aːɐ̯": 793,
      "##                                      \n": 794,
      "##oʹ": 795,
      "##en": 796,
      "##ast": 797,
      "##˞ː": 798,
      "##dɔr": 799,
      "ˌm": 800,
      "##əs\n": 801,
      "ˌs": 802,
      "##bɐ": 803,
      "##, al": 804,
      "ʹʦ": 805,
      "##ɔp": 806,
      "##ˌk": 807,
      "##iːɐ̯": 808,
      "## n": 809,
      "##əʹ": 810,
      "##aːs": 811,
      "##õ": 812,
      "## ˌk": 813,
      "##kt": 814,
      "##ɪnd": 815,
      "##ka\n": 816,
      "##iːs": 817,
      "##ur": 818,
      "##ɪnt": 819,
      "##aʹz": 820,
      "##ɑːn": 821,
      "## ð": 822,
      "## h": 823,
      "##aʹr": 824,
      "##oːz": 825,
      "ˌp": 826,
      "##ɪp": 827,
      "##iʹm": 828,
      "##i̯o\n": 829,
      "## v": 830,
      "##eɪm": 831,
      "## (s": 832,
      "##aˌl": 833,
      "##y̆": 834,
      "##rɒ": 835,
      "##el": 836,
      "##aːz": 837,
      "##ard": 838,
      "##ɪŋ\n": 839,
      "##ʹʦ": 840,
      "##a, ˌ": 841,
      "##it": 842,
      "##bə": 843,
      "##                                    \n": 844,
      "##æk": 845,
      "##eʹl": 846,
      "##, v": 847,
      "##vɪl": 848,
      "##aʹg": 849,
      "##ɪz": 850,
      "##                                     \n": 851,
      "##jɛː": 852,
      "##a͜i\n": 853,
      "mə": 854,
      "##, t": 855,
      "##loː": 856,
      "##aʹriː": 857,
      "##jeː": 858,
      "##, g": 859,
      "##ɐs": 860,
      "##bɛrk": 861,
      "##az": 862,
      "##                                   \n": 863,
      "##eʹr": 864,
      "##bax": 865,
      "##ɔ\n": 866,
      "##jɛr": 867,
      "##, an": 868,
      "##ju": 869,
      "##ɔʃ": 870,
      "## ˌm": 871,
      "##iːna\n": 872,
      "##iːg": 873,
      "##, n": 874,
      "##aʦ": 875,
      "##ɪd": 876,
      "##, ʹh": 877,
      "##                                  \n": 878,
      "##ɔˌ": 879,
      "##bl": 880,
      "##aj": 881,
      "##æɫ": 882,
      "##aʹp": 883,
      "##aːv": 884,
      "##eːg": 885,
      "##ɛːr": 886,
      "##iʹk": 887,
      "##œr": 888,
      "## (ʹk": 889,
      "##uʹl": 890,
      "##ɐ ʹ": 891,
      "##, ʹp": 892,
      "##bʊr": 893,
      "##ær": 894,
      "##aˌn": 895,
      "##oːl": 896,
      "##ɔːɫ": 897,
      "##ɔʹl": 898,
      "##ʹʤ": 899,
      "##                                 \n": 900,
      "##al\n": 901,
      "##i̯aːn": 902,
      "##ɔd": 903,
      "##ʏr": 904,
      "##, ʹd": 905,
      "## də": 906,
      "##ski": 907,
      "##əd": 908,
      "##ei̯": 909,
      "## əv": 910,
      "##ɔːl": 911,
      "##ʹʒ": 912,
      "##o ": 913,
      "##ã\n": 914,
      "##uːd": 915,
      "##kɪn\n": 916,
      "## (ʹb": 917,
      "##st\n": 918,
      "##eɪ\n": 919,
      "##ɛs\n": 920,
      "ar": 921,
      "##oʊn": 922,
      "##ou̯": 923,
      "## ˌp": 924,
      "## (p": 925,
      "##s)\n": 926,
      "## deːɐ̯": 927,
      "##ræ": 928,
      "##aˌt": 929,
      "##ha͜i": 930,
      "## (ʹs": 931,
      "## ˌs": 932,
      "##jan": 933,
      "##eːl\n": 934,
      "ɛl": 935,
      "##ɔrt": 936,
      "##i̯a": 937,
      "##oʹn": 938,
      "##ʦk": 939,
      "##ˌb": 940,
      "##jɛf": 941,
      "##ənd": 942,
      "##eɪvɪ": 943,
      "mar": 944,
      "##roʊ": 945,
      "##ɛʃ": 946,
      "##oːt": 947,
      "ˌd": 948,
      "## ʤ": 949,
      "##iːb": 950,
      "##ʊt": 951,
      "##əm\n": 952,
      "##, ʹt": 953,
      "##on": 954,
      "##, ...)\n": 955,
      "##ɛnʦ": 956,
      "##rɪŋ": 957,
      "##uːk": 958,
      "##la͜u": 959,
      "##oʹr": 960,
      "##ɐn": 961,
      "##aʧ": 962,
      "##ʏn": 963,
      "##ʌn": 964,
      "##, ʹj": 965,
      "##lə": 966,
      "## ʃ": 967,
      "##ɪv": 968,
      "##art\n": 969,
      "le": 970,
      "##iʹd": 971,
      "st": 972,
      "##ɛrt": 973,
      "##alt": 974,
      "##ɪt\n": 975,
      "## də\n": 976,
      "lə": 977,
      "##ʊm\n": 978,
      "##, mar": 979,
      "## (ʹm": 980,
      "ˌg": 981,
      "##ɪm\n": 982,
      "##, ʹl": 983,
      "## ˌf": 984,
      "##ə)\n": 985,
      "##tə\n": 986,
      "##kɔn": 987,
      "##di": 988,
      "##eɪn": 989,
      "ʹkl": 990,
      "##ɔlf": 991,
      "##                                \n": 992,
      "##ɛʹ": 993,
      "##ski, ": 994,
      "ʹrɔ": 995,
      "##aʹj": 996,
      "##a͜u\n": 997,
      "kar": 998,
      "## ʹz": 999,
      "ʹbr": 1000,
      "##aːl\n": 1001,
      "##ɒn\n": 1002,
      "##rɛs": 1003,
      "##aˌm": 1004,
      "##ɛk\n": 1005,
      "##aˌd": 1006,
      "ˌh": 1007,
      "##aɪk": 1008,
      "##anʹd": 1009,
      "##æt": 1010,
      "##rɪʧ": 1011,
      "##, ʹʤ": 1012,
      "ˌt": 1013,
      "## ˌd": 1014,
      "##ʦi̯": 1015,
      "##rɪk": 1016,
      "ʹoː": 1017,
      "##ir": 1018,
      "##aːr\n": 1019,
      "## al": 1020,
      "an": 1021,
      "##ɔx": 1022,
      "##uː\n": 1023,
      "##ʤ\n": 1024,
      "##ɔvɪʧ": 1025,
      "##ʊd": 1026,
      "##ɛks": 1027,
      "##nik": 1028,
      "##at\n": 1029,
      "##ɛʦ": 1030,
      "## ʹʃ": 1031,
      "##rɪk\n": 1032,
      "##ɛg": 1033,
      "##ɑn": 1034,
      "##riːd": 1035,
      "##ɐt": 1036,
      "##le": 1037,
      "##iʹs": 1038,
      "##iʹv": 1039,
      "##ɔb": 1040,
      "## ʹw": 1041,
      "##, ˌʒ": 1042,
      "##əʹl": 1043,
      "##uːr": 1044,
      "##sʹt": 1045,
      "##ski, ˌ": 1046,
      "##er": 1047,
      "##uʹr": 1048,
      "##ɑ˞ː": 1049,
      "##ʌm": 1050,
      "##ˌv": 1051,
      "##eʹn": 1052,
      "##eː ": 1053,
      "##, ʹg": 1054,
      "##u)\n": 1055,
      "##ɔnt": 1056,
      "##ɛʹl": 1057,
      "##ɔʹn": 1058,
      "##əʹn": 1059,
      "## (ʹp": 1060,
      "##sɔn": 1061,
      "##, ˌv": 1062,
      "##                               \n": 1063,
      "ˌl": 1064,
      "##a d": 1065,
      "##aʹʃ": 1066,
      "##or": 1067,
      "ˌf": 1068,
      "##eːm": 1069,
      "## ˌh": 1070,
      "##e ": 1071,
      "##oːf": 1072,
      "##ras": 1073,
      "##ɛz": 1074,
      "##ʊst": 1075,
      "##ɛ̃\n": 1076,
      "##uːz": 1077,
      "## ˌb": 1078,
      "##                    ": 1079,
      "##anʹt": 1080,
      "##om": 1081,
      "##ak\n": 1082,
      "##əl\n": 1083,
      "##rə\n": 1084,
      "## ˌt": 1085,
      "##θ\n": 1086,
      "##ɪlj": 1087,
      "##bɚ": 1088,
      "## fɔn\n": 1089,
      "##jɛl": 1090,
      "##, h": 1091,
      "##kɔ\n": 1092,
      "##ɔu̯": 1093,
      "## (t": 1094,
      "##uːb": 1095,
      "##ɛsk": 1096,
      "##iːp": 1097,
      "##, ʹb": 1098,
      "##ʃən": 1099,
      "##, ʹf": 1100,
      "##ah": 1101,
      "## ʹʤ": 1102,
      "## də ": 1103,
      "##ɔ̃\n": 1104,
      "##bɛrk\n": 1105,
      "##aʹf": 1106,
      "##uːs": 1107,
      "##ald": 1108,
      "##ɪx": 1109,
      "##uːm": 1110,
      "##                                             \n": 1111,
      "## (g": 1112,
      "##aɪn": 1113,
      "##bɛrt": 1114,
      "##oʹm": 1115,
      "##a͜it": 1116,
      "##rɛː": 1117,
      "##, ʹs": 1118,
      "##ənt": 1119,
      "##ŋg": 1120,
      "##ro\n": 1121,
      "##eːv": 1122,
      "##ʊnd": 1123,
      "##a͜id": 1124,
      "##s ": 1125,
      "##oːd": 1126,
      "##ˌh": 1127,
      "##ɛ)\n": 1128,
      "##ana\n": 1129,
      "##iʹg": 1130,
      "##, ˌw": 1131,
      "##ˌz": 1132,
      "##aŋ\n": 1133,
      "##eːz": 1134,
      "##rɔs": 1135,
      "ˌn": 1136,
      "##ɛʹk": 1137,
      "##ʊp": 1138,
      "##lɐ": 1139,
      "##, ˌst": 1140,
      "##oːɐ̯\n": 1141,
      "##dɔrf\n": 1142,
      "##ʊx": 1143,
      "##var": 1144,
      "##raɪ": 1145,
      "##aːna\n": 1146,
      "##, ˌz": 1147,
      "##i̯an": 1148,
      "##jɛn": 1149,
      "##iːt\n": 1150,
      "##ɔːn": 1151,
      "##aks": 1152,
      "##rɪs\n": 1153,
      "##eɪvɪd\n": 1154,
      "ʹæ": 1155,
      "##ɫ\n": 1156,
      "##a)": 1157,
      "##, r": 1158,
      "##arn": 1159,
      "##ɔg": 1160,
      "##ɔst": 1161,
      "##et": 1162,
      "##, ˌkrɪst": 1163,
      "##a͜is": 1164,
      "ʹx": 1165,
      "ʹla": 1166,
      "##ig": 1167,
      "##æn\n": 1168,
      "##fɛl": 1169,
      "##uːɐ̯": 1170,
      "##oːs": 1171,
      "##aŋg": 1172,
      "ʹɫ": 1173,
      "##a͜uz": 1174,
      "##eːb": 1175,
      "##am\n": 1176,
      "##a ʹ": 1177,
      "##ɛb": 1178,
      "## j": 1179,
      "##ɒm": 1180,
      "##rɪç\n": 1181,
      "##un": 1182,
      "##e)\n": 1183,
      "##ko": 1184,
      "## z": 1185,
      "##a m": 1186,
      "##ɛːr\n": 1187,
      "##, x": 1188,
      "## (ʹh": 1189,
      "##̃ː": 1190,
      "##aːra": 1191,
      "##ɛr\n": 1192,
      "##iʹb": 1193,
      "##dən": 1194,
      "##ʹtiːn": 1195,
      "##                              \n": 1196,
      "## ˌg": 1197,
      "##bɛrt\n": 1198,
      "##ɛlm": 1199,
      "##kɔf": 1200,
      "##kə\n": 1201,
      "##riːt": 1202,
      "##eʹd": 1203,
      "##ɑːt": 1204,
      "##iːr": 1205,
      "##ʹx": 1206,
      "##eˌl": 1207,
      "##, z": 1208,
      "##rɪn\n": 1209,
      "##id": 1210,
      "##rɛi̯": 1211,
      "##œː": 1212,
      "##ɔrn": 1213,
      "ʹsk": 1214,
      "##ɪnz": 1215,
      "##kɔr": 1216,
      "##uk": 1217,
      "## (d": 1218,
      "ʹal": 1219,
      "##əʹr": 1220,
      "##kɔː": 1221,
      "kl": 1222,
      "##aːri": 1223,
      "##aˌs": 1224,
      "kɔ": 1225,
      "##oʊz": 1226,
      "##ij": 1227,
      "##aʹh": 1228,
      "##l̩\n": 1229,
      "## ɪn": 1230,
      "##ˌf": 1231,
      "##ɪŋg": 1232,
      "##a͜il": 1233,
      "## ðə ʹ": 1234,
      "## la": 1235,
      "##jɛŋ": 1236,
      "##oːg": 1237,
      "##oʹv": 1238,
      "##ɪsk": 1239,
      "##, ˌʃ": 1240,
      "## (...": 1241,
      "##a͜us": 1242,
      "##i ʹ": 1243,
      "##ɛˌks": 1244,
      "##ʒ\n": 1245,
      "##ˌp": 1246,
      "##o d": 1247,
      "##eɪt": 1248,
      "##ʏl": 1249,
      "##aːp": 1250,
      "##ɛrk": 1251,
      "##f)\n": 1252,
      "##əʹm": 1253,
      "##eʹt": 1254,
      "##aʹʧ": 1255,
      "##œl": 1256,
      "##ɪl\n": 1257,
      "##eːtɐ\n": 1258,
      "##ham": 1259,
      "##a, ʹ": 1260,
      "##, ˌɫ": 1261,
      "##uʹb": 1262,
      "##eːk": 1263,
      "##oʊl": 1264,
      "##                             \n": 1265,
      "## (v": 1266,
      "##iz": 1267,
      "ðə": 1268,
      "##ɛç": 1269,
      "##, ʃ": 1270,
      "##jʊ": 1271,
      "##ed": 1272,
      "##rɔ͜y": 1273,
      "##ɔlt": 1274,
      "##iʹz": 1275,
      "##ɪʃ\n": 1276,
      "##iː ": 1277,
      "##ram": 1278,
      "##ɪça": 1279,
      "##i̯u": 1280,
      "ʹbl": 1281,
      "##ɪŋk": 1282,
      "##oʹd": 1283,
      "##̃\n": 1284,
      "##i̯an\n": 1285,
      "##oː\n": 1286,
      "##aˌb": 1287,
      "##ʹkɔf\n": 1288,
      "##rat": 1289,
      "##ʃtɛf": 1290,
      "##andɐ": 1291,
      "la ": 1292,
      "##ɪ\n": 1293,
      "ʹvɪ": 1294,
      "##oːn\n": 1295,
      "##, miˌ": 1296,
      "##ɑːl": 1297,
      "##ɛx": 1298,
      "##oʹh": 1299,
      "##oːr": 1300,
      "ðə ʹ": 1301,
      "##, ʒã": 1302,
      "##ɐl": 1303,
      "##ɛrm": 1304,
      "##em": 1305,
      "##andɐ\n": 1306,
      "##ɛrʹn": 1307,
      "##van": 1308,
      "##asʹt": 1309,
      "##əns": 1310,
      "## (ʹt": 1311,
      "##mɪt": 1312,
      "##gə": 1313,
      "##arm": 1314,
      "##ɔnd": 1315,
      "##oʊɫ": 1316,
      "## aː": 1317,
      "## (ʹg": 1318,
      "##øːn": 1319,
      "##ɪɫj": 1320,
      "ˌv": 1321,
      "##aɪl": 1322,
      "##uʹn": 1323,
      "##um": 1324,
      "am": 1325,
      "##yr": 1326,
      "##iːm\n": 1327,
      "## ˌl": 1328,
      "##ɪˌ": 1329,
      "##œi̯": 1330,
      "##uʹz": 1331,
      "##iːl\n": 1332,
      "##ɛns": 1333,
      "##ʃ)\n": 1334,
      "##ʊs fɔn": 1335,
      "##                            \n": 1336,
      "##ut": 1337,
      "##iʹʃ": 1338,
      "##bax\n": 1339,
      "##a͜ul": 1340,
      "##raːt": 1341,
      "##ɛŋk": 1342,
      "##raf": 1343,
      "##, ˌdeɪvɪd\n": 1344,
      "##ant\n": 1345,
      "##ɛʹks": 1346,
      "##oʹt": 1347,
      "##iʹj": 1348,
      "##ɐ ʹʃtraːsə\n": 1349,
      "##ʹriː": 1350,
      "##, ˌrɒ": 1351,
      "##aɪt": 1352,
      "##uʹt": 1353,
      "## ˌʤ": 1354,
      "##jɛːr\n": 1355,
      "##vɪn\n": 1356,
      "##uʹs": 1357,
      "##ɑːk": 1358,
      "##aŋk": 1359,
      "##ɪb": 1360,
      "##iːɐ̯\n": 1361,
      "##amp": 1362,
      "##iʃ": 1363,
      "##li\n": 1364,
      "## (l": 1365,
      "## (ʹv": 1366,
      "##ans": 1367,
      "##oʹs": 1368,
      "##e̯": 1369,
      "##iːnə\n": 1370,
      "##aːnɔf\n": 1371,
      "##aʹx": 1372,
      "##an)\n": 1373,
      "##, ˌʤɒn\n": 1374,
      "##abd": 1375,
      "##ˌdreː": 1376,
      "##ɛi̯n": 1377,
      "##au̯": 1378,
      "##, maˌriː": 1379,
      "##uːg": 1380,
      "##rɔf": 1381,
      "##ɔʹr": 1382,
      "##)                        ": 1383,
      "##v\n": 1384,
      "## (f": 1385,
      "##ɔrg": 1386,
      "##raːd": 1387,
      "##sp": 1388,
      "##ɛm\n": 1389,
      "ʹgr": 1390,
      "##eːr": 1391,
      "##, ʹn": 1392,
      "##kɔv": 1393,
      "##, ˌjuː": 1394,
      "## ˌn": 1395,
      "##aˌriː": 1396,
      "##i, ʤ": 1397,
      "##ɔːk": 1398,
      "##iʦ": 1399,
      "##uʹd": 1400,
      "##raŋk": 1401,
      "##ək": 1402,
      "##eʹm": 1403,
      "##anˌt": 1404,
      "##, ˌʤeɪm": 1405,
      "##arb": 1406,
      "##us": 1407,
      "## (ʹl": 1408,
      "##ɔʹv": 1409,
      "##ɪçaeːl\n": 1410,
      "a͜": 1411,
      "##nɐ": 1412,
      "##ti": 1413,
      "##oːk": 1414,
      "##oˌn": 1415,
      "ã": 1416,
      "##uʹm": 1417,
      "##ɔr\n": 1418,
      "##va͜i": 1419,
      "##uːp": 1420,
      "##ɛʧ": 1421,
      "##hart\n": 1422,
      "##oːmas\n": 1423,
      "##əd\n": 1424,
      "ɪn": 1425,
      "##əˌn": 1426,
      "##ɔz": 1427,
      "##o̯a\n": 1428,
      "##ˌj": 1429,
      "##ɔʹm": 1430,
      "##ɔl\n": 1431,
      "##æd": 1432,
      "##iːf": 1433,
      "##uʹk": 1434,
      "##zn̩": 1435,
      "##ɛʹr": 1436,
      "##rɪn": 1437,
      "##æθ": 1438,
      "##ka": 1439,
      "##iːas\n": 1440,
      "##aːf": 1441,
      "##kɔl": 1442,
      "##ɔ)\n": 1443,
      "##bʊrk": 1444,
      "##i̯aːn\n": 1445,
      "##ib": 1446,
      "##, fran": 1447,
      "##ɒk": 1448,
      "##ə, ˌ": 1449,
      "##ɑːd": 1450,
      "##las": 1451,
      "##eɪk": 1452,
      "##ɛɐ̯": 1453,
      "##nj": 1454,
      "##rɪt": 1455,
      "##anʤ": 1456,
      "ˌʤ": 1457,
      "##aːra\n": 1458,
      "kaʹ": 1459,
      "##ʊʧ": 1460,
      "##ʹkɔf": 1461,
      "##, ˌmaɪk": 1462,
      "##yːl": 1463,
      "##iːa\n": 1464,
      "## x": 1465,
      "##aːj": 1466,
      "maʹ": 1467,
      "##əb": 1468,
      "##ɛʹn": 1469,
      "## (ʹd": 1470,
      "##gən": 1471,
      "##ɨ)\n": 1472,
      "##aːjɛf\n": 1473,
      "##eːs": 1474,
      "ʹkr": 1475,
      "## ʹj": 1476,
      "##viʧ": 1477,
      "## ʹʦ": 1478,
      "##arl\n": 1479,
      "kɔr": 1480,
      "##ɔ˞ː": 1481,
      "##gɐ": 1482,
      "##oːp": 1483,
      "##aːni̯": 1484,
      "##əz": 1485,
      "##                                              \n": 1486,
      "##, ˌr": 1487,
      "bɛr": 1488,
      "##g\n": 1489,
      "##ɑːm": 1490,
      "br": 1491,
      "##iˌm": 1492,
      "##od": 1493,
      "##ɪks\n": 1494,
      "##jɛːr": 1495,
      "##)        ": 1496,
      "##eɪɫ": 1497,
      "##aʊnt": 1498,
      "##b\n": 1499,
      "##pl": 1500,
      "ʹra": 1501,
      "##u ": 1502,
      "##ask": 1503,
      "##ɔːt": 1504,
      "##jɛv": 1505,
      "##͜f": 1506,
      "##rɔf\n": 1507,
      "##valt": 1508,
      "##u̯an": 1509,
      "sɛ̃": 1510,
      "##aʤ": 1511,
      "##anʦ": 1512,
      "##str": 1513,
      "##rɪʃ": 1514,
      "##iːʧ": 1515,
      "##eɪn\n": 1516,
      "ak": 1517,
      "ab": 1518,
      "##ɔːd": 1519,
      "##ɪç\n": 1520,
      "## dy": 1521,
      "##in)\n": 1522,
      "## (ʃ": 1523,
      "##oːb": 1524,
      "la": 1525,
      "ʹriː": 1526,
      "##kl": 1527,
      "##ɪks": 1528,
      "## (n": 1529,
      "##oʹb": 1530,
      "##aːh": 1531,
      "##ɪp\n": 1532,
      "##ʃən\n": 1533,
      "## (x": 1534,
      "məʹk": 1535,
      "##ud": 1536,
      "bar": 1537,
      "##aːɐ̯\n": 1538,
      "##je\n": 1539,
      "##jɛt": 1540,
      "##amb": 1541,
      "##aːri̯": 1542,
      "##, ʹv": 1543,
      "##ənz": 1544,
      "##eɪs": 1545,
      "##ris": 1546,
      "##, ã": 1547,
      "##, sɛr": 1548,
      "##riːna\n": 1549,
      "##ɚd\n": 1550,
      "##jɔf\n": 1551,
      "##jɛf, ": 1552,
      "##bʊrk\n": 1553,
      "ʹʒ": 1554,
      "##lɪŋ": 1555,
      "##ɐr": 1556,
      "##əf": 1557,
      "##iʹp": 1558,
      "##ja (": 1559,
      "## fan": 1560,
      "##ki\n": 1561,
      "##na\n": 1562,
      "##es": 1563,
      "## ʧ": 1564,
      "##, ˌmar": 1565,
      "##ɔʧ": 1566,
      "##a͜in\n": 1567,
      "## ʒ": 1568,
      "##aːkɔ": 1569,
      "oʊ": 1570,
      "##iv": 1571,
      "##æp": 1572,
      "##alm": 1573,
      "##n)\n": 1574,
      "##ɑ̃": 1575,
      "##ɛrd": 1576,
      "##a de": 1577,
      "##ko\n": 1578,
      "##ɑ)\n": 1579,
      "##i̯ɛː": 1580,
      "##rãː": 1581,
      "##ŋk\n": 1582,
      "##ɔʹd": 1583,
      "##t)\n": 1584,
      "##ʹw": 1585,
      "##ɒɫ": 1586,
      "##, ˌx": 1587,
      "##juː\n": 1588,
      "##aŋkt": 1589,
      "##aːli": 1590,
      "##anʧ": 1591,
      "ɔr": 1592,
      "##ɔʹs": 1593,
      "##ʊf": 1594,
      "## w": 1595,
      "##æs": 1596,
      "##iˌl": 1597,
      "##oˌhan": 1598,
      "##roːs": 1599,
      "aʹl": 1600,
      "##að": 1601,
      "##is\n": 1602,
      "##oʹz": 1603,
      "##u, ": 1604,
      "## ʹʧ": 1605,
      "##rɛd": 1606,
      "ʹfl": 1607,
      "##eːra": 1608,
      "##i̯ɛr": 1609,
      "##stɐ": 1610,
      "##eːf": 1611,
      "ʹsp": 1612,
      "##, ˌmark": 1613,
      "##rɔn": 1614,
      "##ɔj": 1615,
      "##jœr": 1616,
      "##ɔrk": 1617,
      "sk": 1618,
      "##oːhan": 1619,
      "##i, m": 1620,
      "##rɛk": 1621,
      "##ɛh": 1622,
      "##uʃ": 1623,
      "##uːt\n": 1624,
      "##ɛri\n": 1625,
      "##jɛs": 1626,
      "##ɛmp": 1627,
      "## ʹst": 1628,
      "## (ʹf": 1629,
      "##aːt\n": 1630,
      "##, ˌkarl": 1631,
      "##arʹt": 1632,
      "## ɛs": 1633,
      "## də ʹ": 1634,
      "## ˌw": 1635,
      "##ˌʧ": 1636,
      "##æns": 1637,
      "##, krɪs": 1638,
      "##fran": 1639,
      "## (ʹn": 1640,
      "##, ʹz": 1641,
      "##, maˌt": 1642,
      "##ˌʃ": 1643,
      "##ɐ̃": 1644,
      "##iʹʧ": 1645,
      "##ɚd": 1646,
      "##riː\n": 1647,
      "##dɔrf": 1648,
      "##ʃtɛfan\n": 1649,
      "##ɛj": 1650,
      "##nə": 1651,
      "##i̯aŋ": 1652,
      "##a͜iç": 1653,
      "##vɪkt": 1654,
      "##ɛdw": 1655,
      "##ɒt": 1656,
      "##rak": 1657,
      "##oˌs": 1658,
      "##ɛŋkɔ": 1659,
      "dy": 1660,
      "##mən\n": 1661,
      "##, ˌʧ": 1662,
      "##eɪd": 1663,
      "##ɔva, ": 1664,
      "ʃt": 1665,
      "##ɪθ": 1666,
      "##riːs": 1667,
      "##ɔf, ": 1668,
      "##ot": 1669,
      "##iː ʹ": 1670,
      "##a (k": 1671,
      "##ɔːr\n": 1672,
      "## fɔn ʹ": 1673,
      "##i̯ʊs": 1674,
      "##rãˌs": 1675,
      "##o)": 1676,
      "##aʹla": 1677,
      "##ʃta͜in": 1678,
      "##kɪn": 1679,
      "##ɛʹt": 1680,
      "##ĩ": 1681,
      "##ov": 1682,
      "##ɑl": 1683,
      "##arʹd": 1684,
      "##iˌv": 1685,
      "##, ˌmaɪkəɫ\n": 1686,
      "## r": 1687,
      "##nɪk": 1688,
      "##, rɔ": 1689,
      "##bɛrn": 1690,
      "##axm": 1691,
      "##uˌz": 1692,
      "kal": 1693,
      "##ʧi": 1694,
      "##ɔrd": 1695,
      "##, ˌmart": 1696,
      "##ars": 1697,
      "##ɪrç": 1698,
      "##il\n": 1699,
      "##hart": 1700,
      "kɔn": 1701,
      "##gl": 1702,
      "##əʹt": 1703,
      "##rɛt": 1704,
      "##ɔsk": 1705,
      "##ɪd\n": 1706,
      "##jø": 1707,
      "##ɔʹt": 1708,
      "##iːɫ": 1709,
      "##ɪlv": 1710,
      "##də\n": 1711,
      "##oːv": 1712,
      "##a͜iz": 1713,
      "## (h": 1714,
      "##rɔm": 1715,
      "##ɪsm": 1716,
      "##ai̯": 1717,
      "##aːno": 1718,
      "##a k": 1719,
      "##, ʹkrɪst": 1720,
      "ɛr": 1721,
      "##riːt\n": 1722,
      "##lat": 1723,
      "##laf\n": 1724,
      "ˌʃ": 1725,
      "##ɛə": 1726,
      "##ɪʹ": 1727,
      "##æk\n": 1728,
      "##e, ": 1729,
      "##ʹgeː": 1730,
      "##lj": 1731,
      "##ɔlf\n": 1732,
      "##oˌm": 1733,
      "##i̯ʊs\n": 1734,
      "##ɛlt": 1735,
      "##rik": 1736,
      "##æri\n": 1737,
      "## (r": 1738,
      "##vɪʦ": 1739,
      "##ha͜im\n": 1740,
      "##u̯)\n": 1741,
      "ʹʃp": 1742,
      "##hɔl": 1743,
      "##riːg": 1744,
      "##oˌl": 1745,
      "##əʹv": 1746,
      "##ok": 1747,
      "##vɪn": 1748,
      "##iːtɐ\n": 1749,
      "##ip": 1750,
      "## ənd": 1751,
      "##ɛnz": 1752,
      "ʹoːbɐ": 1753,
      "##eʹg": 1754,
      "##a (m": 1755,
      "##ɛnʹt": 1756,
      "##ɛkˌs": 1757,
      "ʹjuː": 1758,
      "##ət\n": 1759,
      "##bi\n": 1760,
      "##stən": 1761,
      "##iʹr": 1762,
      "##ɐf": 1763,
      "##iː)\n": 1764,
      "##ix": 1765,
      "##aˌv": 1766,
      "kɔl": 1767,
      "##), ʹ": 1768,
      "##ærə": 1769,
      "ʹraː": 1770,
      "##uːv": 1771,
      "##vɪç": 1772,
      "##eˌm": 1773,
      "##ʌŋ": 1774,
      "##, st": 1775,
      "##op": 1776,
      "##), ˌ": 1777,
      "##ʊʦ": 1778,
      "##x\n": 1779,
      "## ...)\n": 1780,
      "##əʹb": 1781,
      "##e (": 1782,
      "##uːn\n": 1783,
      "##lad": 1784,
      "## ã": 1785,
      "##ʤi\n": 1786,
      "##uʹʃ": 1787,
      "bɛl": 1788,
      "ʹɛl": 1789,
      "##nɪ": 1790,
      "##yːt": 1791,
      "gr": 1792,
      "##aɲ": 1793,
      "##in\n": 1794,
      "##oʹk": 1795,
      "##aʹraː": 1796,
      "##nikɔ": 1797,
      "##oʊm": 1798,
      "##əri\n": 1799,
      "##ɐv": 1800,
      "##ɪnsk": 1801,
      "##viʨ": 1802,
      "##oːni": 1803,
      "##juːz": 1804,
      "##ɝːn": 1805,
      "de": 1806,
      "##, ˌʤɒn": 1807,
      "##dəm": 1808,
      "##ra͜u": 1809,
      "##ɔt\n": 1810,
      "##ɪʹl": 1811,
      "##ao̯": 1812,
      "##aːvɪ": 1813,
      "##aʹra": 1814,
      "##aːno\n": 1815,
      "##ænj": 1816,
      "##eˌd": 1817,
      "##eːna\n": 1818,
      "##jej)\n": 1819,
      "##jɛʃ": 1820,
      "##laf": 1821,
      "##ɒl": 1822,
      "##ɔlfg": 1823,
      "##aʔ": 1824,
      "##ʊk\n": 1825,
      "##tən\n": 1826,
      "## (ʧ": 1827,
      "##jan\n": 1828,
      "##rik\n": 1829,
      "##ɛi̯\n": 1830,
      "##ruːd": 1831,
      "ˌw": 1832,
      "##la\n": 1833,
      "## ʦ": 1834,
      "##ub": 1835,
      "##ɛkt": 1836,
      "##oʹg": 1837,
      "##a͜im": 1838,
      "ʹhɛr": 1839,
      "##iːv\n": 1840,
      "##rən": 1841,
      "##aːʧ": 1842,
      "##ɪnj": 1843,
      "##r̩": 1844,
      "##ɑːs": 1845,
      "oː": 1846,
      "ʹpl": 1847,
      "##oˌham": 1848,
      "##vɪlh": 1849,
      "##əθ": 1850,
      "##jɔ": 1851,
      "##arg": 1852,
      "##aˌk": 1853,
      "##aɪ\n": 1854,
      "##ha͜im": 1855,
      "## ɛl": 1856,
      "##rãʹs": 1857,
      "##mp": 1858,
      "##əʹk": 1859,
      "##ɪɫ\n": 1860,
      "mək": 1861,
      "##, ˌʤeɪmz\n": 1862,
      "##əʹs": 1863,
      "##ɚ, ˌ": 1864,
      "##bɚt\n": 1865,
      "##ɑr": 1866,
      "##vɪk": 1867,
      "##ʊŋ\n": 1868,
      "##iːno\n": 1869,
      "ʹsm": 1870,
      "##uz": 1871,
      "##eː ʹ": 1872,
      "val": 1873,
      "ʹrɪ": 1874,
      "##iːli": 1875,
      "ʹma͜i": 1876,
      "##nikɔf\n": 1877,
      "par": 1878,
      "##af\n": 1879,
      "##fl": 1880,
      "ʹbɛr": 1881,
      "##jɛ̃\n": 1882,
      "##ɛd\n": 1883,
      "##)                    ": 1884,
      "##ɐf, ": 1885,
      "##, anˌdreː": 1886,
      "##iʧ": 1887,
      "##aːla": 1888,
      "##, ʹw": 1889,
      "##ʹha͜uz": 1890,
      "bal": 1891,
      "ˌz": 1892,
      "## am": 1893,
      "ʹa͜u": 1894,
      "##ɛʹm": 1895,
      "##ɛʹs": 1896,
      "##ənd\n": 1897,
      "##ra)\n": 1898,
      "##, alɛˌks": 1899,
      "## (j": 1900,
      "##jɛi̯": 1901,
      "##k)\n": 1902,
      "##uːɐ̯\n": 1903,
      "## ˌv": 1904,
      "##a p": 1905,
      "##, sɜː": 1906,
      "aː": 1907,
      "bl": 1908,
      "##aʹri": 1909,
      "ʹnɔ͜y": 1910,
      "##ɜːn": 1911,
      "##æks": 1912,
      "##aʹʤ": 1913,
      "##əˌm": 1914,
      "##bi": 1915,
      "##eːro": 1916,
      "##ən, ˌ": 1917,
      "##, han": 1918,
      "##ɛnj": 1919,
      "##ʹdreː": 1920,
      "zaŋkt": 1921,
      "##aʹʦ": 1922,
      "##aʹkɔf\n": 1923,
      "##jɛ\n": 1924,
      "as": 1925,
      "##o de": 1926,
      "##aʹʒ": 1927,
      "##alv": 1928,
      "##iʹf": 1929,
      "##ʹbr": 1930,
      "##yl": 1931,
      "##ər)\n": 1932,
      "##aːʦ": 1933,
      "## fan\n": 1934,
      "##iː, ": 1935,
      "##a̯": 1936,
      "##ɐˌ": 1937,
      "##a, m": 1938,
      "##ek": 1939,
      "##ro̯": 1940,
      "##vɪʧ\n": 1941,
      "##aʊn": 1942,
      "##iːk\n": 1943,
      "##bɛrg": 1944,
      "##iːvən\n": 1945,
      "##ʧ\n": 1946,
      "## an": 1947,
      "## ʊnt": 1948,
      "##ɔfsk": 1949,
      "##ʊrt": 1950,
      "##æʃən": 1951,
      "##riːn\n": 1952,
      "##iˌn": 1953,
      "##, ˌan": 1954,
      "##oːri̯": 1955,
      "##ŋ\n": 1956,
      "##ɚz": 1957,
      "##iːs\n": 1958,
      "##ɔʹb": 1959,
      "##eʹs": 1960,
      "##ʹviːl": 1961,
      "##eˌn": 1962,
      "##aw": 1963,
      "##freː": 1964,
      "##iːz\n": 1965,
      "## (al": 1966,
      "##ænt": 1967,
      "##ʏt": 1968,
      "##ɑː\n": 1969,
      "##a s": 1970,
      "##ruː\n": 1971,
      "##eʹz": 1972,
      "##a͜ut": 1973,
      "ʹgl": 1974,
      "##,  ": 1975,
      "##ɪf\n": 1976,
      "##pən": 1977,
      "##ɔːɫ\n": 1978,
      "##ɔlfgaŋ\n": 1979,
      "##rɛn": 1980,
      "##ɪɫjəm": 1981,
      "##ɪʤ": 1982,
      "##ɪz\n": 1983,
      "##vɛr": 1984,
      "## dɛl": 1985,
      "##ɔvaː": 1986,
      "##ɛɫ\n": 1987,
      "##sn̩": 1988,
      "##əz\n": 1989,
      "##ax\n": 1990,
      "sp": 1991,
      "##rɔl": 1992,
      "##a (s": 1993,
      "##ɔfski\n": 1994,
      "##alk": 1995,
      "##ga\n": 1996,
      "##eʹk": 1997,
      "##juːl": 1998,
      "ʹan": 1999,
      "##i (ʹ": 2000,
      "##u̯aŋ": 2001,
      "##yːɐ̯": 2002,
      "##æg": 2003,
      "##yːn": 2004,
      "##eːtɐ": 2005,
      "fl": 2006,
      "gar": 2007,
      "kr": 2008,
      "pl": 2009,
      "##ʌnd": 2010,
      "ʹbra": 2011,
      "##ʏnt": 2012,
      "##eːri": 2013,
      "##i, s": 2014,
      "##o (k": 2015,
      "##iˌt": 2016,
      "##eb": 2017,
      "##ɛrv": 2018,
      "##ɔns": 2019,
      "##ɛks\n": 2020,
      "##, ˌpeːtɐ\n": 2021,
      "##dɐ": 2022,
      "##ʌk": 2023,
      "##eɪz": 2024,
      "##riːm": 2025,
      "##rɛm": 2026,
      "##asp": 2027,
      "##ãʹt": 2028,
      "##oːzɛf\n": 2029,
      "##sd": 2030,
      "##eɪv": 2031,
      "##raɪən\n": 2032,
      "##i, ˌm": 2033,
      "##ʏk": 2034,
      "## di": 2035,
      "aʹm": 2036,
      "##ə, ʹ": 2037,
      "##la)\n": 2038,
      "##rɔk": 2039,
      "##ʌv": 2040,
      "##oʊk": 2041,
      "##ɔŋ\n": 2042,
      "##ɛːn": 2043,
      "##ʊn\n": 2044,
      "## e": 2045,
      "##rɪv": 2046,
      "##ɪŋən": 2047,
      "##aɪɫ": 2048,
      "ʹʃl": 2049,
      "##ɔm\n": 2050,
      "##a͜ik": 2051,
      "##uʹg": 2052,
      "##æː": 2053,
      "##ʌst": 2054,
      "##iːʦ": 2055,
      "##ɛrˌn": 2056,
      "##riˌ": 2057,
      "##fɛlt": 2058,
      "##əns\n": 2059,
      "##ɔrk\n": 2060,
      "##ɑː)\n": 2061,
      "##u̯af": 2062,
      "##a (b": 2063,
      "ap": 2064,
      "##iʎ": 2065,
      "##os": 2066,
      "##ɐm": 2067,
      "##gr": 2068,
      "mal": 2069,
      "## kɔ": 2070,
      "##ɔʹk": 2071,
      "##hoːf": 2072,
      "##, ˌpiːt": 2073,
      "##jɪ": 2074,
      "##ʌl": 2075,
      "##, ar": 2076,
      "## beː": 2077,
      "##ar)\n": 2078,
      "## ˌst": 2079,
      "##aks\n": 2080,
      "ˌʧ": 2081,
      "## ænd": 2082,
      "##iʹɲ": 2083,
      "## (z": 2084,
      "##ɪns": 2085,
      "##õː": 2086,
      "##æʃ": 2087,
      "##jɛʒ": 2088,
      "##rɔv": 2089,
      "##oˌz": 2090,
      "##ɛla\n": 2091,
      "##rɔʃ": 2092,
      "##viʧ)\n": 2093,
      "##i)": 2094,
      "##anj": 2095,
      "##ʊŋk": 2096,
      "##ui̯": 2097,
      "##eɪʃən\n": 2098,
      "##u̯i\n": 2099,
      "##ʊrk": 2100,
      "##                           \n": 2101,
      "##ɝːg": 2102,
      "##ɛst\n": 2103,
      "aʹb": 2104,
      "##man\n": 2105,
      "## ʹbr": 2106,
      "ʹɛr": 2107,
      "##ʦɛf\n": 2108,
      "ʹvɪl": 2109,
      "##iʨ": 2110,
      "##eʹb": 2111,
      "##ʏs": 2112,
      "##oːx": 2113,
      "##rax": 2114,
      "##ʹliːn": 2115,
      "##a, k": 2116,
      "##ən)\n": 2117,
      "##a͜un": 2118,
      "ʹval": 2119,
      "##ʏrg": 2120,
      "##ra͜in": 2121,
      "##ɔʹp": 2122,
      "##aʹw": 2123,
      "##ɔːn\n": 2124,
      "##ɛːl": 2125,
      "##ɔːl\n": 2126,
      "##a b": 2127,
      "##s, ˌ": 2128,
      "##iːʃ": 2129,
      "##i̯ɛn": 2130,
      "##ɑːɫ": 2131,
      "##ɑːrt": 2132,
      "##eːla\n": 2133,
      "##bət\n": 2134,
      "kap": 2135,
      "##ʹst": 2136,
      "##ɔʹg": 2137,
      "##ʣ\n": 2138,
      "##aːʃ": 2139,
      "##ɪlɪp\n": 2140,
      "##, ˌmɪçaeːl\n": 2141,
      "##ˌtiːn": 2142,
      "##ɪɫjəm\n": 2143,
      "san": 2144,
      "##up": 2145,
      "##ni\n": 2146,
      "##, ʹrɔ": 2147,
      "##ɔː\n": 2148,
      "##a, s": 2149,
      "##rin": 2150,
      "##asˌt": 2151,
      "##                          \n": 2152,
      "##kɔf, ": 2153,
      "##eɪl": 2154,
      "##ɔld": 2155,
      "##ɔʦ": 2156,
      "##ero": 2157,
      "##œn": 2158,
      "##, ʧ": 2159,
      "## ˌj": 2160,
      "## (ʹr": 2161,
      "##ɔlk": 2162,
      "##ɪŋən\n": 2163,
      "##ɨn": 2164,
      "##eːn\n": 2165,
      "##uːra": 2166,
      "##i, f": 2167,
      "##ʹjan": 2168,
      "##la͜us\n": 2169,
      "gl": 2170,
      "ɛs": 2171,
      "##ɔks": 2172,
      "##oʹp": 2173,
      "##iːas": 2174,
      "##eːp": 2175,
      "##rɪʦ": 2176,
      "##ɑːk\n": 2177,
      "##reːn": 2178,
      "##, ˌnɪk": 2179,
      "##ˌriː": 2180,
      "## (ʹʃ": 2181,
      "##ɔːri": 2182,
      "##a fɔn": 2183,
      "##, ˌroː": 2184,
      "##rɔt": 2185,
      "##a͜us\n": 2186,
      "##ɪkʹs": 2187,
      "##, alɛʹks": 2188,
      "##ĩ̯": 2189,
      "##ma\n": 2190,
      "##ɔk\n": 2191,
      "##ɐʹ": 2192,
      "##alj": 2193,
      "##raˌ": 2194,
      "##rɪl": 2195,
      "##u̯is": 2196,
      "##ænə\n": 2197,
      "##reːd": 2198,
      "##ɔ͜yn": 2199,
      "##ont": 2200,
      "##aːʒ": 2201,
      "##ʹθ": 2202,
      "##jɛm": 2203,
      "ʹʃv": 2204,
      "##ɛsʹt": 2205,
      "##oːne": 2206,
      "##oːra": 2207,
      "## st": 2208,
      "##əʹd": 2209,
      "##ft": 2210,
      "##jɛŋkɔ\n": 2211,
      "ɛn": 2212,
      "##ʊz": 2213,
      "##ɔlʦ": 2214,
      "##as)\n": 2215,
      "##, kat": 2216,
      "##oʹham": 2217,
      "##eð": 2218,
      "##a͜iʹ": 2219,
      "##ɪnski\n": 2220,
      "##i, k": 2221,
      "##kɔnst": 2222,
      "ɛm": 2223,
      "##a ʹm": 2224,
      "##bət": 2225,
      "##ez": 2226,
      "##eʹv": 2227,
      "##zeː\n": 2228,
      "##yʹl": 2229,
      "##a (p": 2230,
      "sm": 2231,
      "##  (": 2232,
      "##alp": 2233,
      "##rɛç": 2234,
      "##aːta\n": 2235,
      "##ɔɪ": 2236,
      "##æŋk": 2237,
      "##alt\n": 2238,
      "##ɔs)\n": 2239,
      "##uːtvɪç": 2240,
      "kaʹl": 2241,
      "##ʦɪç\n": 2242,
      "##ˌʒ": 2243,
      "##rad": 2244,
      "##ɛkʹs": 2245,
      "##ʃta͜in\n": 2246,
      "at": 2247,
      "ʹθ": 2248,
      "##i m": 2249,
      "##røː": 2250,
      "##əp": 2251,
      "##æz": 2252,
      "##lã": 2253,
      "##ɛ̃ː": 2254,
      "##ɑn)\n": 2255,
      "##ɛʹd": 2256,
      "##ɛrʹm": 2257,
      "##amʹb": 2258,
      "##og": 2259,
      "##ʌt": 2260,
      "##uːr\n": 2261,
      "##ɛrɪk\n": 2262,
      "##lip\n": 2263,
      "##                                               \n": 2264,
      "##jɔn": 2265,
      "##ˌʦ": 2266,
      "##ʌð": 2267,
      "## de\n": 2268,
      "##ɪld": 2269,
      "##aʃ\n": 2270,
      "bɛn": 2271,
      "##wɪn": 2272,
      "##aʹrɛ": 2273,
      "##vɪt": 2274,
      "gu̯": 2275,
      "##aβ": 2276,
      "##əri": 2277,
      "##, aˌl": 2278,
      "##ɛni\n": 2279,
      "iː": 2280,
      "tr": 2281,
      "##ir)\n": 2282,
      "##jɔt": 2283,
      "##i̯ən\n": 2284,
      "##iˌs": 2285,
      "##əŋ": 2286,
      "##)                ": 2287,
      "##ˌʤ": 2288,
      "## (ʤ": 2289,
      "##andr)\n": 2290,
      "##)            ": 2291,
      "##iːʤ": 2292,
      "##i̯ɔn": 2293,
      "##iːja\n": 2294,
      "##, ʹst": 2295,
      "##ɪn)\n": 2296,
      "##ɛnt\n": 2297,
      "##rɪt\n": 2298,
      "##asʹk": 2299,
      "ʹrɒ": 2300,
      "##ãːu̯": 2301,
      "##aːri̯o\n": 2302,
      "##re\n": 2303,
      "##uʹv": 2304,
      "##ən ": 2305,
      "##oz": 2306,
      "##uːx": 2307,
      "##ən ʹ": 2308,
      "## (ʹj": 2309,
      "##oˌd": 2310,
      "##ə, ": 2311,
      "##zə\n": 2312,
      "##eːɐ̯\n": 2313,
      "##rɛs\n": 2314,
      "##ara\n": 2315,
      "##freːt\n": 2316,
      "##rj": 2317,
      "##æŋ": 2318,
      "##ani\n": 2319,
      "##ɛnri\n": 2320,
      "##ska": 2321,
      "##ɪr\n": 2322,
      "##ˌgeː": 2323,
      "ad": 2324,
      "##jə\n": 2325,
      "##ʏtə\n": 2326,
      "##ɛri": 2327,
      "##iʹʦ": 2328,
      "##rɪʦ\n": 2329,
      "##yːd": 2330,
      "##axt": 2331,
      "ʹkɔl": 2332,
      "##//": 2333,
      "##rɪm": 2334,
      "##, ʤɔn\n": 2335,
      "ag": 2336,
      "##lant\n": 2337,
      "##wɔː": 2338,
      "##a͜ul\n": 2339,
      "##raːm": 2340,
      "##uʹʧ": 2341,
      "##ɛʤ": 2342,
      "##ɔ̯": 2343,
      "##əg": 2344,
      "##ɪʦ\n": 2345,
      "##oʹf": 2346,
      "##æm\n": 2347,
      "##hɔr": 2348,
      "##ɔnʹt": 2349,
      "##aːnɔf": 2350,
      "ʹʃn": 2351,
      "##ərə\n": 2352,
      "##a ˌ": 2353,
      "##iɲ": 2354,
      "##ev": 2355,
      "##i̯a ": 2356,
      "##ɔrt\n": 2357,
      "##eˌs": 2358,
      "## də la": 2359,
      "##oʹhan": 2360,
      "##ɪʹn": 2361,
      "##ɛlm\n": 2362,
      "ʹkɔr": 2363,
      "##ʦki\n": 2364,
      "ʹap": 2365,
      "##rɐ": 2366,
      "##æri": 2367,
      "##ɛs, ": 2368,
      "##, miˌʃ": 2369,
      "baʹ": 2370,
      "##pt": 2371,
      "##ɔrʒ": 2372,
      "##raːf": 2373,
      "##ə ʹk": 2374,
      "##aʹriːa\n": 2375,
      "##, ˌmartiːn\n": 2376,
      "aʹr": 2377,
      "##ʃp": 2378,
      "##ski, ʹ": 2379,
      "##aɪd": 2380,
      "##la͜ud": 2381,
      "ʹak": 2382,
      "##ɔˌl": 2383,
      "##nɐ, ˌ": 2384,
      "##eg": 2385,
      "##stə\n": 2386,
      "##eˌb": 2387,
      "##ɐn\n": 2388,
      "##ardo\n": 2389,
      "## deːɐ̯ ʹ": 2390,
      "ʹrɛ": 2391,
      "##ɑːg": 2392,
      "##jɛʹl": 2393,
      "##ãʹd": 2394,
      "## mar": 2395,
      "##ɛvɪn\n": 2396,
      "##weɪ": 2397,
      "##ʌd": 2398,
      "##, ˌbr": 2399,
      "##ənb": 2400,
      "##ris\n": 2401,
      "##, anʹdreː": 2402,
      "##riːdrɪç": 2403,
      "maʹt": 2404,
      "##laʹd": 2405,
      "##lam": 2406,
      "##rɔn\n": 2407,
      "##ɔ̃ː": 2408,
      "##ruːn": 2409,
      "##ɑːrk\n": 2410,
      "##o (m": 2411,
      "##ɪʦk": 2412,
      "##, ˌal": 2413,
      "##eːri̯": 2414,
      "##aˌz": 2415,
      "##a͜ug": 2416,
      "##vɪs": 2417,
      "##iˌd": 2418,
      "##oʊnz": 2419,
      "##, moˌham": 2420,
      "##iːta\n": 2421,
      "##, ˌtoːmas\n": 2422,
      "##eː ɛm": 2423,
      "##ɛʹv": 2424,
      "##ʃl": 2425,
      "##ob": 2426,
      "##, krɪsˌt": 2427,
      "##arʹm": 2428,
      "##ɪnʦ": 2429,
      "##kɔt": 2430,
      "ʹbɛn": 2431,
      "##u̯ɛl": 2432,
      "##oʊb": 2433,
      "##rɪŋ\n": 2434,
      "man": 2435,
      "##ry": 2436,
      "##gə\n": 2437,
      "##ʏm": 2438,
      "##, ʹæl": 2439,
      "## (ʹz": 2440,
      "ʹkɫ": 2441,
      "##, ʹmark": 2442,
      "##i ˌ": 2443,
      "##ɔʹʃ": 2444,
      "##aːm\n": 2445,
      "##ɛr)\n": 2446,
      "##jɛvɪʧ": 2447,
      "##, karl": 2448,
      "##ɔŋg": 2449,
      "ʹeː": 2450,
      "##sl": 2451,
      "##, ˌæɫ": 2452,
      "##aːk\n": 2453,
      "##ɫi\n": 2454,
      "##, ˌrɪʧ": 2455,
      "##uːf": 2456,
      "ʹba͜u": 2457,
      "##aːli\n": 2458,
      "##ma͜i": 2459,
      "ʹpɛr": 2460,
      "##ɔ͜yt": 2461,
      "##ɐf)\n": 2462,
      "##oːm\n": 2463,
      "##, joˌhan": 2464,
      "##ka)\n": 2465,
      "##o (ʹ": 2466,
      "##ʒã": 2467,
      "##i̯a (": 2468,
      "ʹbɛk": 2469,
      "##ɐ, j": 2470,
      "##fɛlt\n": 2471,
      "kam": 2472,
      "##aʎ": 2473,
      "##i, ˌk": 2474,
      "##ɛθ": 2475,
      "##jɔ̃": 2476,
      "##ɔrʹt": 2477,
      "##ʊrt\n": 2478,
      "##ɛŋg": 2479,
      "##is)\n": 2480,
      "##valtɐ\n": 2481,
      "ʹʊnt": 2482,
      "##uʹp": 2483,
      "##ɛld": 2484,
      "##ɛnʹd": 2485,
      "##ɔrx": 2486,
      "##u̯ɛl\n": 2487,
      "##oʊt": 2488,
      "##jɛd": 2489,
      "##jɛn\n": 2490,
      "##lav": 2491,
      "##las\n": 2492,
      "##ʹbɛrt": 2493,
      "##lin": 2494,
      "##, frãˌs": 2495,
      "ʹkɔː": 2496,
      "##ændruː\n": 2497,
      "##ʊʃ\n": 2498,
      "##ɪsmʊs\n": 2499,
      "ʹaːd": 2500,
      "##əʹp": 2501,
      "##æt\n": 2502,
      "##sk\n": 2503,
      "## kl": 2504,
      "##uʹx": 2505,
      "kɔm": 2506,
      "##ist": 2507,
      "##zə": 2508,
      "##uːs\n": 2509,
      "##rɔp": 2510,
      "##aɪk\n": 2511,
      "##ɔsʹt": 2512,
      "mɔ̃": 2513,
      "##a, ˌm": 2514,
      "##ih": 2515,
      "##uˌl": 2516,
      "## (ˌm": 2517,
      "##uːl\n": 2518,
      "##oːh": 2519,
      "##ɛls": 2520,
      "##eɪt\n": 2521,
      "##aːni\n": 2522,
      "ʹsl": 2523,
      "##i, l": 2524,
      "##a͜inʦ\n": 2525,
      "##risˌt": 2526,
      "##iːd\n": 2527,
      "##ɛlj": 2528,
      "##iːno": 2529,
      "##i, ˌp": 2530,
      "##, anˌt": 2531,
      "##rʌ": 2532,
      "##u d": 2533,
      "##æv": 2534,
      "##iːj": 2535,
      "##aːw": 2536,
      "##eːɔrk\n": 2537,
      "##rã\n": 2538,
      "##aːvɪt\n": 2539,
      "##a ʹk": 2540,
      "##ik\n": 2541,
      "##øːɐ̯": 2542,
      "## ðə": 2543,
      "aʹn": 2544,
      "ʹalt": 2545,
      "##ʹri": 2546,
      "##ɐ ": 2547,
      "##ɒp": 2548,
      "##ʊks": 2549,
      "##ɪʃt": 2550,
      "##aʹɲ": 2551,
      "##reɪ\n": 2552,
      "##œːr": 2553,
      "av": 2554,
      "ɪl": 2555,
      "##ɒf": 2556,
      "##eːk\n": 2557,
      "##i̯u\n": 2558,
      "##ɔrf": 2559,
      "##ɑːb": 2560,
      "##reɪn": 2561,
      "##, ˌhan": 2562,
      "ɑː": 2563,
      "##lɪn": 2564,
      "##əh": 2565,
      "##ug": 2566,
      "ʹkn": 2567,
      "##reːg": 2568,
      "##, ʹmɪçaeːl\n": 2569,
      "aʹd": 2570,
      "ɔ͜y": 2571,
      "##ɚz\n": 2572,
      "## (ɐ": 2573,
      "##eːla": 2574,
      "##ɛnɪs\n": 2575,
      "##rɔs\n": 2576,
      "ʹfɪʃ": 2577,
      "##a, x": 2578,
      "##əˌɫ": 2579,
      "##i̯oʹn": 2580,
      "ʹa͜i": 2581,
      "ˌj": 2582,
      "##ʧɪn": 2583,
      "##ɛrɪk": 2584,
      "##ɔːʤ\n": 2585,
      "##ænd\n": 2586,
      "##oːna\n": 2587,
      "bɔr": 2588,
      "gal": 2589,
      "##ə ʹm": 2590,
      "##aːbl": 2591,
      "kan": 2592,
      "##ʔʊnt": 2593,
      "##ɔ͜yʧ": 2594,
      "##ɔvɪʧ\n": 2595,
      "##əʹg": 2596,
      "##æf": 2597,
      "## (ʹw": 2598,
      "##lak": 2599,
      "##andra\n": 2600,
      "##vil": 2601,
      "##ɛˌl": 2602,
      "##ɐman": 2603,
      "##ys": 2604,
      "## (ɕ": 2605,
      "##aʹreː": 2606,
      "##kɔs": 2607,
      "ʹmɪl": 2608,
      "##ɪli\n": 2609,
      "##ika\n": 2610,
      "pɛr": 2611,
      "sal": 2612,
      "##iɫ": 2613,
      "## (ʹx": 2614,
      "##ˌtɛt\n": 2615,
      "##aŋʹg": 2616,
      "##a t": 2617,
      "##ʹɲ": 2618,
      "##i, ˌʤ": 2619,
      "##o m": 2620,
      "##ʌɫ": 2621,
      "##                         \n": 2622,
      "##ɛə\n": 2623,
      "##bən": 2624,
      "##i̯a)\n": 2625,
      "##i̯o)\n": 2626,
      "##a, f": 2627,
      "##juːn": 2628,
      "##, ʹmart": 2629,
      "##kɔʹl": 2630,
      "##aɪm": 2631,
      "##ɛi̯n\n": 2632,
      "##if": 2633,
      "##, ɔl": 2634,
      "##aːs\n": 2635,
      "## ˌɫ": 2636,
      "##eɪp": 2637,
      "##ʹsiː": 2638,
      "##, ˌdaːni̯": 2639,
      "##øːm": 2640,
      "##ˌsãː": 2641,
      "##sən, ˌ": 2642,
      "##a                                          \n": 2643,
      "##raʹ": 2644,
      "##ʦɪç": 2645,
      "##zn": 2646,
      "##y\n": 2647,
      "##anə\n": 2648,
      "##eːt\n": 2649,
      "##uːka\n": 2650,
      "##ɔrf\n": 2651,
      "##ɔn)\n": 2652,
      "ʹmar": 2653,
      "##, ˌtɒm": 2654,
      "##riʹk": 2655,
      "##, miˌʃɛl\n": 2656,
      "##raŋ": 2657,
      "##eɪʃən": 2658,
      "##aˌri": 2659,
      "##i, d": 2660,
      "##aːri\n": 2661,
      "##ɪti\n": 2662,
      "ʹbraʊn": 2663,
      "##ij)\n": 2664,
      "##e m": 2665,
      "##oʊd": 2666,
      "##oʊv": 2667,
      "##aːlɛs": 2668,
      "##y̆ɛn": 2669,
      "##loːd\n": 2670,
      "ˌst": 2671,
      "##ps": 2672,
      "##aːx": 2673,
      "##ɪlt": 2674,
      "##, ˌsɛr": 2675,
      "##, ʹwɪlj": 2676,
      "vɛr": 2677,
      "ʹæl": 2678,
      "##aʒ": 2679,
      "##ral": 2680,
      "##ə̯": 2681,
      "##jak": 2682,
      "##ʌb": 2683,
      "##ʌnt": 2684,
      "ʹkar": 2685,
      "##əˌl": 2686,
      "##varʦ": 2687,
      "##ʹʃt": 2688,
      "##ʊɫ": 2689,
      "##lɐ, ˌ": 2690,
      "##ɔʃ\n": 2691,
      "##iːra\n": 2692,
      "##eɪmz\n": 2693,
      "##loːri̯": 2694,
      "ʹam": 2695,
      "##ʹrɛ": 2696,
      "##iu̯": 2697,
      "##wɜː": 2698,
      "##ɑm": 2699,
      "##anˌd": 2700,
      "##ɛl)\n": 2701,
      "##eɪb": 2702,
      "##a, al": 2703,
      "##, ˌkl": 2704,
      "##juːt": 2705,
      "##ɛrnɐ\n": 2706,
      "##, ʹtɔm": 2707,
      "##vɪlhɛlm\n": 2708,
      "##, hans": 2709,
      "aʹg": 2710,
      "##ikɔf\n": 2711,
      "##nɐ, ʹ": 2712,
      "##eʹf": 2713,
      "##waɪ": 2714,
      "##rɪʤ": 2715,
      "##, ˌwɪɫjəm\n": 2716,
      "aʹk": 2717,
      "##eθ": 2718,
      "##iːr\n": 2719,
      "ʹhɔl": 2720,
      "##lik": 2721,
      "##a, l": 2722,
      "##roːt": 2723,
      "##iːmiːɐ̯": 2724,
      "##a ʹs": 2725,
      "##i b": 2726,
      "##ɛ̯": 2727,
      "##uf)\n": 2728,
      "##ɪʹk": 2729,
      "##o, ˌ": 2730,
      "##uːri": 2731,
      "##ɛrʦ": 2732,
      "##ʹman": 2733,
      "##, maʹt": 2734,
      "##i, al": 2735,
      "##o (b": 2736,
      "##agn": 2737,
      "##əʹɫ": 2738,
      "##ɛvɪʧ": 2739,
      "##iːh": 2740,
      "##arʹn": 2741,
      "##ɔrm": 2742,
      "##eʹp": 2743,
      "##ere": 2744,
      "##ɔrst": 2745,
      "##əls": 2746,
      "##ʹjaːn": 2747,
      "##ʊmb": 2748,
      "##ɔˌd": 2749,
      "##jɔf": 2750,
      "##friːt\n": 2751,
      "##aːja\n": 2752,
      "##ɔnʹs": 2753,
      "##oʊp": 2754,
      "##vɪr": 2755,
      "ʹsv": 2756,
      "ʹliː": 2757,
      "##ə ʹb": 2758,
      "##ɛi̯d": 2759,
      "##æmb": 2760,
      "##ʊb": 2761,
      "##laˌd": 2762,
      "##arʹk": 2763,
      "##uːɫ": 2764,
      "##kɔp": 2765,
      "##ɔnj": 2766,
      "##ʹdiːn": 2767,
      "##a g": 2768,
      "##jeːjɛf\n": 2769,
      "##bɚt": 2770,
      "##ið": 2771,
      "##ɪə\n": 2772,
      "##ɪʹt": 2773,
      "##oh": 2774,
      "##alb": 2775,
      "## ˌz": 2776,
      "##a͜if": 2777,
      "##ʹmaːn": 2778,
      "##ɑːrk": 2779,
      "##iːzab": 2780,
      "##ɪst\n": 2781,
      "##, marˌs": 2782,
      "baːt": 2783,
      "kaʹp": 2784,
      "##œk": 2785,
      "##oʊn\n": 2786,
      "##ãʹs": 2787,
      "##ɛːɐ̯": 2788,
      "##ɛs ": 2789,
      "##andro\n": 2790,
      "##, maˌn": 2791,
      "##ɪstrə\n": 2792,
      "sam": 2793,
      "##ɛ)": 2794,
      "##sən\n": 2795,
      "##ˌri": 2796,
      "##gn": 2797,
      "##aːol": 2798,
      "##aʹβ": 2799,
      "##aʹri̯": 2800,
      "##iʹx": 2801,
      "ʹham": 2802,
      "##man, ʹ": 2803,
      "##ʏnf": 2804,
      "##ruːdɔlf\n": 2805,
      "##ɒs": 2806,
      "##iːən\n": 2807,
      "##uːʃ": 2808,
      "##u̯is\n": 2809,
      "ʹhæ": 2810,
      "ʹdeɪvɪ": 2811,
      "##iˌk": 2812,
      "##yːr": 2813,
      "##red": 2814,
      "##oːzɛf": 2815,
      "##ʊndɐt": 2816,
      "##, ˌstiːvən\n": 2817,
      "##i s": 2818,
      "##lən": 2819,
      "##era": 2820,
      "##iː, m": 2821,
      "##alʦ": 2822,
      "##eɪʤ": 2823,
      "##jɛk": 2824,
      "##aɪv": 2825,
      "##oˌvan": 2826,
      "##roːm\n": 2827,
      "##ranʦ": 2828,
      "##, ʹkarl": 2829,
      "##jat": 2830,
      "##ẽ": 2831,
      "##ɛrb": 2832,
      "##ɛrʹv": 2833,
      "##kɔvɪʧ": 2834,
      "##rɪf": 2835,
      "##ɔrʒ\n": 2836,
      "##ɛsp": 2837,
      "##oˌf": 2838,
      "## ba͜i": 2839,
      "##iːdɐ": 2840,
      "pro": 2841,
      "##i k": 2842,
      "##ja)\n": 2843,
      "## ʹr": 2844,
      "##ark\n": 2845,
      "##oːra\n": 2846,
      "##u̯an\n": 2847,
      "##u̯ei̯": 2848,
      "##jɛ̃": 2849,
      "##a, d": 2850,
      "alt": 2851,
      "##riːdrɪç\n": 2852,
      "##ɛrʹnand": 2853,
      "ant": 2854,
      "ɔl": 2855,
      "##a f": 2856,
      "##ʊg": 2857,
      "##ə)": 2858,
      "##d)\n": 2859,
      "##eːra\n": 2860,
      "##i̯oːn": 2861,
      "##əni\n": 2862,
      "ʹluː": 2863,
      "##ʊnt\n": 2864,
      "##iˌlip\n": 2865,
      "##i̯aːna\n": 2866,
      "##oʹvan": 2867,
      "kat": 2868,
      "##ɛð": 2869,
      "##ɛʦ\n": 2870,
      "##bɛk": 2871,
      "##ɛrg": 2872,
      "##ɛl ": 2873,
      "##kɔm": 2874,
      "##rɛ̃": 2875,
      "##, mix": 2876,
      "##skij": 2877,
      "ax": 2878,
      "ʹœ": 2879,
      "ʹɪn": 2880,
      "##əʹz": 2881,
      "##oro": 2882,
      "##ˌbɛrt": 2883,
      "##ɛna\n": 2884,
      "##aʃa\n": 2885,
      "##ræŋk": 2886,
      "kaʹn": 2887,
      "##ɔh": 2888,
      "## ʹx": 2889,
      "##oʊs": 2890,
      "##i, b": 2891,
      "##                        \n": 2892,
      "##øː\n": 2893,
      "ʹʤɒn": 2894,
      "## (ˌp": 2895,
      "ʹlaŋ": 2896,
      "##ad\n": 2897,
      "##ɔʒ": 2898,
      "##ˌri\n": 2899,
      "##aʹʦi̯": 2900,
      "##ɛrs": 2901,
      "##u̯af\n": 2902,
      "##ɛːz": 2903,
      "##inɛn": 2904,
      "##ɪrk": 2905,
      "kɔ̃": 2906,
      "##əˌt": 2907,
      "##əʹh": 2908,
      "##iːra": 2909,
      "##, ˌvɪkt": 2910,
      "## ˌʧ": 2911,
      "ʹbɫ": 2912,
      "##raːt\n": 2913,
      "##a, g": 2914,
      "ʹra͜in": 2915,
      "##o, ʤ": 2916,
      "##, alɛkˌs": 2917,
      "##ɪps": 2918,
      "##ʊstaf": 2919,
      "##ɪxaˌ": 2920,
      "##eː ɛm beː": 2921,
      "##ʹra": 2922,
      "##ɛʃ\n": 2923,
      "##ŋʹg": 2924,
      "##jaːn": 2925,
      "##byː": 2926,
      "##ha͜uz": 2927,
      "##ɒm\n": 2928,
      "##i̯o (": 2929,
      "##ɑːnd": 2930,
      "##yːs": 2931,
      "##o, f": 2932,
      "##, ˌjan": 2933,
      "##, ʤɔn": 2934,
      "##æb": 2935,
      "##zb": 2936,
      "##za\n": 2937,
      "##eːa\n": 2938,
      "##ɛli\n": 2939,
      "## ˌʃ": 2940,
      "##ɑːθ": 2941,
      "##raːs": 2942,
      "##ɛ̃t": 2943,
      "##ɔva": 2944,
      "##a (ʹs": 2945,
      "##iːza\n": 2946,
      "maʹn": 2947,
      "ʹaːb": 2948,
      "##, aˌ": 2949,
      "##i̯ʊm\n": 2950,
      "##rɪks": 2951,
      "##rɛ\n": 2952,
      "##ɐ, ˌl": 2953,
      "##jej": 2954,
      "##ɑːns": 2955,
      "##ɛsko\n": 2956,
      "##aˌriːa\n": 2957,
      "lə ": 2958,
      "##raŋk\n": 2959,
      "##u̯e": 2960,
      "ʹtr": 2961,
      "##ɛi̯k": 2962,
      "##ruːp": 2963,
      "##ɔʹrɔ": 2964,
      "##ɛrman\n": 2965,
      "nɔ͜y": 2966,
      "##ɪʹm": 2967,
      "##arʹl": 2968,
      "ˌɫ": 2969,
      "##aθ": 2970,
      "## ɛn": 2971,
      "##lɪn\n": 2972,
      "##lant": 2973,
      "##of": 2974,
      "##ef": 2975,
      "##ʌŋk": 2976,
      "##anˌdreː": 2977,
      "##eːo\n": 2978,
      "##i̯ɔn\n": 2979,
      "##ɛnʧ": 2980,
      "##a, n": 2981,
      "##oˌax": 2982,
      "##ni)\n": 2983,
      "## ʹkl": 2984,
      "##anʹdreː": 2985,
      "##roːn": 2986,
      "##ˌr": 2987,
      "## ʹaɪl": 2988,
      "##, ʹʃ": 2989,
      "##əɫd\n": 2990,
      "##i, ˌt": 2991,
      "##, ˌpɔːɫ\n": 2992,
      "## de la": 2993,
      "##, ˌjan\n": 2994,
      "##ændi\n": 2995,
      "##rɪsʹt": 2996,
      "##, maˌtiːas\n": 2997,
      "##i d": 2998,
      "##yʹn": 2999,
      "##iːf\n": 3000,
      "##oːf\n": 3001,
      "##eɪk\n": 3002,
      "##eɪdi": 3003,
      "##u̯a\n": 3004,
      "##laʦ\n": 3005,
      "ʹtɒm": 3006,
      "##a͜inrɪç\n": 3007,
      "##ɝːk": 3008,
      "ʹwɪɫjəm": 3009,
      "##ɑːn)\n": 3010,
      "kaʹm": 3011,
      "pɔl": 3012,
      "tʊ": 3013,
      "##aɣ": 3014,
      "##a                                           \n": 3015,
      "##ɛʹb": 3016,
      "##ʊl\n": 3017,
      "##ns": 3018,
      "##ɑh": 3019,
      "##ʌn\n": 3020,
      "##            ": 3021,
      "##aːrɔf\n": 3022,
      "## ʹʃt": 3023,
      "##ɛrt\n": 3024,
      "##ɪnsən": 3025,
      "##rɔf, ": 3026,
      "##ri)\n": 3027,
      "##ɔlt\n": 3028,
      "##aɪz": 3029,
      "##ɔfski, ": 3030,
      "##bri̯": 3031,
      "##mans": 3032,
      "##asti̯an\n": 3033,
      "##əbə": 3034,
      "##)                               \n": 3035,
      "##va\n": 3036,
      "##ʌf": 3037,
      "ʹpɛt": 3038,
      "##ʊlrɪç\n": 3039,
      "##ʹkɔː": 3040,
      "##a (ʹk": 3041,
      "##, ʹpiːt": 3042,
      "##ou̯t": 3043,
      "##ʃn": 3044,
      "##lɐ, ʹ": 3045,
      "##ba͜u": 3046,
      "##, ˌeː": 3047,
      "##, ˌɛm": 3048,
      "##an (": 3049,
      "##rij)\n": 3050,
      "##i, ˌs": 3051,
      "##, karl\n": 3052,
      "##i̯ao̯": 3053,
      "##ɛrˌnand": 3054,
      "kɪm": 3055,
      "##ili": 3056,
      "## juː": 3057,
      "##ɐk": 3058,
      "##al)\n": 3059,
      "##ɛlf": 3060,
      "##riːk": 3061,
      "ʹleː": 3062,
      "ʹfraŋk": 3063,
      "##, kl": 3064,
      "##o, x": 3065,
      "##ɑːrɫ": 3066,
      "##eːɐ̯hart\n": 3067,
      "##ɪgn": 3068,
      "##ʌmpən": 3069,
      "##, ˌjuːl": 3070,
      "mat": 3071,
      "pr": 3072,
      "##rən\n": 3073,
      "##ɔŋk": 3074,
      "ʹkal": 3075,
      "##, mɪxaˌ": 3076,
      "##ɪs, ": 3077,
      "##a, t": 3078,
      "##ɔmb": 3079,
      "## ʹsp": 3080,
      "##, ˌtɔm": 3081,
      "##eɪmz": 3082,
      "məʹg": 3083,
      "##iːrən\n": 3084,
      "pal": 3085,
      "ʹar": 3086,
      "ʹɛm": 3087,
      "##ʹð": 3088,
      "##ɛʦk": 3089,
      "##mar": 3090,
      "##stə": 3091,
      "##iʹh": 3092,
      "##ɔr)\n": 3093,
      "##ɪlʹj": 3094,
      "##aŋʹk": 3095,
      "##ʊr\n": 3096,
      "##iːmiːɐ̯\n": 3097,
      "##nikɔˌl": 3098,
      "maʹl": 3099,
      "##a ʹp": 3100,
      "##rant": 3101,
      "##ɪə": 3102,
      "##eli": 3103,
      "##vɛt": 3104,
      "##aːʃ\n": 3105,
      "##aˌf": 3106,
      "##ɪla\n": 3107,
      "##ɪkˌs": 3108,
      "##æntən": 3109,
      "##ɔ͜y\n": 3110,
      "##ra͜is": 3111,
      "##, maˌriːa\n": 3112,
      "vaʹl": 3113,
      "##i p": 3114,
      "##dn": 3115,
      "##aˌg": 3116,
      "##lax": 3117,
      "ʹʃm": 3118,
      "##raːg": 3119,
      "##ɔto\n": 3120,
      "##a (ʹp": 3121,
      "##aːɐ̯t": 3122,
      "##ærj": 3123,
      "##oʊni\n": 3124,
      "groːs": 3125,
      "kaʹs": 3126,
      "moʹr": 3127,
      "##ɛʹz": 3128,
      "## ɪm": 3129,
      "##rɨ": 3130,
      "##ɔʹz": 3131,
      "##o ʹ": 3132,
      "##æŋg": 3133,
      "##ha͜us": 3134,
      "##laŋk": 3135,
      "ʹhan": 3136,
      "##ʹkl": 3137,
      "##aːlɔf\n": 3138,
      "##iːda\n": 3139,
      "##)                           \n": 3140,
      "##aːkɔp": 3141,
      "ðə ": 3142,
      "ʃp": 3143,
      "ʹɛŋ": 3144,
      "##i, ˌd": 3145,
      "##ɛʹg": 3146,
      "##o k": 3147,
      "##nɐ)\n": 3148,
      "##ʏnd": 3149,
      "## (ˌs": 3150,
      "ʹkrɪst": 3151,
      "ʹmɛl": 3152,
      "##ɔlg": 3153,
      "##ɛːt": 3154,
      "##i, p": 3155,
      "##a n": 3156,
      "##ɔ͜ys": 3157,
      "##, kar": 3158,
      "## fɔn ": 3159,
      "## ʹbl": 3160,
      "##                       \n": 3161,
      "##, ˌrɒbɚt\n": 3162,
      "diː": 3163,
      "##a                                         \n": 3164,
      "##)                                 \n": 3165,
      "##)                             \n": 3166,
      "##ɒŋ": 3167,
      "##ɒd": 3168,
      "##aːʔ": 3169,
      "##aʹni": 3170,
      "##i̯ə\n": 3171,
      "##oːl\n": 3172,
      "##ɛnə": 3173,
      "##raʃ": 3174,
      "##ɔːʤ": 3175,
      "##rɔ̃": 3176,
      "##a͜uf": 3177,
      "##ɪŋz": 3178,
      "ʹvɛst": 3179,
      "##a, j": 3180,
      "##ɐ, ˌf": 3181,
      "##mənt\n": 3182,
      "ʹʃta͜in": 3183,
      "##ʏntɐ\n": 3184,
      "ɔː": 3185,
      "##ɐʃ": 3186,
      "##yˌl": 3187,
      "##ɒks": 3188,
      "##, ʹtoːmas\n": 3189,
      "aɪ": 3190,
      "mak": 3191,
      "##a, ˌk": 3192,
      "##ʃə\n": 3193,
      "##ɔviʨ": 3194,
      "##aʹriːn": 3195,
      "##, ʹal": 3196,
      "##aŋx": 3197,
      "##reːt": 3198,
      "##o̯an\n": 3199,
      "##, ˌpjɛːr\n": 3200,
      "##roːbɛrt\n": 3201,
      "##, ˌmarkʊs\n": 3202,
      "ʹɛk": 3203,
      "##iə\n": 3204,
      "##æst": 3205,
      "##ep": 3206,
      "##, ˌæl": 3207,
      "##i̯eːg": 3208,
      "##oːla": 3209,
      "##, ʹrɪʧ": 3210,
      "##ɪnʧ": 3211,
      "##ɔrʤ": 3212,
      "ʹkɛl": 3213,
      "##ʹgeː\n": 3214,
      "##ʃtat": 3215,
      "##oˌb": 3216,
      "##, ˌpɛt": 3217,
      "##ɪzəbə": 3218,
      "##, ʹpeːtɐ\n": 3219,
      "##ʹβ": 3220,
      "##anʹj": 3221,
      "##uːk\n": 3222,
      "##alɛʹks": 3223,
      "## (ʹst": 3224,
      "##ɛː\n": 3225,
      "##ɪsʹt": 3226,
      "ʹva͜i": 3227,
      "##iˌj": 3228,
      "##ərs": 3229,
      "## syr": 3230,
      "##ruːt": 3231,
      "##iːko\n": 3232,
      "ʹwɪɫjəmz": 3233,
      "##uh": 3234,
      "##dən\n": 3235,
      "##bɪn\n": 3236,
      "##oːri": 3237,
      "##iʹʤ": 3238,
      "##ʹsãː": 3239,
      "##eˌreː": 3240,
      "##æmp": 3241,
      "## //": 3242,
      "##aʹð": 3243,
      "##aʹri\n": 3244,
      "##anja\n": 3245,
      "##i, n": 3246,
      "##ɛk)\n": 3247,
      "##ɛtə\n": 3248,
      "##ɛi̯t": 3249,
      "##, krisˌt": 3250,
      "##brʏ": 3251,
      "##ʊlʦ": 3252,
      "##ãːd": 3253,
      "##uːkas\n": 3254,
      "##ɛu̯": 3255,
      "##tn": 3256,
      "##uˌs": 3257,
      "##ɪʹs": 3258,
      "##wʊd": 3259,
      "##ɒt\n": 3260,
      "##iːri": 3261,
      "##ɔːm": 3262,
      "##ɛta\n": 3263,
      "##ə ʹd": 3264,
      "##øːv": 3265,
      "##, sɪr": 3266,
      "##ɛrnst\n": 3267,
      "##, ʹjoːhan": 3268,
      "##abdɛl": 3269,
      "##əθən\n": 3270,
      "##ɐˌiɫ": 3271,
      "##loːri̯aːn\n": 3272,
      "af": 3273,
      "gaʹl": 3274,
      "##jɛʦ": 3275,
      "ʹhɪl": 3276,
      "##ɪmp": 3277,
      "##viʦ": 3278,
      "## de ": 3279,
      "##rəʹn": 3280,
      "##riʹg": 3281,
      "##aʊn\n": 3282,
      "##ɛçt": 3283,
      "##ɔːkɪstrə\n": 3284,
      "##, alɛˌksandɐ\n": 3285,
      "saʹ": 3286,
      "##a ʹd": 3287,
      "##ɐ ʹh": 3288,
      "##, eˌl": 3289,
      "##i̯aːg": 3290,
      "##uːz\n": 3291,
      "##ɛnʦ\n": 3292,
      "##aɪn\n": 3293,
      "##ʃtɛt": 3294,
      "##ə ʹf": 3295,
      "##o, l": 3296,
      "##, frãʹs": 3297,
      "ʹkɔn": 3298,
      "##uˌzɛp": 3299,
      "##eu̯": 3300,
      "##eˌt": 3301,
      "##yn": 3302,
      "##iːən": 3303,
      "## ʹla": 3304,
      "##i̯oːn\n": 3305,
      "##ɪnski, ˌ": 3306,
      "##ɔrb": 3307,
      "##jɛp": 3308,
      "ʹgriːn": 3309,
      "##a (t": 3310,
      "##, ˌdænj": 3311,
      "##vik": 3312,
      "##a (ʹm": 3313,
      "##ɛŋkɔ\n": 3314,
      "##valt\n": 3315,
      "##, anˌdreːas\n": 3316,
      "maʹk": 3317,
      "##ɛˌm": 3318,
      "##si\n": 3319,
      "##ɔʹf": 3320,
      "##əst": 3321,
      "##ura": 3322,
      "##bɝːg": 3323,
      "##ædə": 3324,
      "##hʊndɐt": 3325,
      "##œt": 3326,
      "##ɚsən": 3327,
      "##, br": 3328,
      "##oʊni": 3329,
      "##əld": 3330,
      "##əɫd": 3331,
      "## geː ɛm beː": 3332,
      "##aʊnti\n": 3333,
      "##uːtvɪç\n": 3334,
      "aʹz": 3335,
      "##ʧɪk": 3336,
      "##ɔra": 3337,
      "##oli": 3338,
      "##ɛrto": 3339,
      "ʹbɛl": 3340,
      "## du": 3341,
      "##riˌk": 3342,
      "ʹhɛn": 3343,
      "ʹgreɪ": 3344,
      "ʹsant": 3345,
      "##dəs": 3346,
      "##ruːp\n": 3347,
      "##oˌaxiːm\n": 3348,
      "##, mɪxaˌil": 3349,
      "maʹs": 3350,
      "##o, ʹ": 3351,
      "##ɨk": 3352,
      "##aʹkɔf": 3353,
      "##an, ": 3354,
      "##eː (": 3355,
      "##arʦ": 3356,
      "ʹmʏl": 3357,
      "##risʹt": 3358,
      "ʹhal": 3359,
      "##ɪkə\n": 3360,
      "##eʹriː": 3361,
      "##i (b": 3362,
      "##oʊld": 3363,
      "##oʊɫd": 3364,
      "##au̯)\n": 3365,
      "##, ˌmarko\n": 3366,
      "aʹ": 3367,
      "##i, ʹm": 3368,
      "##sm": 3369,
      "##o s": 3370,
      "##, ˌʃtɛfan\n": 3371,
      "##i, ...)\n": 3372,
      "ʹva͜is": 3373,
      "##ʃtat\n": 3374,
      "##i, ˌl": 3375,
      "##ɪmb": 3376,
      "##vid": 3377,
      "##mənd": 3378,
      "##ʹʦɔf\n": 3379,
      "##, ˌʒã\n": 3380,
      "juː": 3381,
      "##ryː": 3382,
      "##yʹr": 3383,
      "##arˌt": 3384,
      "##rɔx": 3385,
      "##ɔf, v": 3386,
      "##ɛf)\n": 3387,
      "al ": 3388,
      "##ræŋk\n": 3389,
      "##jɛfski\n": 3390,
      "##kɔvaː": 3391,
      "ɛf": 3392,
      "##ɛˌt": 3393,
      "## ɛm": 3394,
      "##ɔi̯": 3395,
      "##fəd": 3396,
      "##ɚ, ˌʤ": 3397,
      "##ɪŋ)\n": 3398,
      "##aːda\n": 3399,
      "##uʹʤ": 3400,
      "##əˌd": 3401,
      "##əˌv": 3402,
      "##i̯aːno\n": 3403,
      "ly": 3404,
      "ʹɛv": 3405,
      "##i ʹp": 3406,
      "##əʹf": 3407,
      "##u, ˌ": 3408,
      "##jɐ)\n": 3409,
      "##aʹli": 3410,
      "##eːod": 3411,
      "##kɔst": 3412,
      "##ram\n": 3413,
      "##aˌp": 3414,
      "ʹkw": 3415,
      "ʹhɛl": 3416,
      "## fɔː": 3417,
      "##, ˌkæθ": 3418,
      "##ˌsɪsk": 3419,
      "##o (p": 3420,
      "##aʊt": 3421,
      "##, jan\n": 3422,
      "## də m": 3423,
      "##uʹnɔf\n": 3424,
      "##, mixɐˌiɫ": 3425,
      "##ʦən": 3426,
      "##u (": 3427,
      "##da\n": 3428,
      "##eːs\n": 3429,
      "## (ʹʧ": 3430,
      "ʹnɪk": 3431,
      "##uʹʒ": 3432,
      "##, xoˌs": 3433,
      "##)                          \n": 3434,
      "kast": 3435,
      "mɛr": 3436,
      "##a, ˌl": 3437,
      "ʹbɜː": 3438,
      "##vɪst": 3439,
      "##ɔlm": 3440,
      "ʹfɪl": 3441,
      "ʹvɛl": 3442,
      "##ro)\n": 3443,
      "ʹroːz": 3444,
      "##ruːs": 3445,
      "##, daˌn": 3446,
      "##                      \n": 3447,
      "## də l": 3448,
      "##ʹha͜uzn\n": 3449,
      "dɛl": 3450,
      "mõ": 3451,
      "sl": 3452,
      "##abr": 3453,
      "##ʹɫ": 3454,
      "##ə (": 3455,
      "##o, s": 3456,
      "##bl̩": 3457,
      "##fj": 3458,
      "## ʹrɪv": 3459,
      "##ɛnʤ": 3460,
      "##kɔ)\n": 3461,
      "ʹbɛrk": 3462,
      "##aˌla": 3463,
      "##ɑːz": 3464,
      "##rɔɪ": 3465,
      "##rɛt\n": 3466,
      "##ænθ": 3467,
      "##aɪs": 3468,
      "##ɪrg": 3469,
      "##man, ˌ": 3470,
      "##eːlɪks\n": 3471,
      "##, maˌri": 3472,
      "##ɔːni̯o\n": 3473,
      "##øːnɪç": 3474,
      "##vɪlhɛlm": 3475,
      "##ʏrgn̩\n": 3476,
      "##ou̯tiːɐ̯": 3477,
      "ʹiː": 3478,
      "##a ʹb": 3479,
      "##ɔʤ": 3480,
      "##)                              \n": 3481,
      "##vɐ": 3482,
      "##                \n": 3483,
      "##iʹʒ": 3484,
      "##riːo\n": 3485,
      "##lip": 3486,
      "##ɛt)\n": 3487,
      "##ʊsʹt": 3488,
      "##, ˌdaːvɪt\n": 3489,
      "##ɔkt": 3490,
      "##ãːs\n": 3491,
      "##i̯ɛːt": 3492,
      "aʹt": 3493,
      "grã": 3494,
      "ʹɔt": 3495,
      "## rɪ": 3496,
      "##ə m": 3497,
      "##ɪʤ\n": 3498,
      "##or)\n": 3499,
      "##ˌx": 3500,
      "## ʹɫ": 3501,
      "##ari\n": 3502,
      "##ɪnst": 3503,
      "##ɛns\n": 3504,
      "##i, t": 3505,
      "##i, g": 3506,
      "##aɪmən\n": 3507,
      "##yːt\n": 3508,
      "##, ˌdiːtɐ\n": 3509,
      "##oːni\n": 3510,
      "al m": 3511,
      "##ʊlt": 3512,
      "##roːz": 3513,
      "##sɔn, ˌ": 3514,
      "##mɪtri\n": 3515,
      "ʹɔ͜y": 3516,
      "##ap\n": 3517,
      "##a), ": 3518,
      "##rʒ": 3519,
      "##esk": 3520,
      "##amʹp": 3521,
      "##ɪsən": 3522,
      "## kvar": 3523,
      "##ɔ͜yz": 3524,
      "##vit": 3525,
      "##ɐ, ˌt": 3526,
      "##a (ʹb": 3527,
      "##ɛˌn": 3528,
      "##ɪθ\n": 3529,
      "##arʃ": 3530,
      "##alɛˌks": 3531,
      "##ɪnz\n": 3532,
      "##eɪkə": 3533,
      "##ændə": 3534,
      "##ˌgeː\n": 3535,
      "## də b": 3536,
      "anʹt": 3537,
      "##, ˌmark\n": 3538,
      "eː": 3539,
      "##ru\n": 3540,
      "##jas": 3541,
      "##ɑ̃ː": 3542,
      "##iːla": 3543,
      "##arʹb": 3544,
      "##kɔ̃": 3545,
      "##ɑːst": 3546,
      "ʹtɔm": 3547,
      "##ɛt ": 3548,
      "##ə ʹh": 3549,
      "##ʊʃkɪn\n": 3550,
      "anʹd": 3551,
      "ʹas": 3552,
      "##rd": 3553,
      "##ʣə": 3554,
      "##, ˌant": 3555,
      "##aːʤ": 3556,
      "##aː (": 3557,
      "ʹba͜i": 3558,
      "ʹbɔr": 3559,
      "ʹmɔː": 3560,
      "##rɛd\n": 3561,
      "##ɪkt": 3562,
      "ʹsn": 3563,
      "##raːb": 3564,
      "##, ˌkɛvɪn\n": 3565,
      "##bruːn": 3566,
      "##abu": 3567,
      "## ʹpl": 3568,
      "##i (k": 3569,
      "##, anˌd": 3570,
      "##ei̯ra": 3571,
      "##ɛlmuːt\n": 3572,
      "##)                         \n": 3573,
      "##aːkɔp\n": 3574,
      "##bɛrnt\n": 3575,
      "##eˌdu̯": 3576,
      "my": 3577,
      "##ʊd\n": 3578,
      "##jeːn": 3579,
      "##ɐh": 3580,
      "##, ˌaːd": 3581,
      "##uːʧ": 3582,
      "##ɪn, ": 3583,
      "##œːr\n": 3584,
      "## an deːɐ̯": 3585,
      "bʊr": 3586,
      "paʹ": 3587,
      "##a ʹn": 3588,
      "##i ʹm": 3589,
      "##ɛ), ": 3590,
      "##ʊʒ": 3591,
      "##ʃk": 3592,
      "##uf": 3593,
      "##uv": 3594,
      "##ærɪ": 3595,
      "##wa)\n": 3596,
      "##fʊrt": 3597,
      "##ɛl, ": 3598,
      "ʹgɛr": 3599,
      "##ɪŋtən": 3600,
      "##ãt": 3601,
      "##akt": 3602,
      "##, ˌkat": 3603,
      "##ə ʹt": 3604,
      "##øːz": 3605,
      "##ʊlf": 3606,
      "##oʊzɪf\n": 3607,
      "##æʃənəɫ": 3608,
      "dr": 3609,
      "kw": 3610,
      "pan": 3611,
      "##ɛʒ": 3612,
      "##ɪla": 3613,
      "##jɛl\n": 3614,
      "##ɑt": 3615,
      "##ʌp": 3616,
      "##arð": 3617,
      "##ɔrʹd": 3618,
      "##jɛʹn": 3619,
      "ʹha͜in": 3620,
      "##raːl": 3621,
      "##a, p": 3622,
      "##anda\n": 3623,
      "##ɪmi\n": 3624,
      "##o, d": 3625,
      "## (ˌb": 3626,
      "kaz": 3627,
      "əm": 3628,
      "ʃl": 3629,
      "##oʃ": 3630,
      "##ɒnt": 3631,
      "##arp": 3632,
      "##iʹkɔ": 3633,
      "##aːnd": 3634,
      "##vɪŋ": 3635,
      "ʹvɔl": 3636,
      "##axʹm": 3637,
      "##eˌrik\n": 3638,
      "##øːl": 3639,
      "##ɝːt": 3640,
      "marʹtiːn": 3641,
      "##jɛŋkɔf\n": 3642,
      "liː": 3643,
      "ʹç": 3644,
      "##raːn": 3645,
      "##ɔst\n": 3646,
      "##uɔ̯": 3647,
      "##fiːl": 3648,
      "##z ": 3649,
      "##aːz\n": 3650,
      "##eɪɫ\n": 3651,
      "##ɔni\n": 3652,
      "##oʊ)\n": 3653,
      "##ʹkɪrç": 3654,
      "##a, ʤ": 3655,
      "##a l": 3656,
      "##, ˌkɫ": 3657,
      "##aːtɔf\n": 3658,
      "##ɛdi\n": 3659,
      "##, ʒã\n": 3660,
      "##i (m": 3661,
      "##iːzə\n": 3662,
      "##arbara\n": 3663,
      "##, joˌhanəs\n": 3664,
      "kɔʹl": 3665,
      "##ɔˌn": 3666,
      "##ɪkɔ": 3667,
      "##na)\n": 3668,
      "##e ʹ": 3669,
      "##uːli": 3670,
      "ʹbal": 3671,
      "##ɔːɐ̯": 3672,
      "ʹla͜i": 3673,
      "##a, ...)\n": 3674,
      "##, ˌkrɪs\n": 3675,
      "##ɛmb": 3676,
      "##oːni̯o\n": 3677,
      "##uʹf": 3678,
      "##ɑːrd": 3679,
      "##mənt": 3680,
      "##ɐ, ʹh": 3681,
      "##ãːs": 3682,
      "##ux": 3683,
      "##jə": 3684,
      "##nɐ, ": 3685,
      "##i̯oˌn": 3686,
      "##ənbɛrk": 3687,
      "##ɛli": 3688,
      "##raˌm": 3689,
      "##rɪp": 3690,
      "##rɛg": 3691,
      "##a (ˌ": 3692,
      "## kaː": 3693,
      "## ʹsiː\n": 3694,
      "##ɐ, ˌg": 3695,
      "##əti\n": 3696,
      "kaʹt": 3697,
      "##a, ˌp": 3698,
      "##ɔˌm": 3699,
      "##ust": 3700,
      "##ent": 3701,
      "##ɨl": 3702,
      "##, w": 3703,
      "##, ʹx": 3704,
      "##u̯ɔ": 3705,
      "ʹmat": 3706,
      "##i, fran": 3707,
      "##a, ʒ": 3708,
      "##nik\n": 3709,
      "##ɛi̯r": 3710,
      "##eˌf": 3711,
      "##ɑːrl": 3712,
      "##, ˌfɪlɪp\n": 3713,
      "saʹl": 3714,
      "##a                                            \n": 3715,
      "##ɛʃt": 3716,
      "##o, m": 3717,
      "##œy̆": 3718,
      "##ɑnt": 3719,
      "##ʌs": 3720,
      "##, ˌɔl": 3721,
      "## ʹθ": 3722,
      "##eːrɛs": 3723,
      "##eːɔrk": 3724,
      "##ɪn, ˌ": 3725,
      "##aˌɛl\n": 3726,
      "##aːnu": 3727,
      "ʹgroːs": 3728,
      "ʹsw": 3729,
      "##atrɪk\n": 3730,
      "##ruːb": 3731,
      "##ɪʧ\n": 3732,
      "##ɪgˌz": 3733,
      "##aʹrjɔf\n": 3734,
      "##, ˌkrɪsti̯an\n": 3735,
      "##rɔ͜yʦ": 3736,
      "##, ʹmartiːn\n": 3737,
      "baʹt": 3738,
      "##aʊs": 3739,
      "##iən": 3740,
      "##gart": 3741,
      "##ʌg": 3742,
      "##ɛnɪf": 3743,
      "ʹkv": 3744,
      "##rim": 3745,
      "##ɛːv": 3746,
      "##øːd": 3747,
      "##i, ˌb": 3748,
      "##ɔːri\n": 3749,
      "##ɐsdɔrf\n": 3750,
      "##, ˌkrɪstɔf\n": 3751,
      "sənt": 3752,
      "ʹaːl": 3753,
      "##ɛ ": 3754,
      "##ʊt\n": 3755,
      "##ʊsk": 3756,
      "##roˌ": 3757,
      "##ɔɪ\n": 3758,
      "##aːjɛf, ": 3759,
      "##ari": 3760,
      "##ars\n": 3761,
      "##ɛll": 3762,
      "##ɛlən\n": 3763,
      "##ɔnɔf\n": 3764,
      "##sk)\n": 3765,
      "##rit": 3766,
      "##aːnɔvɪʧ": 3767,
      "##a͜ud": 3768,
      "ʹha͜i": 3769,
      "##ãʹb": 3770,
      "##ʹri\n": 3771,
      "ʹfr": 3772,
      "##iˌb": 3773,
      "##o, ʒ": 3774,
      "##ɐ, ˌj": 3775,
      "##, fiˌlip\n": 3776,
      "##ɐ, ʹk": 3777,
      "##ʏnç": 3778,
      "##eɪsən\n": 3779,
      "##a, ˌj": 3780,
      "## aɪ": 3781,
      "##uʧ": 3782,
      "##jɔ̃\n": 3783,
      "##i̯ʊs fɔn": 3784,
      "##ɪnski, ": 3785,
      "##jɛx": 3786,
      "##aːni": 3787,
      "ʹroːt": 3788,
      "##ɜːs": 3789,
      "##əˌb": 3790,
      "##ɔʹʒ": 3791,
      "##uːvə\n": 3792,
      "##, mixɐˌiɫ)\n": 3793,
      "uː": 3794,
      "##j\n": 3795,
      "##nɔ": 3796,
      "##ɨʃ": 3797,
      "##aːrɪn\n": 3798,
      "## ʹʒ": 3799,
      "##aʹrɔ": 3800,
      "##a͜it\n": 3801,
      "##rɪŋk": 3802,
      "##ɪlm": 3803,
      "##ɪŋɐ": 3804,
      "##ɪsu̯af": 3805,
      "##ɔːrt": 3806,
      "##ɔʹx": 3807,
      "##ski, ˌm": 3808,
      "##ˌbɛːr\n": 3809,
      "ʹrɔs": 3810,
      "##ɔnte": 3811,
      "##æθjuː\n": 3812,
      "fɛɐ̯": 3813,
      "ʹɔː": 3814,
      "##l, ʹ": 3815,
      "##ɔla": 3816,
      "##traːsə\n": 3817,
      "##uʃ)\n": 3818,
      "##uːra\n": 3819,
      "##rap": 3820,
      "##ʹval": 3821,
      "##raːv": 3822,
      "##bɛrˌn": 3823,
      "##ɔf)\n": 3824,
      "##ʊs ": 3825,
      "##reːm": 3826,
      "## ʹkaʊnti\n": 3827,
      "##o, g": 3828,
      "##oʹliːn": 3829,
      "## fan d": 3830,
      "##axmɛt": 3831,
      "##æʃənəl": 3832,
      "##ɪzəbəθ\n": 3833,
      "aʹs": 3834,
      "##ʊp\n": 3835,
      "##jam": 3836,
      "##fi\n": 3837,
      "##ʔal": 3838,
      "##ɨr": 3839,
      "##oːre": 3840,
      "##a͜iʹd": 3841,
      "##ən                                         \n": 3842,
      "##ɑːf": 3843,
      "##riːz": 3844,
      "##a͜uk": 3845,
      "ʹʃmɪt": 3846,
      "##ʊnʦ": 3847,
      "##ɔfski, ˌ": 3848,
      "##ə ʹv": 3849,
      "##ɝːs": 3850,
      "##, ˌbraɪən\n": 3851,
      "##hans\n": 3852,
      "##ɪf)\n": 3853,
      "##y̆ɛl\n": 3854,
      "## də s": 3855,
      "ʹsmɪθ": 3856,
      "##, ˌpiːtə\n": 3857,
      "az": 3858,
      "ˌʦ": 3859,
      "##a, ˌs": 3860,
      "##a ʹv": 3861,
      "##ɛp\n": 3862,
      "##sdɔrf\n": 3863,
      "##tɐ": 3864,
      "##taːl\n": 3865,
      "##jo": 3866,
      "##æʧ": 3867,
      "##aːd\n": 3868,
      "##oːbɐ": 3869,
      "##ɛlz": 3870,
      "## ˌbr": 3871,
      "##rag": 3872,
      "##eɪv\n": 3873,
      "ʹkap": 3874,
      "## deː": 3875,
      "##rɔʹt": 3876,
      "ʹfra͜i": 3877,
      "ʹvalt": 3878,
      "##, ˌkar": 3879,
      "##ə ʹs": 3880,
      "##mənd\n": 3881,
      "##avl": 3882,
      "##reɪt": 3883,
      "##ʊŋg": 3884,
      "##, ˌkrɪsti̯aːn\n": 3885,
      "##œːp\n": 3886,
      "vɔl": 3887,
      "ˌbr": 3888,
      "##), m": 3889,
      "##, ˌana\n": 3890,
      "## (ʨ": 3891,
      "##stiːn": 3892,
      "##eɪg": 3893,
      "##ə ʹp": 3894,
      "##, kla͜us\n": 3895,
      "##ɔːrʤ\n": 3896,
      "##ɐ, ˌh": 3897,
      "##, ʤɒn\n": 3898,
      "## (ˌk": 3899,
      "##ɪntɐ": 3900,
      "##, marˌt": 3901,
      "oːbɐ": 3902,
      "il": 3903,
      "sɛr": 3904,
      "ɪnt": 3905,
      "ʹrɪʧ": 3906,
      "##a, ˌd": 3907,
      "##iŋ": 3908,
      "##ə b": 3909,
      "##)    ": 3910,
      "##)                            \n": 3911,
      "##, ˌiːv": 3912,
      "##aː)\n": 3913,
      "##eːro\n": 3914,
      "##ɛlv": 3915,
      "##ɛlə\n": 3916,
      "##ʹtɛt\n": 3917,
      "##a͜uɐ": 3918,
      "ʹp͜f": 3919,
      "ʹʃvarʦ": 3920,
      "##eˌz": 3921,
      "##brə\n": 3922,
      "##ʹhoːf": 3923,
      "##ruːz": 3924,
      "## nas": 3925,
      "##ætrɪk\n": 3926,
      "##a dɛl": 3927,
      "##rɛːa\n": 3928,
      "##, ˌʤeɪmz": 3929,
      "##, sɛrˌgeː": 3930,
      "##r̩\n": 3931,
      "ʹʤɒnsən": 3932,
      "gɔl": 3933,
      "kaʹb": 3934,
      "roʹd": 3935,
      "##ʊla": 3936,
      "##o p": 3937,
      "##weɪ\n": 3938,
      "##ɑːn\n": 3939,
      "##rɛk\n": 3940,
      "##aɪʹ": 3941,
      "##li)\n": 3942,
      "##ɛi̯s": 3943,
      "##, ˌʤoʊ\n": 3944,
      "##o̯aːr": 3945,
      "##ɜːk": 3946,
      "##əsən": 3947,
      "##, ˌjoːhan": 3948,
      "##, ˌhɛn": 3949,
      "##ɪʦki\n": 3950,
      "##ʊŋ)\n": 3951,
      "##oːmas": 3952,
      "kas": 3953,
      "sar": 3954,
      "##isk": 3955,
      "##kɐ)\n": 3956,
      "##ɛʹʃ": 3957,
      "##raʹm": 3958,
      "##lɐ, ": 3959,
      "##ˌɫ": 3960,
      "##hoːf\n": 3961,
      "##œ̃": 3962,
      "##viːl": 3963,
      "##ø\n": 3964,
      "##ɑs": 3965,
      "##, aʹl": 3966,
      "## (ɣ": 3967,
      "##an ": 3968,
      "##ala\n": 3969,
      "##ɪnʤ": 3970,
      "##oʊg": 3971,
      "##rɛv": 3972,
      "##i, v": 3973,
      "##a, b": 3974,
      "##a v": 3975,
      "##a (ʹt": 3976,
      "##, ˌbɒ": 3977,
      "##, pɔːl\n": 3978,
      "##ɪndə\n": 3979,
      "##ʊxɪn\n": 3980,
      "ku̯": 3981,
      "te": 3982,
      "##ə k": 3983,
      "##oːʦ": 3984,
      "##ɪn ": 3985,
      "## ˌʦ": 3986,
      "ʹbiː": 3987,
      "##, maks": 3988,
      "##eˌg": 3989,
      "##o̯aːr\n": 3990,
      "##ɔːrə\n": 3991,
      "##ɝːɫ": 3992,
      "##jaʧ": 3993,
      "##ærən\n": 3994,
      "##bɛrnhart\n": 3995,
      "##aːolo\n": 3996,
      "koʹl": 3997,
      "mɔr": 3998,
      "pap": 3999,
      "sv": 4000,
      "tar": 4001,
      "ʃʧ": 4002,
      "##i t": 4003,
      "##ɛʹf": 4004,
      "##ɪʒ": 4005,
      "##yʹ": 4006,
      "##yk": 4007,
      "##aːʒ\n": 4008,
      "##i̯ɛl": 4009,
      "##i̯as": 4010,
      "##oːt\n": 4011,
      "##əndɔrf\n": 4012,
      "##alʹj": 4013,
      "##ɑːv": 4014,
      "##vɪʦ\n": 4015,
      "##, mɪˌ": 4016,
      "##ʹsɛl": 4017,
      "##æni\n": 4018,
      "##a (g": 4019,
      "##yːb": 4020,
      "##ʊrg": 4021,
      "##aːto": 4022,
      "##i, ˌn": 4023,
      "##viˌt": 4024,
      "##i (p": 4025,
      "##ɛʹx": 4026,
      "##, ˌʒã": 4027,
      "ɔs": 4028,
      "##a ʹt": 4029,
      "##aja": 4030,
      "##i ʹb": 4031,
      "##lɪç": 4032,
      "##)                                \n": 4033,
      "##ˌst": 4034,
      "##ɒx": 4035,
      "##, iˌ": 4036,
      "##i̯ɛl\n": 4037,
      "##oːən": 4038,
      "##, ʹjuː": 4039,
      "##raˌh": 4040,
      "##laɪ": 4041,
      "ʹmark": 4042,
      "##aːni, ": 4043,
      "##a͜ur": 4044,
      "ʹpɔl": 4045,
      "##ata\n": 4046,
      "ʹtriː": 4047,
      "##ɛi̯ra": 4048,
      "##aːla\n": 4049,
      "##roʹd": 4050,
      "##aʹniː": 4051,
      "##oːne\n": 4052,
      "##, krɪs\n": 4053,
      "##uʹkɔf\n": 4054,
      "ʹkɔst": 4055,
      "##hans": 4056,
      "## aːʹgeː": 4057,
      "##uʹzɛp": 4058,
      "##, ˌra͜in": 4059,
      "##ɔskar\n": 4060,
      "##ʹbɛrto\n": 4061,
      "##, ʹwɪljəm\n": 4062,
      "##nikɔˌla\n": 4063,
      "far": 4064,
      "##ʧɛŋkɔ": 4065,
      "##iˑ": 4066,
      "##i ʹk": 4067,
      "##jɐ": 4068,
      "##æd\n": 4069,
      "##iːθ": 4070,
      "ʹmart": 4071,
      "##ænʤ": 4072,
      "##ɛːm": 4073,
      "##ɛs)\n": 4074,
      "ʹva͜in": 4075,
      "##ʊrn": 4076,
      "##reʹn": 4077,
      "##eːnə\n": 4078,
      "##iːka\n": 4079,
      "ʹʤoʊnz": 4080,
      "##, jan": 4081,
      "##ɪft": 4082,
      "##ɔːɫt": 4083,
      "##riːgɛs": 4084,
      "##oʹgiː\n": 4085,
      "ʹʊntɐ": 4086,
      "##a, ˌt": 4087,
      "##a ʹl": 4088,
      "##iən\n": 4089,
      "##ija\n": 4090,
      "##ɛʹp": 4091,
      "## ɛf": 4092,
      "##ɔp\n": 4093,
      "##ɒʃ": 4094,
      "## (ʒ": 4095,
      "##eɪθ": 4096,
      "##əˌk": 4097,
      "ʹwɪɫ": 4098,
      "##ɪgʹz": 4099,
      "##jeːvɪʧ\n": 4100,
      "## əv ʹ": 4101,
      "##raɪən": 4102,
      "##, hans\n": 4103,
      "##oːhan\n": 4104,
      "aʹv": 4105,
      "ʹɔl": 4106,
      "ʹænd": 4107,
      "ʹa͜us": 4108,
      "##aˑ": 4109,
      "##akɔ": 4110,
      "##a ʹg": 4111,
      "##yʹz": 4112,
      "##ɪnʹj": 4113,
      "##rab": 4114,
      "##ɔnɛn": 4115,
      "ʹmɪt": 4116,
      "##aːn)\n": 4117,
      "##rɛʃ": 4118,
      "ʹsɪm": 4119,
      "ʹʃuː": 4120,
      "##, ˌmiːl": 4121,
      "##raːk": 4122,
      "##ɪs, ˌ": 4123,
      "ʹvaːg": 4124,
      "##n̩, ˌ": 4125,
      "##ʊrz": 4126,
      "##ə ʹl": 4127,
      "##əld\n": 4128,
      "##i, ʹp": 4129,
      "##ɪgən": 4130,
      "##)                        \n": 4131,
      "##anʤel": 4132,
      "##)                       \n": 4133,
      "##, marˌsɛl\n": 4134,
      "vil": 4135,
      "## eɪ": 4136,
      "##oˌt": 4137,
      "##hɔf": 4138,
      "##ç\n": 4139,
      "##, ʹʧ": 4140,
      "ʹhas": 4141,
      "##, moʹham": 4142,
      "##ɛːg": 4143,
      "## maɪ": 4144,
      "##juːk": 4145,
      "##, ˌdɛnɪs\n": 4146,
      "ʹjan": 4147,
      "##, ˌjoːn": 4148,
      "##eːdu̯": 4149,
      "##ra͜is\n": 4150,
      "##, ˌvɔlfgaŋ\n": 4151,
      "ʹdeɪvɪs": 4152,
      "pɔr": 4153,
      "ʹarn": 4154,
      "##a, ʹm": 4155,
      "##kat": 4156,
      "##ə ˌ": 4157,
      "##ula": 4158,
      "##nbɛrk": 4159,
      "##œz": 4160,
      "##fiːɫ": 4161,
      "##iːr)\n": 4162,
      "## (ʥ": 4163,
      "##eɪs\n": 4164,
      "##aˌh": 4165,
      "ʹkamp": 4166,
      "##aɪt\n": 4167,
      "## miˌ": 4168,
      "ʹviː": 4169,
      "##, ˌpeːt": 4170,
      "##aʹdeː": 4171,
      "##il)\n": 4172,
      "##ʹkɔf, ": 4173,
      "##ɐ, ʹj": 4174,
      "##ulɔs": 4175,
      "##õ\n": 4176,
      "##aˌtal": 4177,
      "##ɛnʦo\n": 4178,
      "məkʹd": 4179,
      "##, ˌdænjəɫ\n": 4180,
      "##ædəm\n": 4181,
      "ʹiːz": 4182,
      "##kɐ": 4183,
      "##rɛl": 4184,
      "##lan": 4185,
      "##ɪʹv": 4186,
      "##jar": 4187,
      "##ɫɪn": 4188,
      "##eɣ": 4189,
      "##vɛst": 4190,
      "##ym": 4191,
      "##ɛn)\n": 4192,
      "##rɪd": 4193,
      "##rɔ\n": 4194,
      "##rist": 4195,
      "##a (f": 4196,
      "##reʹ": 4197,
      "## əv ðə ʹ": 4198,
      "##, ˌtɒməs\n": 4199,
      "## ʹaɪlənd\n": 4200,
      "kʊr": 4201,
      "kasʹt": 4202,
      "miʹ": 4203,
      "maʹriː": 4204,
      "ˌriː": 4205,
      "##ʃɨ": 4206,
      "##l)\n": 4207,
      "##yp": 4208,
      "##ɚt": 4209,
      "##stɐ\n": 4210,
      "##ɪnt\n": 4211,
      "ʹbar": 4212,
      "##riːs\n": 4213,
      "##rɔvɪʧ": 4214,
      "##a͜um": 4215,
      "##iːnɔf\n": 4216,
      "##ɪka\n": 4217,
      "##a, v": 4218,
      "##ina\n": 4219,
      "##i, ˌg": 4220,
      "##ɔmʹb": 4221,
      "##ʹkɔv": 4222,
      "##ɐ, ʹg": 4223,
      "##i g": 4224,
      "##, ʒoˌz": 4225,
      "##, le": 4226,
      "##æks\n": 4227,
      "##iʦɛ)\n": 4228,
      "##rɛçt": 4229,
      "##eˌbasti̯an\n": 4230,
      "bur": 4231,
      "leʹ": 4232,
      "ʹɔr": 4233,
      "## ɪz": 4234,
      "##rəm": 4235,
      "##ræns": 4236,
      "##ɔjɛ": 4237,
      "##ɯː": 4238,
      "##aʹre": 4239,
      "##ən                                           \n": 4240,
      "ʹmɛr": 4241,
      "##asˌk": 4242,
      "##ɪkəl": 4243,
      "##, ˌmiː": 4244,
      "## kar": 4245,
      "##iːla\n": 4246,
      "##də)\n": 4247,
      "##o, al": 4248,
      "##əs)\n": 4249,
      "##iːmɔn\n": 4250,
      "##, pjɛːr": 4251,
      "##ʏrk": 4252,
      "## əv ": 4253,
      "##jɛŋkɔ": 4254,
      "maʹd": 4255,
      "u̯": 4256,
      "ʹɔs": 4257,
      "ʹraːd": 4258,
      "##i ʹs": 4259,
      "##kin": 4260,
      "##rɔː": 4261,
      "##nɚ": 4262,
      "##, ʹeː": 4263,
      "##ənz\n": 4264,
      "##a͜iʃ": 4265,
      "ʹbak": 4266,
      "##aˌriːna\n": 4267,
      "ʹkuː": 4268,
      "##as ": 4269,
      "##oːnə\n": 4270,
      "##i, ˌh": 4271,
      "##ɛfri\n": 4272,
      "##o, p": 4273,
      "ʹwɪl": 4274,
      "ˌsant": 4275,
      "## də p": 4276,
      "##, marg": 4277,
      "##kɔːr": 4278,
      "##vɪkˌt": 4279,
      "fan": 4280,
      "sɔl": 4281,
      "##a ʹf": 4282,
      "##ʹʎ": 4283,
      "##ɪʹp": 4284,
      "##o t": 4285,
      "##jeːt": 4286,
      "##nɪʦ": 4287,
      "##ha͜us\n": 4288,
      "##yʹs": 4289,
      "##ʌv\n": 4290,
      "##aː ": 4291,
      "##aːjɛf": 4292,
      "##uːɪs\n": 4293,
      "##stən\n": 4294,
      "##ɪna\n": 4295,
      "## (ʹbr": 4296,
      "##ænz": 4297,
      "##ɛːt\n": 4298,
      "##yːz": 4299,
      "##ɔs ": 4300,
      "##aːto\n": 4301,
      "##o (g": 4302,
      "##ri̯aːn": 4303,
      "##i (s": 4304,
      "##rɪçart\n": 4305,
      "##iʹʃɛl\n": 4306,
      "##ʹkɔfski\n": 4307,
      "##axmɛt\n": 4308,
      "##ɪkʹsandr)\n": 4309,
      "lak": 4310,
      "ʃã": 4311,
      "##iĩ̯": 4312,
      "##ɪʹr": 4313,
      "##æsk": 4314,
      "##ɐviʧ)\n": 4315,
      "## ʹsk": 4316,
      "##ɛrbɛrt\n": 4317,
      "##ən                                        \n": 4318,
      "##ɔːθ": 4319,
      "##ʹnɔf\n": 4320,
      "ʹmal": 4321,
      "##ɔlɔˌd": 4322,
      "##iːni": 4323,
      "ʹʃøːn": 4324,
      "##a (d": 4325,
      "##, ˌʤɛs": 4326,
      "##ɪrʒ": 4327,
      "##iːto\n": 4328,
      "##rei̯": 4329,
      "##, ˌpa͜ul": 4330,
      "##ʹʧʊk": 4331,
      "##imir)\n": 4332,
      "##, ˌfloːri̯aːn\n": 4333,
      "##ʊmp": 4334,
      "##ɛrnst": 4335,
      "##ula\n": 4336,
      "##ˌgjej)\n": 4337,
      "##ɔːlt": 4338,
      "##eɪnʤ": 4339,
      "##, ˌʒak\n": 4340,
      "##jø\n": 4341,
      "##ɛnjam": 4342,
      "##, maʹtiːas\n": 4343,
      "bat": 4344,
      "ʹæɫ": 4345,
      "##ʹrɔ": 4346,
      "##mb": 4347,
      "##e de": 4348,
      "##eɪnt": 4349,
      "##œp": 4350,
      "##arʹg": 4351,
      "##ɔrn\n": 4352,
      "ʹkam": 4353,
      "##ɑːh": 4354,
      "##riˌg": 4355,
      "##, maʹriː": 4356,
      "##ass": 4357,
      "##ãˌt": 4358,
      "##akˌs": 4359,
      "##ərə": 4360,
      "##i, ˌf": 4361,
      "## ʹkrɪst": 4362,
      "##aːdə\n": 4363,
      "## fɔn ʹk": 4364,
      "##, ˌtɒm\n": 4365,
      "##oːzə\n": 4366,
      "##oːla\n": 4367,
      "##ɔdj": 4368,
      "##, ˌwɪɫjəm": 4369,
      "##strøːm": 4370,
      "##, krɪsʹt": 4371,
      "##, alɛʹksandɐ\n": 4372,
      "##ʌmpəni\n": 4373,
      "mɔn": 4374,
      "pjɛr": 4375,
      "tɛr": 4376,
      "ʊr": 4377,
      "ʹoʊ": 4378,
      "ʹɛs": 4379,
      "##i                                            \n": 4380,
      "##ola": 4381,
      "##uːʤ": 4382,
      "##ɛrman": 4383,
      "##iʹʎ": 4384,
      "##ɛnˌt": 4385,
      "##rah": 4386,
      "ʹkarl": 4387,
      "##jɛʹd": 4388,
      "##ɪlɪp": 4389,
      "##as, ": 4390,
      "##ɛsʹk": 4391,
      "##andr": 4392,
      "##juːb": 4393,
      "##ɜːl": 4394,
      "##rans": 4395,
      "##, pjɛːr\n": 4396,
      "##bʊrg": 4397,
      "lez": 4398,
      "##ett": 4399,
      "##rãːs\n": 4400,
      "##, anʹdreːas\n": 4401,
      "baʹl": 4402,
      "maɪ": 4403,
      "##ʹʣ": 4404,
      "##ʃʧ": 4405,
      "##ra͜i\n": 4406,
      "##uˌm": 4407,
      "##ɪf, ": 4408,
      "##o b": 4409,
      "##bl\n": 4410,
      "##ˌθ": 4411,
      "##œs": 4412,
      "## (u̯": 4413,
      "##i̯ən": 4414,
      "##uːj": 4415,
      "##ɛlə": 4416,
      "##kɔs\n": 4417,
      "ʹkoː": 4418,
      "##skiː": 4419,
      "ʹhart": 4420,
      "##rɛn\n": 4421,
      "##ʹbɛːr": 4422,
      "ʹfriː": 4423,
      "##aːro": 4424,
      "##yːg": 4425,
      "##roʹm": 4426,
      "##, ˌʤæk\n": 4427,
      "##ɪrm": 4428,
      "##ɪrn": 4429,
      "##ɪrk\n": 4430,
      "##im)\n": 4431,
      "## vɑn)\n": 4432,
      "bɛrʹliːn": 4433,
      "##ɛh)\n": 4434,
      "##iːzabɛt\n": 4435,
      "kaʹz": 4436,
      "miʹl": 4437,
      "paʹl": 4438,
      "ɪs": 4439,
      "##aʦ\n": 4440,
      "##ls": 4441,
      "##jã\n": 4442,
      "##e (b": 4443,
      "##es)\n": 4444,
      "##vaʹn": 4445,
      "##, də": 4446,
      "##iːsə\n": 4447,
      "##aʹθ": 4448,
      "##uːʦ": 4449,
      "##ɛrp": 4450,
      "##eɪd\n": 4451,
      "##aˌʃ": 4452,
      "ʹfɛr": 4453,
      "##i, ʒ": 4454,
      "##a, fran": 4455,
      "##yːbɐ": 4456,
      "##ʊrb": 4457,
      "##əɫz": 4458,
      "##əɫ, ˌ": 4459,
      "##uʹj": 4460,
      "##ɑːrθ": 4461,
      "##, ʹkl": 4462,
      "##anʧɛs": 4463,
      "##ɛdwəd\n": 4464,
      "##hɔlʦ": 4465,
      "##oːnika\n": 4466,
      "##la͜udi̯a\n": 4467,
      "deːɐ̯": 4468,
      "laʹ": 4469,
      "##iz\n": 4470,
      "##kɐ, ": 4471,
      "##ʃɔn": 4472,
      "##lo": 4473,
      "##əʹʃ": 4474,
      "##ɪʹd": 4475,
      "##ʏʦ": 4476,
      "##                   \n": 4477,
      "##ənh": 4478,
      "##ənt\n": 4479,
      "##alf": 4480,
      "##rat\n": 4481,
      "##ɔːv": 4482,
      "## frãˌs": 4483,
      "##ænə": 4484,
      "##a (...": 4485,
      "##ələ\n": 4486,
      "ʹroː": 4487,
      "##ɪtə\n": 4488,
      "##aːtə\n": 4489,
      "al ʹ": 4490,
      "## fɔn ʹm": 4491,
      "##), x": 4492,
      "##aːma\n": 4493,
      "##ãː\n": 4494,
      "##aʊθ": 4495,
      "##roʊz": 4496,
      "##                    \n": 4497,
      "##i̯aŋ)\n": 4498,
      "and": 4499,
      "eʹl": 4500,
      "moʹ": 4501,
      "maˌriː": 4502,
      "pre": 4503,
      "ʹaɪ": 4504,
      "ʹand": 4505,
      "##rjej)\n": 4506,
      "##ɔʹj": 4507,
      "##unt": 4508,
      "##zeː": 4509,
      "##yʹm": 4510,
      "##ʏp": 4511,
      "##ɨm": 4512,
      "##iːʤi\n": 4513,
      "##aːrɪs": 4514,
      "##i̯ɔs": 4515,
      "##, ʹʃtɛfan\n": 4516,
      "##a͜iʦ": 4517,
      "ʹbɝː": 4518,
      "##eɪ)\n": 4519,
      "##ɑːʤ": 4520,
      "##u̯i": 4521,
      "##, maks\n": 4522,
      "ʹlɪnd": 4523,
      "##i, h": 4524,
      "##bɛrʹn": 4525,
      "##, ˌkarl\n": 4526,
      "##əli\n": 4527,
      "##øːf": 4528,
      "##, ˌpeːtɐ": 4529,
      "##ri̯a\n": 4530,
      "##aːkɪn\n": 4531,
      "##                     \n": 4532,
      "##, ˌkrɪstəf": 4533,
      "## ʹʦva͜i": 4534,
      "fɛr": 4535,
      "mas": 4536,
      "ən": 4537,
      "##jɔŋ": 4538,
      "##e l": 4539,
      "##                  \n": 4540,
      "##aʹɣ": 4541,
      "##alʹd": 4542,
      "##alʹm": 4543,
      "##ɛnˌriː": 4544,
      "##ɔrbɛrt\n": 4545,
      "##jɛʧ": 4546,
      "##jɛʦk": 4547,
      "##skɒt\n": 4548,
      "##rɔɪ\n": 4549,
      "ʹhæm": 4550,
      "##asan\n": 4551,
      "##ɛkt\n": 4552,
      "##bɛrgɐ": 4553,
      "##, ˌkla͜us\n": 4554,
      "##ando\n": 4555,
      "##ə ʹg": 4556,
      "##ruːt\n": 4557,
      "##, ʒeˌ": 4558,
      "##riʹm": 4559,
      "##təʹn": 4560,
      "##əŋ)\n": 4561,
      "##, ˌhans\n": 4562,
      "mɔnt": 4563,
      "prɔ": 4564,
      "ʹʊl": 4565,
      "ʹriːd": 4566,
      "##lu": 4567,
      "##ˌla": 4568,
      "##ɐd": 4569,
      "##vɛn": 4570,
      "##yt": 4571,
      "##ɪnf": 4572,
      "##raʊn": 4573,
      "ʹbart": 4574,
      "##ɑːp": 4575,
      "## diː": 4576,
      "## di\n": 4577,
      "##oʊ, ˌ": 4578,
      "ʹhɔr": 4579,
      "##vɪl\n": 4580,
      "##ɪsən\n": 4581,
      "##ɔ̃ʹt": 4582,
      "##əˌreɪ": 4583,
      "ʹwɪt": 4584,
      "##, fred": 4585,
      "##o (s": 4586,
      "##a (ʹv": 4587,
      "##iko\n": 4588,
      "##ɐ, z": 4589,
      "##ɛŋ\n": 4590,
      "ʹrɔ͜y": 4591,
      "##ɔnʹsaːlɛs": 4592,
      "laŋ": 4593,
      "ɛks": 4594,
      "##a                                        \n": 4595,
      "##lɪŋ\n": 4596,
      "##ɪʹb": 4597,
      "##n                                        \n": 4598,
      "##ɐʹn": 4599,
      "##eʎ": 4600,
      "##ənbɛrk\n": 4601,
      "##ɪndə": 4602,
      "##ɔn ": 4603,
      "ʹhɔf": 4604,
      "ʹhaːg": 4605,
      "ʹfɛl": 4606,
      "ʹtan": 4607,
      "##nis": 4608,
      "##aʹnɛl": 4609,
      "##, kaˌm": 4610,
      "##man)\n": 4611,
      "alʹb": 4612,
      "##, ˌpav": 4613,
      "##, fl": 4614,
      "##reɪʧ": 4615,
      "##, joʹhan": 4616,
      "##ou̯\n": 4617,
      "##la͜us": 4618,
      "##ij\n": 4619,
      "##, franʦ\n": 4620,
      "##ɛrdin": 4621,
      "##juːli̯a\n": 4622,
      "fɔr": 4623,
      "##ə, ˌm": 4624,
      "##bærj": 4625,
      "##nɪk\n": 4626,
      "##gn̩": 4627,
      "##yd": 4628,
      "##aʹvi": 4629,
      "##i̯ɔs\n": 4630,
      "##oːs\n": 4631,
      "##ras\n": 4632,
      "ʹbɔl": 4633,
      "ʹbɛrn": 4634,
      "##ɔːs": 4635,
      "##ski ": 4636,
      "##ɔlj": 4637,
      "##iːn)\n": 4638,
      "##iːni\n": 4639,
      "##ɪlh": 4640,
      "##ʹviːli": 4641,
      "##aːrt": 4642,
      "##aːle": 4643,
      "##øːt": 4644,
      "##iːlɔf\n": 4645,
      "##uʹʦ": 4646,
      "##eːɐ̯t": 4647,
      "##eːdro": 4648,
      "##, vaˌs": 4649,
      "##ɔːlu": 4650,
      "##eɪvɪd": 4651,
      "abd": 4652,
      "##oˌhanəs": 4653,
      "##u̯af)\n": 4654,
      "fiʹl": 4655,
      "ku": 4656,
      "kv": 4657,
      "raʹm": 4658,
      "ʹeːd": 4659,
      "##ka (": 4660,
      "##oto": 4661,
      "##eɲ": 4662,
      "##ɨn)\n": 4663,
      "##aːrɛs": 4664,
      "## (st": 4665,
      "##eːʦ": 4666,
      "##uːd\n": 4667,
      "##stn̩\n": 4668,
      "##raz": 4669,
      "##rav": 4670,
      "##ɔrj": 4671,
      "ʹman": 4672,
      "ʹhaʊ": 4673,
      "##ɪŋ ": 4674,
      "ʹpas": 4675,
      "##ɪk ʹ": 4676,
      "##ɛi̯m": 4677,
      "##reː\n": 4678,
      "##ɛ̃, ": 4679,
      "##ɪmɪt": 4680,
      "##roːm": 4681,
      "##, ˌtɪm\n": 4682,
      "##aft": 4683,
      "##agd": 4684,
      "## ʹnɔrt\n": 4685,
      "ʹkla͜in": 4686,
      "##mɪtri": 4687,
      "##nɪʦ\n": 4688,
      "##aːvɪt": 4689,
      "bɛrʹn": 4690,
      "iʹv": 4691,
      "saʹm": 4692,
      "ʹat": 4693,
      "##aɫ": 4694,
      "##sb": 4695,
      "##ŋ)\n": 4696,
      "##ŋʹk": 4697,
      "##rɑːns": 4698,
      "##ɪð": 4699,
      "##æʤ": 4700,
      "##gɐ\n": 4701,
      "##wa\n": 4702,
      "##ɒg": 4703,
      "##iːθ\n": 4704,
      "##, ˌvɪl": 4705,
      "##aʹʎ": 4706,
      "##ano\n": 4707,
      "##ɪnʹt": 4708,
      "##eɪli": 4709,
      "##jɛst": 4710,
      "##ʹsɛl\n": 4711,
      "ʹsɪlv": 4712,
      "ʹtɔr": 4713,
      "##eˌriː": 4714,
      "##əɫz\n": 4715,
      "##ʹpl": 4716,
      "##ˌsiː": 4717,
      "##ɔːrʤ": 4718,
      "## tuː": 4719,
      "##jeni": 4720,
      "##uːna\n": 4721,
      "##rɪsˌt": 4722,
      "##jɛr\n": 4723,
      "##iːgoːɐ̯": 4724,
      "ɛl ": 4725,
      "kla͜in": 4726,
      "##aʹhiːm": 4727,
      "sɛ̃t": 4728,
      "nɔv": 4729,
      "ʃm": 4730,
      "##ʧɛf\n": 4731,
      "##taːl": 4732,
      "##ɪˌl": 4733,
      "##e p": 4734,
      "##øm": 4735,
      "##, ɫ": 4736,
      "##iːp\n": 4737,
      "## (θ": 4738,
      "##ɑːnt": 4739,
      "##oʊz\n": 4740,
      "##jɛʹ": 4741,
      "##vɪʃ": 4742,
      "ʹla͜u": 4743,
      "##lin\n": 4744,
      "##ə ʹn": 4745,
      "##, ˌdi̯eːg": 4746,
      "##uʹh": 4747,
      "##o̯an": 4748,
      "##abriˌ": 4749,
      "##a (ʹd": 4750,
      "##eɪmi\n": 4751,
      "marʹt": 4752,
      "##aˌdɛ": 4753,
      "##oːre\n": 4754,
      "##va͜ik": 4755,
      "##, ˌkarlɔs\n": 4756,
      "##iˌvan\n": 4757,
      "##, ʹmarkʊs\n": 4758,
      "ʃmɪt": 4759,
      "ʹɔp": 4760,
      "ʹɛg": 4761,
      "ʹa͜iç": 4762,
      "##i ʹd": 4763,
      "##ɔɪd": 4764,
      "##ɔʦk": 4765,
      "##əli": 4766,
      "##ɪri": 4767,
      "##), s": 4768,
      "##jã": 4769,
      "##ɐg": 4770,
      "##e s": 4771,
      "##ɑk": 4772,
      "##aʹriːna\n": 4773,
      "##uːni": 4774,
      "##al ": 4775,
      "ʹbuː": 4776,
      "##ɔrst\n": 4777,
      "##oʊst": 4778,
      "##jɛʹt": 4779,
      "##ʹsɪsk": 4780,
      "ʹgɪl": 4781,
      "##aɪɚ": 4782,
      "##aʹleː\n": 4783,
      "ʹrɛn": 4784,
      "##ina)\n": 4785,
      "##ɔːrn": 4786,
      "##je, ": 4787,
      "## ʹfl": 4788,
      "##, ˌbɛn\n": 4789,
      "ˌkl": 4790,
      "##ræd": 4791,
      "##, mark\n": 4792,
      "##ʦi̯ʊs": 4793,
      "## ˌhaː\n": 4794,
      "ʹvɪt": 4795,
      "##ʹsãːbl": 4796,
      "gɔr": 4797,
      "maʊnt": 4798,
      "##a.": 4799,
      "##aʊs\n": 4800,
      "##i                                          \n": 4801,
      "##daːl": 4802,
      "##yk\n": 4803,
      "##eːmən": 4804,
      "##ɛnɪs": 4805,
      "ʹkøːnɪç": 4806,
      "##ɔːrɪ": 4807,
      "##ri, ": 4808,
      "ʹhoːf": 4809,
      "##rɛst": 4810,
      "##ãd": 4811,
      "ʹdj": 4812,
      "##ɛk, ˌ": 4813,
      "##ɛtl": 4814,
      "##ɛi̯ru": 4815,
      "## kwɔː": 4816,
      "##, ˌdɒn": 4817,
      "##ɛntə\n": 4818,
      "##, luˌ": 4819,
      "##əʹriː": 4820,
      "##iːsa\n": 4821,
      "##ɪv\n": 4822,
      "##o dɛl": 4823,
      "##ɔlkɐ\n": 4824,
      "##aʹʦi̯oːn\n": 4825,
      "##brʏkə\n": 4826,
      "##, sɪrˌgjej)\n": 4827,
      "bɔn": 4828,
      "ko": 4829,
      "lɔs": 4830,
      "pɔʹl": 4831,
      "##ĩː": 4832,
      "##mark": 4833,
      "##rə ": 4834,
      "##ɪˌt": 4835,
      "##ɐ (ʹ": 4836,
      "##ɐʹl": 4837,
      "##ɐ, ˌm": 4838,
      "##vɔlfgaŋ\n": 4839,
      "##iː, s": 4840,
      "##iːɫ\n": 4841,
      "## (kɔ": 4842,
      "##eːʃ": 4843,
      "##raɪt": 4844,
      "##eɪʧ": 4845,
      "##aˌj": 4846,
      "##ɔːz": 4847,
      "##jɛʦki\n": 4848,
      "##riːʦ": 4849,
      "ʹpr": 4850,
      "## fɛɐ̯": 4851,
      "## frãʹs": 4852,
      "##aka\n": 4853,
      "ʹruːb": 4854,
      "ʹra͜iç": 4855,
      "## sɛ̃": 4856,
      "##ɔ̃, ": 4857,
      "## de l": 4858,
      "##ɔvɔ\n": 4859,
      "##oloʹgiː\n": 4860,
      "ʹstiːv": 4861,
      "##riʹt": 4862,
      "##loː\n": 4863,
      "arʹt": 4864,
      "##ʦi̯ʊs\n": 4865,
      "##nikoʹl": 4866,
      "ʹalb": 4867,
      "##, ˌjuːri\n": 4868,
      "ãˌsãː": 4869,
      "##æksən": 4870,
      "## deːɐ̯ ʹeːɐ̯": 4871,
      "##æntəni\n": 4872,
      "bɔl": 4873,
      "bɔg": 4874,
      "ʹɪl": 4875,
      "##i), ": 4876,
      "##n                                       \n": 4877,
      "##hʏtə\n": 4878,
      "##vɛn\n": 4879,
      "##ʏr)\n": 4880,
      "##ɨs": 4881,
      "##ɛrʹd": 4882,
      "##ɛlk": 4883,
      "##ɑːʹn": 4884,
      "##jɛz": 4885,
      "##jɛ)\n": 4886,
      "ʹhoːx": 4887,
      "##ɪŋʹg": 4888,
      "ʹpiːt": 4889,
      "## fl": 4890,
      "##ɛːd": 4891,
      "##ɛkʹt": 4892,
      "##a, r": 4893,
      "##a͜inrɪç": 4894,
      "##ɑːr\n": 4895,
      "##eːni\n": 4896,
      "##ɪɫi\n": 4897,
      "##ra͜it": 4898,
      "##əʹw": 4899,
      "##əʹrɛ": 4900,
      "##aːsɔf\n": 4901,
      "##aʹrɛl": 4902,
      "##ʌmb": 4903,
      "ʹædəm": 4904,
      "##, rəˌn": 4905,
      "##ɪˌɫ": 4906,
      "##, franʦ": 4907,
      "##, ʹvɔlfgaŋ\n": 4908,
      "##, sɛrˌh": 4909,
      "##, ˌrɪʧɚd\n": 4910,
      "aʹp": 4911,
      "ʹaːm": 4912,
      "##ʹɣ": 4913,
      "##kɪnz": 4914,
      "##ʦeːn": 4915,
      "##ɪʹg": 4916,
      "##fən": 4917,
      "##ɒb": 4918,
      "## (ˌd": 4919,
      "##i̯ɛ": 4920,
      "##arj": 4921,
      "##raʧ": 4922,
      "##ɔːt\n": 4923,
      "##rɔd": 4924,
      "##vɪɫ": 4925,
      "ʹdiː": 4926,
      "##ɛːo\n": 4927,
      "##ɪsʹk": 4928,
      "##aːralt\n": 4929,
      "##bɛrx": 4930,
      "##yːr\n": 4931,
      "##aːli̯a\n": 4932,
      "ʹroʊz": 4933,
      "##iːli̯a\n": 4934,
      "ʹwɛst": 4935,
      "##iːdo\n": 4936,
      "##iːmɔn": 4937,
      "##ɛvən\n": 4938,
      "##bɐt": 4939,
      "## də k": 4940,
      "##ɔrxe\n": 4941,
      "kav": 4942,
      "##aʃt": 4943,
      "##ɛʹj": 4944,
      "##rʊp": 4945,
      "##ə p": 4946,
      "##ə, ˌh": 4947,
      "##uni": 4948,
      "##və": 4949,
      "##ɒst": 4950,
      "##aːrɛk": 4951,
      "##oːj": 4952,
      "##a͜iʹm": 4953,
      "##ɪnʹd": 4954,
      "ʹkɛn": 4955,
      "ʹmɔr": 4956,
      "ʹheɪ": 4957,
      "ʹhɔrn": 4958,
      "##ɔlga\n": 4959,
      "ʹdɪk": 4960,
      "##, ˌmaɪk\n": 4961,
      "##aɪd\n": 4962,
      "##eˌaːt": 4963,
      "##iːtə\n": 4964,
      "##, kʊrt\n": 4965,
      "##aːdi\n": 4966,
      "##dəg": 4967,
      "##ɜːg": 4968,
      "##ɛstɐ\n": 4969,
      "##, ˌleː": 4970,
      "##, ʒak\n": 4971,
      "##uːnj": 4972,
      "##urʹn": 4973,
      "##aʦk": 4974,
      "## ʹzyːt\n": 4975,
      "##ˌʧɛsko\n": 4976,
      "##kɔnstanˌt": 4977,
      "di": 4978,
      "dɔn": 4979,
      "kab": 4980,
      "las": 4981,
      "mart": 4982,
      "##ɛj)\n": 4983,
      "##ɔʹʧ": 4984,
      "##ɪ)\n": 4985,
      "##e (m": 4986,
      "##ʌbl": 4987,
      "##iː, ˌ": 4988,
      "##i̯\n": 4989,
      "##arʧ": 4990,
      "##, ʹvɪkt": 4991,
      "## (ʹkɔ": 4992,
      "##a͜ib": 4993,
      "##rɪʤ\n": 4994,
      "ʹkast": 4995,
      "##u̯eːv": 4996,
      "##ɔːd\n": 4997,
      "ʹmæn": 4998,
      "##rig": 4999,
      "##aːno, ": 5000,
      "##iːni, ": 5001,
      "##ʹbl": 5002,
      "##ʹbɛːr\n": 5003,
      "ʹloːp": 5004,
      "ʹdɔl": 5005,
      "##ɪrt": 5006,
      "##ər\n": 5007,
      "## pl": 5008,
      "##vikt": 5009,
      "##ɜːt": 5010,
      "##i l": 5011,
      "##, ʹhɛn": 5012,
      "##ɔˌriːs": 5013,
      "##, ʹdeɪvɪd\n": 5014,
      "##ei̯\n": 5015,
      "##ɛnʤəm": 5016,
      "aˌ": 5017,
      "bak": 5018,
      "mark": 5019,
      "##ʹç": 5020,
      "##ist\n": 5021,
      "##ʊʤ": 5022,
      "## re": 5023,
      "##)                                   \n": 5024,
      "##ɒz": 5025,
      "##ʏlɐ": 5026,
      "##iːə\n": 5027,
      "## ʹkɔ": 5028,
      "##i̯ɛr\n": 5029,
      "##uːrɔf\n": 5030,
      "##als": 5031,
      "##iʹð": 5032,
      "##ɔrɔf\n": 5033,
      "ʹkas": 5034,
      "ʹkɪm": 5035,
      "##ɔːtə": 5036,
      "##rɛz": 5037,
      "## fɔm": 5038,
      "##ɪsu̯af\n": 5039,
      "ʹnɔv": 5040,
      "##ʊsˌt": 5041,
      "##ˌdre\n": 5042,
      "## teː": 5043,
      "##, ˌhɛnri\n": 5044,
      "##ɒnd": 5045,
      "##jan)\n": 5046,
      "## ˌtriːo\n": 5047,
      "##, xoʹs": 5048,
      "##ɛːle\n": 5049,
      "##ˌbɛrto\n": 5050,
      "##oˌbiːas\n": 5051,
      "##ɛnjamiːn\n": 5052,
      "beː": 5053,
      "fɛrʹnand": 5054,
      "kaʹd": 5055,
      "naʹt": 5056,
      "pol": 5057,
      "ry": 5058,
      "ɪm": 5059,
      "ʹax": 5060,
      "##im\n": 5061,
      "##mʊnt": 5062,
      "##ræn": 5063,
      "##ur)\n": 5064,
      "##o                                          \n": 5065,
      "##ht": 5066,
      "##, ˌændruː\n": 5067,
      "##i̯ʊm": 5068,
      "ʹbʊrk": 5069,
      "ʹgɔl": 5070,
      "##aɪˌ": 5071,
      "##ʹgl": 5072,
      "ʹvɔlf": 5073,
      "##aːri̯a\n": 5074,
      "##aːri̯o": 5075,
      "##andra": 5076,
      "##ʊrm": 5077,
      "##aːlɪn\n": 5078,
      "## biː": 5079,
      "##əˌp": 5080,
      "##ɐ, t": 5081,
      "##ndɔrf\n": 5082,
      "##i̯ou̯": 5083,
      "##, paˌt": 5084,
      "##uːzən\n": 5085,
      "##, ˌstiːv\n": 5086,
      "##ʹriːk": 5087,
      "##, ˌdaːni̯ɛl\n": 5088,
      "##laˌdiːmiːɐ̯": 5089,
      "##abriʹ": 5090,
      "ep": 5091,
      "ɛk": 5092,
      "##mit": 5093,
      "## sk": 5094,
      "##ʃɪʃt": 5095,
      "##jeːl": 5096,
      "##aːvi": 5097,
      "## (ʦ": 5098,
      "##ən, ʹ": 5099,
      "ʹboʊ": 5100,
      "ʹbeːt": 5101,
      "##jɛʹm": 5102,
      "##jɛʹr": 5103,
      "##aːnj": 5104,
      "ʹpɔp": 5105,
      "## fran": 5106,
      "##aːr, ": 5107,
      "##oˌr": 5108,
      "##rom": 5109,
      "ʹryː": 5110,
      "## tiː": 5111,
      "##l̩, ˌ": 5112,
      "##eːlə\n": 5113,
      "## ʹgeː\n": 5114,
      "##ɪʦa\n": 5115,
      "##kəs\n": 5116,
      "##aːvɛl": 5117,
      "##ɔːɫd": 5118,
      "ʹæd": 5119,
      "##, ˌrɪʧəd\n": 5120,
      "##, frãˌso̯a\n": 5121,
      "##aːblo\n": 5122,
      "##ɪkˌsandr)\n": 5123,
      "kaʹv": 5124,
      "peʹt": 5125,
      "ʹɛp": 5126,
      "##aʊnd": 5127,
      "##ʊst\n": 5128,
      "##əˌs": 5129,
      "##uˌn": 5130,
      "##ˌw": 5131,
      "##ɐb": 5132,
      "##eʹʃ": 5133,
      "## (ð": 5134,
      "##anɪs": 5135,
      "##eːni": 5136,
      "##oːrɪs\n": 5137,
      "##ən, ˌʤ": 5138,
      "##ən                                       \n": 5139,
      "##ɪnski": 5140,
      "##rɪg": 5141,
      "##ɑːʃ": 5142,
      "ʹmeɪ": 5143,
      "##ɔli\n": 5144,
      "##ʃteːt\n": 5145,
      "##iˌg": 5146,
      "##a ð": 5147,
      "ʹniːdɐ": 5148,
      "##, seb": 5149,
      "ʹwaɪt": 5150,
      "##, ˌfaːb": 5151,
      "##riːnə\n": 5152,
      "##ʊʃɪn\n": 5153,
      "marʹk": 5154,
      "##eːva\n": 5155,
      "##aʹʧɔf\n": 5156,
      "##)                      \n": 5157,
      "##jɪf, ": 5158,
      "baʹb": 5159,
      "kɔʹ": 5160,
      "tɔr": 5161,
      "ʹɛd": 5162,
      "##a, ˌn": 5163,
      "##ɛʹʒ": 5164,
      "##ʃa\n": 5165,
      "##rt": 5166,
      "##dn̩": 5167,
      "##vi\n": 5168,
      "##park": 5169,
      "##ɒː": 5170,
      "##anʹs": 5171,
      "##eːbɐ": 5172,
      "##uːɪs": 5173,
      "##ɪn (": 5174,
      "##a͜ig": 5175,
      "##raɪd": 5176,
      "##rɪz": 5177,
      "##rɪʃ\n": 5178,
      "##jɛb": 5179,
      "##rɛʧ": 5180,
      "##ʹkɛst": 5181,
      "##aɪə\n": 5182,
      "##andro": 5183,
      "##ɔfski": 5184,
      "##ɪtəɫ": 5185,
      "##ɪr)\n": 5186,
      "##øːɐ̯\n": 5187,
      "##a͜inʦ": 5188,
      "ʹwɒ": 5189,
      "##iːma\n": 5190,
      "ʹkɔp": 5191,
      "##, ˌbɪɫ\n": 5192,
      "##oːɐ̯t": 5193,
      "##, ˌstɛf": 5194,
      "##ɑːtɪn\n": 5195,
      "##ɪçaeːl": 5196,
      "##iˌvje\n": 5197,
      "##, alɛʹksandɐ": 5198,
      "ʹʃna͜id": 5199,
      "##eːodoːɐ̯\n": 5200,
      "bo̯": 5201,
      "mɔnʹt": 5202,
      "ʹant": 5203,
      "##sa\n": 5204,
      "##us)\n": 5205,
      "##ɪʹz": 5206,
      "##jʊk": 5207,
      "##viʹl": 5208,
      "##ʌb\n": 5209,
      "##aːjɛv": 5210,
      "##i̯ɛnt": 5211,
      "##, ʹan": 5212,
      "##ɛlən": 5213,
      "##ɛn ʹ": 5214,
      "##ɛndə": 5215,
      "ʹbax": 5216,
      "ʹkiː": 5217,
      "ʹkoʊ": 5218,
      "ʹkɒn": 5219,
      "##ɑːd\n": 5220,
      "##aːnɪn\n": 5221,
      "ʹhjuː": 5222,
      "##iːnə": 5223,
      "ʹgal": 5224,
      "##ɛːɐ̯\n": 5225,
      "##ɛs ʹ": 5226,
      "##ɛsˌt": 5227,
      "##aːr)\n": 5228,
      "ʹnjuː": 5229,
      "## kən": 5230,
      "##man, ": 5231,
      "## fɔn ʹb": 5232,
      "##ɛd)\n": 5233,
      "##, ˌhans": 5234,
      "##ava\n": 5235,
      "##ɪʦɛ": 5236,
      "##, ˌgreɪ": 5237,
      "##rɛi̯ra": 5238,
      "##, miˌk": 5239,
      "##, stiːv\n": 5240,
      "##ʹha͜uzn̩\n": 5241,
      "##ãːdrə\n": 5242,
      "mad": 5243,
      "ryː": 5244,
      "ʹɛɫ": 5245,
      "##i ʹl": 5246,
      "##ɛu̯)\n": 5247,
      "##mə": 5248,
      "##mʊs\n": 5249,
      "##uʦ": 5250,
      "##uʒ": 5251,
      "##oʹj": 5252,
      "##)                                  \n": 5253,
      "##jɔʹn": 5254,
      "##bər": 5255,
      "##ætə": 5256,
      "##çt": 5257,
      "##aː ʹ": 5258,
      "##eːu̯": 5259,
      "##arɔs": 5260,
      "##uːri\n": 5261,
      "##, ʹaːd": 5262,
      "##ɑːt\n": 5263,
      "##oʊ, ˌʤ": 5264,
      "##ʹliːn\n": 5265,
      "##lãː": 5266,
      "##rɛsk": 5267,
      "##rɛdə": 5268,
      "ʹpeːt": 5269,
      "##ɛːf": 5270,
      "##ʊnj": 5271,
      "##a (l": 5272,
      "##yː\n": 5273,
      "##ɐ, ˌz": 5274,
      "##o (f": 5275,
      "##, ʒyˌl": 5276,
      "## le": 5277,
      "## ʹnɔ͜y": 5278,
      "##ɛˌx": 5279,
      "##, ʹdaːni̯": 5280,
      "##riːta\n": 5281,
      "##raŋko\n": 5282,
      "##ɑːd)\n": 5283,
      "##vɪʦɛ": 5284,
      "##, moˌhamɛt\n": 5285,
      "buʹl": 5286,
      "kuʹl": 5287,
      "lɒk": 5288,
      "muʹ": 5289,
      "paʹt": 5290,
      "ɛs ": 5291,
      "## ar": 5292,
      "##rand": 5293,
      "##lə\n": 5294,
      "##lɔf": 5295,
      "##o ʹd": 5296,
      "##ɫi": 5297,
      "##ɐʹm": 5298,
      "##ɐ ʹk": 5299,
      "##eri": 5300,
      "##œʦ": 5301,
      "##wɪn\n": 5302,
      "##ɑi̯": 5303,
      "##yz": 5304,
      "##̥n": 5305,
      "##ɵnd": 5306,
      "##iːro": 5307,
      "## (ˌl": 5308,
      "##ɛrʹt": 5309,
      "##ən                                          \n": 5310,
      "##alʹk": 5311,
      "ʹkɛr": 5312,
      "##u̯i ": 5313,
      "## dra͜i": 5314,
      "##ski (": 5315,
      "ʹmʌ": 5316,
      "ʹmaː": 5317,
      "ʹhar": 5318,
      "##, muˌ": 5319,
      "##aɪp": 5320,
      "##ɪrʃ": 5321,
      "##i, ˌj": 5322,
      "##iːls\n": 5323,
      "alʹm": 5324,
      "##ɔːrən\n": 5325,
      "##eːnj": 5326,
      "##ɪçt": 5327,
      "##a (ʹh": 5328,
      "##, ˌluːkas\n": 5329,
      "##ɐ, ʹf": 5330,
      "## ʹgl": 5331,
      "##rus": 5332,
      "##riʹb": 5333,
      "##ɔpulɔs": 5334,
      "##, tɪm\n": 5335,
      "##, anʹt": 5336,
      "##ɔˌf": 5337,
      "##œrk\n": 5338,
      "##ɛsku": 5339,
      "ʹalp": 5340,
      "##o de\n": 5341,
      "##, ˌʤɒnəθən\n": 5342,
      "##)                     \n": 5343,
      "##ˌʦɪsk": 5344,
      "##, ʹstiːvən\n": 5345,
      "aʃ": 5346,
      "aʹʃ": 5347,
      "baʹk": 5348,
      "la m": 5349,
      "ɔk": 5350,
      "ʹɔst": 5351,
      "##ila": 5352,
      "##ɛ, ": 5353,
      "##usʹt": 5354,
      "##                 \n": 5355,
      "##a͜ist": 5356,
      "ʹbruː": 5357,
      "##jɛt\n": 5358,
      "##ʹnɔ͜yn": 5359,
      "##laf)\n": 5360,
      "ʹmaːl": 5361,
      "ʹmɝː": 5362,
      "##vɪs\n": 5363,
      "##asim": 5364,
      "ʹlɪp": 5365,
      "##, ˌmɪx": 5366,
      "##aɪm\n": 5367,
      "##aɪmən": 5368,
      "##iˌf": 5369,
      "##a (v": 5370,
      "##a z": 5371,
      "ʹniː": 5372,
      "##aːlə\n": 5373,
      "##ɪrgə\n": 5374,
      "## sp": 5375,
      "## siː": 5376,
      "##ɔ͜yg": 5377,
      "##iːli̯aːn\n": 5378,
      "##aːdə": 5379,
      "##artol": 5380,
      "##ɔːrd": 5381,
      "##ad)\n": 5382,
      "##, ˌjoːzɛf\n": 5383,
      "##rət\n": 5384,
      "##eːlɪks": 5385,
      "##isʹt": 5386,
      "##, ʹkar": 5387,
      "##ærən": 5388,
      "##i̯au̯": 5389,
      "##ɪvɐ\n": 5390,
      "##, xu̯an": 5391,
      "##ʃtɛfan": 5392,
      "##ɛdwɚd\n": 5393,
      "##bruːno\n": 5394,
      "##ɔːɐ̯t": 5395,
      "baʹs": 5396,
      "fran": 5397,
      "saʹb": 5398,
      "tal": 5399,
      "ɔp": 5400,
      "ʹu̯": 5401,
      "##iri": 5402,
      "##kən": 5403,
      "## ʥ": 5404,
      "##uj": 5405,
      "##ɐ ʹv": 5406,
      "##̥)\n": 5407,
      "##iː (": 5408,
      "## ʹriː": 5409,
      "## (ˌt": 5410,
      "##arv": 5411,
      "##a͜iʹt": 5412,
      "## ˌʒ": 5413,
      "## ˌha͜i": 5414,
      "##ɛn, ˌ": 5415,
      "##aˌbri̯": 5416,
      "##u̯ard": 5417,
      "ʹmæk": 5418,
      "##rɔʹm": 5419,
      "##a͜ura\n": 5420,
      "ʹha͜u": 5421,
      "ʹfɔr": 5422,
      "##ɛːz\n": 5423,
      "##, ˌdiːt": 5424,
      "##o, fran": 5425,
      "## ʹsant": 5426,
      "##ɑːrn": 5427,
      "## ʹbeɪ\n": 5428,
      "ʹwʊd": 5429,
      "##əmi\n": 5430,
      "##ola\n": 5431,
      "##ɪljəm": 5432,
      "##, miˌg": 5433,
      "##abdʊl": 5434,
      "ãʹsãːbl": 5435,
      "##jœrn": 5436,
      "garʹsiː": 5437,
      "##, ʹwɪljəm": 5438,
      "ʹtɒmsən": 5439,
      "ʹɛvənz": 5440,
      "##fiːld": 5441,
      "##fiːɫd": 5442,
      "ky": 5443,
      "kre": 5444,
      "kol": 5445,
      "kaʹr": 5446,
      "pi̯": 5447,
      "ɛ̃": 5448,
      "ɛsk": 5449,
      "ʹɛʃ": 5450,
      "##it\n": 5451,
      "##s ʹ": 5452,
      "##ɪˌk": 5453,
      "##jaʹkɔf\n": 5454,
      "##b)\n": 5455,
      "##ɚ, ˌk": 5456,
      "##aʹkɔ": 5457,
      "##eːli": 5458,
      "##i̯u)\n": 5459,
      "##uːm\n": 5460,
      "##kɔviʨ": 5461,
      "##ɔːf": 5462,
      "##ʹlj": 5463,
      "##jɛʹv": 5464,
      "##ɪlə\n": 5465,
      "ʹgʊd": 5466,
      "ʹdaːl": 5467,
      "ʹviːt": 5468,
      "##rop": 5469,
      "##ɔsʹk": 5470,
      "##ɪtl": 5471,
      "##ɛfski\n": 5472,
      "##ɜːʧ": 5473,
      "##ɜːɫ": 5474,
      "##ʊla\n": 5475,
      "##a (ʹg": 5476,
      "##eʹɔrg": 5477,
      "## ʹtriː": 5478,
      "##, ˌsæm": 5479,
      "##, maˌri̯": 5480,
      "##aːgɪn\n": 5481,
      "##riʹs": 5482,
      "##ɛvən": 5483,
      "##rɒk": 5484,
      "##bəri": 5485,
      "## (ʹsx": 5486,
      "##ɐnɐ": 5487,
      "##ski, v": 5488,
      "## ɛs ʹ": 5489,
      "##ˌʧɛsk": 5490,
      "##oˌmeː": 5491,
      "##, alɛˌksandɐ": 5492,
      "smɪθ": 5493,
      "ʹhærɪs": 5494,
      "##, ˌkæθrɪn\n": 5495,
      "##ømː": 5496,
      "by": 5497,
      "fil": 5498,
      "piʹ": 5499,
      "tan": 5500,
      "ʹøː": 5501,
      "ˌvɪ": 5502,
      "##ʊf\n": 5503,
      "##əʤ": 5504,
      "##ɪət": 5505,
      "##di\n": 5506,
      "##ɐɫ": 5507,
      "##gaŋ": 5508,
      "##greːn": 5509,
      "##e (k": 5510,
      "##.k": 5511,
      "##.ʃ": 5512,
      "##ɚ, ʹ": 5513,
      "##aʹruː": 5514,
      "##oːrə\n": 5515,
      "##ɛlo\n": 5516,
      "##rak\n": 5517,
      "##ɔnʦ": 5518,
      "ʹkæmb": 5519,
      "##u̯eːl\n": 5520,
      "ʹduː": 5521,
      "ʹtɛr": 5522,
      "##, ˌmaːri̯": 5523,
      "##aːrən": 5524,
      "##n̩bɛrk": 5525,
      "ʹruː": 5526,
      "## br": 5527,
      "alb": 5528,
      "##ɔva\n": 5529,
      "##ɪʧ, ˌ": 5530,
      "##riʹv": 5531,
      "## (ˌf": 5532,
      "##, daˌ": 5533,
      "## ˌkrɪst": 5534,
      "##oʊnə\n": 5535,
      "##ɑ˞ːt": 5536,
      "##ɑ˞ːɫ": 5537,
      "##aldo\n": 5538,
      "##izaˌb": 5539,
      "##, sɜː ˌʤ": 5540,
      "##kɔnstant": 5541,
      "##bɛrˌnaːr\n": 5542,
      "## fan deːɐ̯\n": 5543,
      "## deːɐ̯ ʹeːɐ̯stə\n": 5544,
      "el": 5545,
      "kuʹ": 5546,
      "mɪs": 5547,
      "ði ": 5548,
      "ʃat": 5549,
      "ʹa͜in": 5550,
      "ʹram": 5551,
      "##ɛθ\n": 5552,
      "##ʃɪn\n": 5553,
      "##ɔɲ": 5554,
      "##te": 5555,
      "##uɲ": 5556,
      "##u m": 5557,
      "##o ʹm": 5558,
      "##), ˌl": 5559,
      "##æŋk\n": 5560,
      "##ɐ ʹl": 5561,
      "##œʃ": 5562,
      "##vart": 5563,
      "##plaʦ\n": 5564,
      "##ʏŋ": 5565,
      "##uːla": 5566,
      "##oːli": 5567,
      "ʹbɪl": 5568,
      "ʹbɔ͜y": 5569,
      "##aˌʒ": 5570,
      "##ɔn, ˌ": 5571,
      "ʹkaːn": 5572,
      "ʹkaːl": 5573,
      "ʹkoʊɫ": 5574,
      "##u̯ãːu̯": 5575,
      "##laɪn": 5576,
      "ʹlɔ͜y": 5577,
      "##ʹviːn": 5578,
      "##lib": 5579,
      "##iˌz": 5580,
      "##a la": 5581,
      "##ə ʹw": 5582,
      "##roʹz": 5583,
      "ʹruːd": 5584,
      "##, ˌpa͜ul\n": 5585,
      "##ɐ, ʹp": 5586,
      "##rɪsʧ": 5587,
      "##, alɛkʹs": 5588,
      "##rɒʤ": 5589,
      "##ɑ˞ːk\n": 5590,
      "##eːmiːl\n": 5591,
      "##, ˌrɒbət\n": 5592,
      "##a de la": 5593,
      "##æːr": 5594,
      "##, ˌdaːni̯eːl\n": 5595,
      "## ʹʦva͜itə\n": 5596,
      "gɔnʹsaːlɛs": 5597,
      "lab": 5598,
      "roʹm": 5599,
      "ʧɛrn": 5600,
      "ˌsk": 5601,
      "##i ʹt": 5602,
      "##rəs": 5603,
      "##), ʹm": 5604,
      "##jɪf": 5605,
      "##nə\n": 5606,
      "##eːrɪk\n": 5607,
      "##arˌl": 5608,
      "##oːto": 5609,
      "##ɛrˌm": 5610,
      "##stat": 5611,
      "##al, ": 5612,
      "##ɛnʹtiːn": 5613,
      "ʹkat": 5614,
      "ʹkuːp": 5615,
      "ʹhoː": 5616,
      "ʹha͜id": 5617,
      "##ɪlʹv": 5618,
      "ʹfriːd": 5619,
      "ʹvaːl": 5620,
      "##aːro\n": 5621,
      "##oˌv": 5622,
      "##ɔs, ": 5623,
      "##ɪməθ": 5624,
      "##ɔmin": 5625,
      "##, ˌtoʊni\n": 5626,
      "##ʹkɔn": 5627,
      "##eːli̯a\n": 5628,
      "##ima\n": 5629,
      "ʹʤæksən": 5630,
      "##loːd": 5631,
      "## deːɐ̯ ʹf": 5632,
      "##bɛrto\n": 5633,
      "bɛrʹt": 5634,
      "##ɪlvi̯a\n": 5635,
      "##, ˌroːbɛrt\n": 5636,
      "##u̯ei̯)\n": 5637,
      "## ʹrɪvɚ\n": 5638,
      "kur": 5639,
      "lj": 5640,
      "mɪ": 5641,
      "mɪl": 5642,
      "met": 5643,
      "oʹb": 5644,
      "raʹd": 5645,
      "ʹeɪ": 5646,
      "##ʧi\n": 5647,
      "##mæn": 5648,
      "##raʹj": 5649,
      "##əf\n": 5650,
      "##ɐʹb": 5651,
      "##œm": 5652,
      "##zd": 5653,
      "##ɣo)\n": 5654,
      "## ʹrɔ": 5655,
      "##anʹʧ": 5656,
      "##arˌd": 5657,
      "##oːʃ": 5658,
      "##ɛl ʹ": 5659,
      "##a͜ia\n": 5660,
      "##a͜ik\n": 5661,
      "ʹkan": 5662,
      "ʹkɪrç": 5663,
      "##jɛŋk": 5664,
      "##ɪŋ ʹ": 5665,
      "##ams": 5666,
      "ʹfɫ": 5667,
      "##ʹvil": 5668,
      "ʹvɪnt": 5669,
      "##aːrən\n": 5670,
      "##iˌvan": 5671,
      "##yːl\n": 5672,
      "##ɛi̯x": 5673,
      "## ʹmjuːz": 5674,
      "##ɪʃk": 5675,
      "al ʹm": 5676,
      "##ʹfɛl": 5677,
      "##o, b": 5678,
      "##o (t": 5679,
      "##, ˌjaːn": 5680,
      "##i əv": 5681,
      "##ændə\n": 5682,
      "##aːkɪs": 5683,
      "##jam\n": 5684,
      "##, ˌnɪk\n": 5685,
      "##uːla\n": 5686,
      "##, vɔlɔˌd": 5687,
      "##jeːz": 5688,
      "##ɛːr, ": 5689,
      "##, ʹpeːtɐ": 5690,
      "##kɔnraːt\n": 5691,
      "anʹdreː": 5692,
      "##ɔu̯t": 5693,
      "##hɔlm": 5694,
      "ʹhɛrʦ": 5695,
      "##ʏrgn\n": 5696,
      "##ɪkɔˌl": 5697,
      "ʹædəmz": 5698,
      "dəʹl": 5699,
      "kuʹr": 5700,
      "maʹr": 5701,
      "nuː": 5702,
      "saʹv": 5703,
      "əʹm": 5704,
      "ʹoːl": 5705,
      "ʹɔːl": 5706,
      "ˌal": 5707,
      "##iθ": 5708,
      "##ɛˌd": 5709,
      "##mar\n": 5710,
      "##liːn": 5711,
      "##ɔɪs": 5712,
      "##jʊs": 5713,
      "##ɚ ": 5714,
      "##ɚ, ": 5715,
      "##ʌk\n": 5716,
      "##iːro\n": 5717,
      "##iːja (": 5718,
      "##aːu̯": 5719,
      "##eːh": 5720,
      "##oːro": 5721,
      "##ɪnən": 5722,
      "##ɔnja\n": 5723,
      "ʹku̯": 5724,
      "##ɑːʹm": 5725,
      "##u̯ɛrto": 5726,
      "##oʊi\n": 5727,
      "ʹmɪɫ": 5728,
      "ʹhɛs": 5729,
      "ʹhɛm": 5730,
      "ʹsiːg": 5731,
      "##ɛːri": 5732,
      "ʹviːn": 5733,
      "ʹniːl": 5734,
      "## bl": 5735,
      "##ɛ̃ˌs": 5736,
      "##ɔmiˌ": 5737,
      "##ɔtə\n": 5738,
      "##ɛntr": 5739,
      "##i v": 5740,
      "##i (g": 5741,
      "##, ʤoʊ": 5742,
      "##, ʤɪm\n": 5743,
      "##ru)\n": 5744,
      "##tob": 5745,
      "ˌpl": 5746,
      "##ɪljəm\n": 5747,
      "##jɛŋʹkɔf\n": 5748,
      "##, moˌhamɛt": 5749,
      "##, frãˌso̯": 5750,
      "##aˌris)\n": 5751,
      "ʹfraŋkfʊrt": 5752,
      "pat": 5753,
      "taʹb": 5754,
      "vas": 5755,
      "ʹuː": 5756,
      "ʹɑː": 5757,
      "ʹæn": 5758,
      "ʹab": 5759,
      "##sn": 5760,
      "##rʊs": 5761,
      "##laːv": 5762,
      "##ɪː": 5763,
      "##oʹʃ": 5764,
      "##ɐʔ": 5765,
      "##zi\n": 5766,
      "##θiː": 5767,
      "##raʦ": 5768,
      "##raɪz": 5769,
      "##ɔrʹn": 5770,
      "##ɔːg": 5771,
      "##oʊ ʹ": 5772,
      "##jɛk\n": 5773,
      "##vɪŋk": 5774,
      "##rɛʤ": 5775,
      "##ʹmat": 5776,
      "##am)\n": 5777,
      "##ɪk ": 5778,
      "##, ˌmaks\n": 5779,
      "## maʹriː": 5780,
      "## maˌriːa\n": 5781,
      "##aŋka\n": 5782,
      "##iˌkɔ": 5783,
      "##bɛrʹt": 5784,
      "##, ˌʤɛr": 5785,
      "##, ˌʤoʊz": 5786,
      "##øːb": 5787,
      "##oːni̯o": 5788,
      "##ɜːm": 5789,
      "##ɜːd": 5790,
      "##o, ...)\n": 5791,
      "ʹkɔm": 5792,
      "ʹkɔt": 5793,
      "##reɪd": 5794,
      "## ʹvɛst\n": 5795,
      "##i, ʹd": 5796,
      "## (ˌv": 5797,
      "##ɛva\n": 5798,
      "##, lɔˌ": 5799,
      "##i̯aːnə\n": 5800,
      "##ɐ̃u̯": 5801,
      "##ɛdwəd": 5802,
      "##ʌstɪn\n": 5803,
      "##aŋxɛl\n": 5804,
      "##aˌtalja\n": 5805,
      "##ɛnʤəmɪn\n": 5806,
      "bax": 5807,
      "joˌhanəs": 5808,
      "kɔs": 5809,
      "lav": 5810,
      "vɪl": 5811,
      "ʤaŋ": 5812,
      "##aeːl\n": 5813,
      "##ɛʹʦ": 5814,
      "##laːd": 5815,
      "##ə (ʹ": 5816,
      "##ɪrɪ": 5817,
      "##n ": 5818,
      "##ɐi̯": 5819,
      "##eβ": 5820,
      "##, aˌn": 5821,
      "##, ˌɛrɪk\n": 5822,
      "##anfreːt\n": 5823,
      "##oːnik": 5824,
      "##ɛrʹk": 5825,
      "##ənʹ": 5826,
      "##alf\n": 5827,
      "ʹkrɔ͜yʦ": 5828,
      "##jɛˌri\n": 5829,
      "##skaj": 5830,
      "ʹhʌ": 5831,
      "##iːna (": 5832,
      "##rɛʦ": 5833,
      "##rɛg\n": 5834,
      "##, makˌs": 5835,
      "ʹpaʊ": 5836,
      "##ama\n": 5837,
      "ʹsɛr": 5838,
      "##lis": 5839,
      "##ʃtɛt\n": 5840,
      "##axˌm": 5841,
      "##aʹliː": 5842,
      "##ɔto": 5843,
      "##ɑːrm": 5844,
      "##aʃʹk": 5845,
      "##ɐ, ˌb": 5846,
      "##, fraŋk\n": 5847,
      "##ɔva, ˌ": 5848,
      "##a (ʹl": 5849,
      "##aʹsiːl": 5850,
      "##eʹaːt": 5851,
      "##jak\n": 5852,
      "ʹʦɪm": 5853,
      "##, vlaʹd": 5854,
      "##, ʹʤɔn": 5855,
      "##ʊstaf\n": 5856,
      "##, zeˌbasti̯an\n": 5857,
      "##kɔrd": 5858,
      "bʊl": 5859,
      "ivaʹn": 5860,
      "njuː": 5861,
      "ts": 5862,
      "ʃar": 5863,
      "ʹɛn": 5864,
      "ʹaʃ": 5865,
      "##a, ˌf": 5866,
      "##i ʹf": 5867,
      "## kɔn": 5868,
      "##raʹt": 5869,
      "##le\n": 5870,
      "##tv": 5871,
      "##ta\n": 5872,
      "##o ʹs": 5873,
      "##n ʹ": 5874,
      "##njɛf\n": 5875,
      "##ʌgl": 5876,
      "##ʏn\n": 5877,
      "##ʏst": 5878,
      "##iːja": 5879,
      "##, ˌɛd": 5880,
      "##aːʹn": 5881,
      "##aʹɛl\n": 5882,
      "##anz": 5883,
      "##arʹs": 5884,
      "##, ʹra͜in": 5885,
      "##ɛni": 5886,
      "## (ʹʒ": 5887,
      "##rɪm\n": 5888,
      "ʹbuːx": 5889,
      "##aˌni": 5890,
      "ʹmas": 5891,
      "ʹmɛt": 5892,
      "##rɔb": 5893,
      "##rɔʹs": 5894,
      "ʹhɝː": 5895,
      "##, məˌ": 5896,
      "##ʹviːl\n": 5897,
      "##ʹvil\n": 5898,
      "## maˌ": 5899,
      "ʹvɛr": 5900,
      "##ɛf, ": 5901,
      "## peː": 5902,
      "##abʹd": 5903,
      "##ʹʧɛsk": 5904,
      "ʹkɔ͜y": 5905,
      "##, ˌsæm\n": 5906,
      "##ændɚ\n": 5907,
      "##ɛpt": 5908,
      "##əʹʤ": 5909,
      "##ɪnda\n": 5910,
      "##loːp": 5911,
      "##ʹʒe": 5912,
      "ʹvɪŋk": 5913,
      "##jœrn\n": 5914,
      "##ɛəri": 5915,
      "##ladj": 5916,
      "##iu̯ka)\n": 5917,
      "##oˌmeːnik": 5918,
      "ʃv": 5919,
      "##a, ˌh": 5920,
      "##i                                           \n": 5921,
      "##ɛˌs": 5922,
      "##mə\n": 5923,
      "## ɛr": 5924,
      "## rɛ": 5925,
      "##u ʹ": 5926,
      "##oi̯": 5927,
      "##o l": 5928,
      "##), ˌj": 5929,
      "##nɔf\n": 5930,
      "##ɐ, m": 5931,
      "##friːt": 5932,
      "##va͜i\n": 5933,
      "##.t": 5934,
      "##                                                \n": 5935,
      "##raɪs": 5936,
      "ʹbʌ": 5937,
      "##eɪʦ": 5938,
      "##eɪz\n": 5939,
      "ʹmaʦ": 5940,
      "ʹmʏnç": 5941,
      "##rij": 5942,
      "##at)\n": 5943,
      "ʹfoːg": 5944,
      "ʹtak": 5945,
      "##a, je": 5946,
      "ʹnɔrt": 5947,
      "## baʹt": 5948,
      "## ʹmaʊnt": 5949,
      "##ɔmɛs": 5950,
      "##əˌf": 5951,
      "##, fiʹ": 5952,
      "## de s": 5953,
      "##ə g": 5954,
      "##ʹkɔ\n": 5955,
      "ʹkɔx": 5956,
      "##ɪʦə\n": 5957,
      "##ændɚ": 5958,
      "##reɪg\n": 5959,
      "##), l": 5960,
      "##i, ʹʤ": 5961,
      "ˌbl": 5962,
      "## ˌkl": 5963,
      "##ʹʦvan": 5964,
      "##, tɔm\n": 5965,
      "##ou̯ht": 5966,
      "## deːɐ̯ ʹʦva͜itə\n": 5967,
      "##, ˌʒɔrʒ\n": 5968,
      "##eː ʦ": 5969,
      "## ʹʤuːnj": 5970,
      "##igɐr": 5971,
      "##kɔrʹn": 5972,
      "##kɔrˌn": 5973,
      "## (lɒx": 5974,
      "##, ʹnɪk": 5975,
      "##, ˌpiːtɚ\n": 5976,
      "##anˌdreːas\n": 5977,
      "##, ʹpiːtə\n": 5978,
      "##i̯ɛːtro\n": 5979,
      "la͜u": 5980,
      "maʹz": 5981,
      "nik": 5982,
      "po̯": 5983,
      "roʊ": 5984,
      "siʹm": 5985,
      "vaŋ": 5986,
      "ʹɛt": 5987,
      "ʹrɪç": 5988,
      "ʹrɛd": 5989,
      "##aja\n": 5990,
      "##aɪnd": 5991,
      "##ini": 5992,
      "##iʦk": 5993,
      "##ɛ, ...)\n": 5994,
      "##o                                         \n": 5995,
      "##ɫənd": 5996,
      "##ɐz": 5997,
      "##eh": 5998,
      "##wɛnt": 5999,
      "##vaʹl": 6000,
      "##ys\n": 6001,
      "##, ˌɛl": 6002,
      "##, ˌand": 6003,
      "##an, ˌ": 6004,
      "##eː, ": 6005,
      "##eːri\n": 6006,
      "##uːi\n": 6007,
      "##oːdə": 6008,
      "ʹbɔn": 6009,
      "##ɔni̯u": 6010,
      "##laŋ": 6011,
      "##ʹdiː": 6012,
      "ʹhøː": 6013,
      "ʹhɔ͜y": 6014,
      "##as (": 6015,
      "##ɪŋəm": 6016,
      "ʹpiː": 6017,
      "ʹlj": 6018,
      "ʹlɪnt": 6019,
      "##ɛːs": 6020,
      "##, ˌmæθjuː\n": 6021,
      "##ɪsʹl": 6022,
      "##i, ˌʃ": 6023,
      "##iːlo\n": 6024,
      "##reg": 6025,
      "##, ˌpatrɪk\n": 6026,
      "##eːned": 6027,
      "##iːdɪs": 6028,
      "##ʹʧɛsko\n": 6029,
      "##, ˌjʏrgn̩\n": 6030,
      "##eʹri": 6031,
      "##ɐ, ʹt": 6032,
      "##uˌb": 6033,
      "##aʊ\n": 6034,
      "##uːlɪn\n": 6035,
      "##æɫɪgˌz": 6036,
      "la k": 6037,
      "##emaˌn": 6038,
      "##gəb": 6039,
      "##anʤɛi̯\n": 6040,
      "##oˌhanəs\n": 6041,
      "##nikɔʹl": 6042,
      "##aːʒə\n": 6043,
      "##a͜ugʊst\n": 6044,
      "##, ʹælən\n": 6045,
      "##, frãʹso̯a\n": 6046,
      "## geː ɛm beː ˌhaː\n": 6047,
      "ben": 6048,
      "gɔn": 6049,
      "mag": 6050,
      "poʹl": 6051,
      "ram": 6052,
      "ʹaːg": 6053,
      "ˌʒ": 6054,
      "##i (ʹk": 6055,
      "##skɔ": 6056,
      "##ɪən": 6057,
      "##oʔ": 6058,
      "##o ʹp": 6059,
      "##jo\n": 6060,
      "##jɔm": 6061,
      "##ɐʹr": 6062,
      "##œf": 6063,
      "##ʌ)\n": 6064,
      "## ʹɛə": 6065,
      "## ʹɔːkɪstrə\n": 6066,
      "##aʹroː": 6067,
      "##aʹkɔv": 6068,
      "##ar, ": 6069,
      "##oːʒ": 6070,
      "##oːa\n": 6071,
      "##, ʹr": 6072,
      "##ɛr, ": 6073,
      "##alg": 6074,
      "##iʹriː": 6075,
      "## ˌsk": 6076,
      "##a͜i, ": 6077,
      "##rɪd\n": 6078,
      "##ɔnɔf": 6079,
      "ʹkɪŋ": 6080,
      "ʹkoːl": 6081,
      "##skɐ": 6082,
      "##aːnə\n": 6083,
      "ʹhaːn": 6084,
      "##ɛs (": 6085,
      "##, ˌmɑːrk\n": 6086,
      "##ɛkə\n": 6087,
      "##ɪsp": 6088,
      "##a, h": 6089,
      "##ɛti\n": 6090,
      "##juːt\n": 6091,
      "##aːlɪs\n": 6092,
      "##, ˌʤɛri\n": 6093,
      "ʹra͜i": 6094,
      "##ruːn\n": 6095,
      "##iːdə\n": 6096,
      "##ə l": 6097,
      "##rəʹm": 6098,
      "##i ʤ": 6099,
      "##, ʒak": 6100,
      "##ola͜us\n": 6101,
      "##aːkom": 6102,
      "## (ˌg": 6103,
      "##, pa͜ul\n": 6104,
      "##vɪli\n": 6105,
      "## ˌdɛl": 6106,
      "##, ʹsɛr": 6107,
      "## aːʹgeː\n": 6108,
      "##uːgo\n": 6109,
      "##anˌtɔːni̯o\n": 6110,
      "kɔrʹn": 6111,
      "##)           \n": 6112,
      "##hɔlt\n": 6113,
      "##oːri̯a\n": 6114,
      "##i̯ɛn)\n": 6115,
      "##jɔtr\n": 6116,
      "##a͜ugʊst": 6117,
      "##, ˌvɪktoːɐ̯": 6118,
      "bɛʹl": 6119,
      "ham": 6120,
      "lã": 6121,
      "rɔs": 6122,
      "var": 6123,
      "viʹt": 6124,
      "ʹeːl": 6125,
      "##ʧa\n": 6126,
      "##iβ": 6127,
      "##ikɔ": 6128,
      "##kvɪst": 6129,
      "##mat": 6130,
      "## iː": 6131,
      "## al\n": 6132,
      "##rɑː": 6133,
      "##ɔvi": 6134,
      "##tf": 6135,
      "##əʃ": 6136,
      "##ə f": 6137,
      "##ɪj": 6138,
      "##o                                        \n": 6139,
      "##), ˌm": 6140,
      "##jaː": 6141,
      "##niː": 6142,
      "##e)": 6143,
      "##pəʹr": 6144,
      "##ɑ\n": 6145,
      "## (i̯": 6146,
      "## (ˌn": 6147,
      "##aʹbr": 6148,
      "##anski\n": 6149,
      "##i̯ɛːr": 6150,
      "##ɪnʃ": 6151,
      "## ˌʃt": 6152,
      "ʹbeː": 6153,
      "##ɑːri": 6154,
      "##ɔːb": 6155,
      "##ɔːla": 6156,
      "ʹmɪʧ": 6157,
      "##rid": 6158,
      "ʹhɛnd": 6159,
      "##rɛp": 6160,
      "ʹsʌm": 6161,
      "##ɛːʊs\n": 6162,
      "##aki\n": 6163,
      "ʹnɔt": 6164,
      "##int": 6165,
      "##øːr": 6166,
      "##o, ʒã": 6167,
      "##ɐ, ʹl": 6168,
      "##ɛŋʹg": 6169,
      "##, ʤeɪmz\n": 6170,
      "##, ˌgaːb": 6171,
      "##ɛˌz": 6172,
      "##ul)\n": 6173,
      "##ɑːnə\n": 6174,
      "##, ʹhɛnri\n": 6175,
      "##ærə\n": 6176,
      "## ˌsant": 6177,
      "##ɛnʦʔ": 6178,
      "##ʏn)\n": 6179,
      "##eɪnz": 6180,
      "##ɪxɪn\n": 6181,
      "##, sɛrʹgeː": 6182,
      "##, sɛrˌgeː\n": 6183,
      "oʊʹk": 6184,
      "##, ˌkarlo\n": 6185,
      "##, ʹkrɪstɔf\n": 6186,
      "## ʦeː": 6187,
      "garˌsiː": 6188,
      "##kɔnstanʹt": 6189,
      "##, ʹmarko\n": 6190,
      "##oˌvani\n": 6191,
      "##, leoˌn": 6192,
      "##reɪʧəɫ\n": 6193,
      "##ɪmɪtɪd\n": 6194,
      "buʹ": 6195,
      "baʹz": 6196,
      "daʹ": 6197,
      "haː": 6198,
      "jɛf": 6199,
      "kaʃ": 6200,
      "tuː": 6201,
      "taʹm": 6202,
      "ʹaŋ": 6203,
      "##a                                 \n": 6204,
      "##iʔ": 6205,
      "##sh": 6206,
      "## ɒn": 6207,
      "##ora": 6208,
      "##o, ˌp": 6209,
      "##ovɪʧ": 6210,
      "##o                                           \n": 6211,
      "##ɐʹv": 6212,
      "##ɐnt": 6213,
      "##xa͜il": 6214,
      "##y)\n": 6215,
      "##, æl": 6216,
      "##, ˌruː": 6217,
      "##aːja": 6218,
      "##, ʹiːv": 6219,
      "##ɛrˌv": 6220,
      "##alʹt": 6221,
      "##ɛlʹj": 6222,
      "##ɪnju": 6223,
      "##ɔna\n": 6224,
      "ʹkʊr": 6225,
      "ʹmɔːr": 6226,
      "##rɔu̯": 6227,
      "##ãˌd": 6228,
      "##ɪkt\n": 6229,
      "ʹlɛm": 6230,
      "##i, ʃ": 6231,
      "##ɛka\n": 6232,
      "##aŋk\n": 6233,
      "ʹvas": 6234,
      "##a ...)\n": 6235,
      "##ɔft": 6236,
      "##ɔs ʹ": 6237,
      "##aːti\n": 6238,
      "##ɔ͜ys\n": 6239,
      "##ʹhaːg": 6240,
      "##ɑːrə\n": 6241,
      "##ə n": 6242,
      "## ʹhaː\n": 6243,
      "##ikoːn": 6244,
      "##ɔŋʹg": 6245,
      "##riʹz": 6246,
      "##ra͜iç": 6247,
      "##oʹʦ": 6248,
      "##ˌkɛst": 6249,
      "##æɫ\n": 6250,
      "##e la": 6251,
      "##, ʹfɪlɪp\n": 6252,
      "la p": 6253,
      "##œi̯\n": 6254,
      "##jœrk\n": 6255,
      "##ɪʹɫ": 6256,
      "##ʃlʊs": 6257,
      "##raˌhiːm\n": 6258,
      "##rɑːnsɪs\n": 6259,
      "iʹl": 6260,
      "jaŋ": 6261,
      "jaʹk": 6262,
      "kʊl": 6263,
      "miʹn": 6264,
      "niʹk": 6265,
      "sɔ": 6266,
      "soʹl": 6267,
      "æl": 6268,
      "ɔst": 6269,
      "##i f": 6270,
      "## ɫ": 6271,
      "## i̯": 6272,
      "##lənd": 6273,
      "##ɔˑ": 6274,
      "##ɔɪnt": 6275,
      "##ə, ˌʤ": 6276,
      "##ə s": 6277,
      "##oβ": 6278,
      "##o g": 6279,
      "##ˌbr": 6280,
      "##ɐnd": 6281,
      "##wɔːr": 6282,
      "##fjuː": 6283,
      "##ɚ ʹ": 6284,
      "## (q": 6285,
      "##uːri̯": 6286,
      "##, ʹroː": 6287,
      "##ɛrən\n": 6288,
      "##ən                                      \n": 6289,
      "##ɛn, ": 6290,
      "## (ʹɣ": 6291,
      "ʹbʊl": 6292,
      "##eɪlə": 6293,
      "##aˌβ": 6294,
      "##aˌto": 6295,
      "##ɔn, ": 6296,
      "##ski)\n": 6297,
      "ʹmɔl": 6298,
      "##vɪɫ\n": 6299,
      "##, maɪk\n": 6300,
      "## fiːɐ̯": 6301,
      "##, ˌkeɪt": 6302,
      "##yːm": 6303,
      "##ɪmʹb": 6304,
      "alʹf": 6305,
      "## ʹsɪti\n": 6306,
      "##, faˌb": 6307,
      "##, frɪʦ\n": 6308,
      "##eʹriːn": 6309,
      "##rə)\n": 6310,
      "##, ˌsaɪmən\n": 6311,
      "##rub": 6312,
      "##i, ʹt": 6313,
      "##i̯o ": 6314,
      "##ɛndi\n": 6315,
      "##, alˌf": 6316,
      "## væn\n": 6317,
      "##juʹb": 6318,
      "##, ʹpav": 6319,
      "##roʊd\n": 6320,
      "##uːsi\n": 6321,
      "##, ˌrɒbɚt": 6322,
      "##i, ʤoʹvan": 6323,
      "##iʦa)\n": 6324,
      "##, franˌsɪsk": 6325,
      "##, ˌʧɑːrɫ": 6326,
      "##, krɪsˌtiːna\n": 6327,
      "##laˌdiːmiːɐ̯\n": 6328,
      "roʹdriːgɛs": 6329,
      "##ɪrʒiː\n": 6330,
      "koʹr": 6331,
      "laʹt": 6332,
      "sn": 6333,
      "zaʹ": 6334,
      "ʤoʊnz": 6335,
      "ʹɪŋg": 6336,
      "##a                                      \n": 6337,
      "##iʤ": 6338,
      "##ibr": 6339,
      "##i                                             \n": 6340,
      "## )\n": 6341,
      "##lɪs": 6342,
      "##ɪˌn": 6343,
      "##oʧ": 6344,
      "##jaːjɛf\n": 6345,
      "##ˌlaf": 6346,
      "##hɔrn": 6347,
      "##ɐ ʹf": 6348,
      "##wʊd\n": 6349,
      "##yl\n": 6350,
      "##ɒŋ\n": 6351,
      "##ʨ)": 6352,
      "##ani": 6353,
      "##uːh": 6354,
      "##oːst": 6355,
      "##, ʹɔl": 6356,
      "##ɛrk\n": 6357,
      "##ɛrʹs": 6358,
      "##stra": 6359,
      "##rɪsən": 6360,
      "ʹbɔ": 6361,
      "ʹkuːn": 6362,
      "##ɑː˞": 6363,
      "##oʊ, ": 6364,
      "##skaː": 6365,
      "ʹmyːl": 6366,
      "ʹhæn": 6367,
      "##vɪʦk": 6368,
      "##ɪlk": 6369,
      "##ɪŋz\n": 6370,
      "ʹfɪn": 6371,
      "##æns\n": 6372,
      "ʹdʌn": 6373,
      "##raːʦ": 6374,
      "##a h": 6375,
      "##yːð": 6376,
      "##yːp": 6377,
      "##aːle\n": 6378,
      "##, ˌdmɪtri\n": 6379,
      "##, ˌdeɪvɪd": 6380,
      "##ɪrs": 6381,
      "##ante": 6382,
      "##ɔːrk": 6383,
      "##o, t": 6384,
      "## fɔn ʹl": 6385,
      "##roː\n": 6386,
      "ʹwɔːɫ": 6387,
      "##, ʹmar": 6388,
      "## dez": 6389,
      "##eːɐ̯hart": 6390,
      "##æli\n": 6391,
      "##ɪsta\n": 6392,
      "##, ˌgʏntɐ\n": 6393,
      "ˌsp": 6394,
      "##bʊrgɐ": 6395,
      "##ou̯n": 6396,
      "##ɐnˌd": 6397,
      "##, ˌxu̯an": 6398,
      "##ɛj\n": 6399,
      "##ʧikɔf\n": 6400,
      "##, ʹkrɪstəf": 6401,
      "##ɛnzɪs\n": 6402,
      "##ɐvɐ, ": 6403,
      "##ɑːsəɫ\n": 6404,
      "ʹbɛrg": 6405,
      "##)                 \n": 6406,
      "##ɛrɪkən": 6407,
      "##, ˌjuːli̯a\n": 6408,
      "##ou̯htɪr": 6409,
      "aʹj": 6410,
      "bas": 6411,
      "haʹm": 6412,
      "mɔl": 6413,
      "pak": 6414,
      "peʹr": 6415,
      "tam": 6416,
      "ði ʹ": 6417,
      "ɛsp": 6418,
      "ʃaʹb": 6419,
      "ʹaː": 6420,
      "ˌr": 6421,
      "##a ˌp": 6422,
      "##ɛʹʧ": 6423,
      "##ɛərə\n": 6424,
      "##maːɐ̯\n": 6425,
      "## kɔː": 6426,
      "##əman": 6427,
      "##ˌʃt": 6428,
      "##ædəm": 6429,
      "##ɐ ʹd": 6430,
      "##xt": 6431,
      "##yˌs": 6432,
      "## (w": 6433,
      "##ar ": 6434,
      "##oːri\n": 6435,
      "##ɛrl": 6436,
      "##ali\n": 6437,
      "##alʹb": 6438,
      "ʹbɔs": 6439,
      "##ʹtɛl": 6440,
      "##ɔra\n": 6441,
      "##ɑːkə": 6442,
      "##ɔːli": 6443,
      "##riˑ": 6444,
      "ʹhɔp": 6445,
      "##, miʹʃɛl\n": 6446,
      "ʹgɫ": 6447,
      "ʹʃʊlʦ": 6448,
      "##at ": 6449,
      "ʹdr": 6450,
      "##ɛsa\n": 6451,
      "##i, j": 6452,
      "##a, z": 6453,
      "##juːm": 6454,
      "##rou̯": 6455,
      "##reːs": 6456,
      "##reʹg": 6457,
      "alʹk": 6458,
      "## tu": 6459,
      "##eːna (": 6460,
      "##əm)\n": 6461,
      "##ɔvɔ": 6462,
      "##a (ʹn": 6463,
      "##ˌnal": 6464,
      "##rɪst\n": 6465,
      "##eːdro\n": 6466,
      "##ɔˌz": 6467,
      "ɛl m": 6468,
      "## ɪn ðə ʹ": 6469,
      "##kɔla\n": 6470,
      "##lɪŋən\n": 6471,
      "##, ʹkrɪsti̯aːn\n": 6472,
      "##rɔlf\n": 6473,
      "##)                   \n": 6474,
      "##)              \n": 6475,
      "##fjɔrt": 6476,
      "##yːbɐgaŋ": 6477,
      "laʹk": 6478,
      "muʹr": 6479,
      "oʹr": 6480,
      "pas": 6481,
      "re": 6482,
      "tʊr": 6483,
      "ʹaːr": 6484,
      "ˌval": 6485,
      "##a, ˌg": 6486,
      "##a, ʹp": 6487,
      "##ʧɪʧ": 6488,
      "##i, ʹk": 6489,
      "##s, ": 6490,
      "##mʊnt\n": 6491,
      "##ʊri": 6492,
      "##leːb": 6493,
      "##o ʹk": 6494,
      "##jʊr": 6495,
      "##bɛk\n": 6496,
      "##nʹd": 6497,
      "##ẽː": 6498,
      "##yʹb": 6499,
      "##ʏd": 6500,
      "##eːo": 6501,
      "##eːdə": 6502,
      "##ɛrʹb": 6503,
      "##staɪn": 6504,
      "##alβ": 6505,
      "ʹbøː": 6506,
      "##ɔns\n": 6507,
      "ʹkaː": 6508,
      "ʹkʊl": 6509,
      "##u̯ɛnt": 6510,
      "##oʊʃ": 6511,
      "##oʊɫ\n": 6512,
      "##riːm\n": 6513,
      "ʹmak": 6514,
      "ʹmɛnd": 6515,
      "ʹmont": 6516,
      "##aːno)\n": 6517,
      "##rɛ)\n": 6518,
      "##ɪlˌ": 6519,
      "##ɪŋtən\n": 6520,
      "ʹtaːl": 6521,
      "##aɪɫ\n": 6522,
      "##ɪs ": 6523,
      "## maˌriː": 6524,
      "ʹviːd": 6525,
      "##a, an": 6526,
      "##oˌg": 6527,
      "##ros": 6528,
      "##eʹʒ": 6529,
      "##i n": 6530,
      "##i h": 6531,
      "##iʹnɛl": 6532,
      "##), d": 6533,
      "##, daʹn": 6534,
      "##, joˌaxiːm\n": 6535,
      "## ˌkarl": 6536,
      "##a, ˌʒ": 6537,
      "##ɔˌʒ": 6538,
      "## deːɐ̯ ʹd": 6539,
      "ʹbra͜un": 6540,
      "##ɔb\n": 6541,
      "##oːdə\n": 6542,
      "##, ˌkrɪstɔf": 6543,
      "##, zuˌz": 6544,
      "##rafaˌɛl\n": 6545,
      "##)          \n": 6546,
      "##strømː": 6547,
      "##, ãˌri\n": 6548,
      "##ɐ̃u̯)\n": 6549,
      "##ærət": 6550,
      "##ladim": 6551,
      "##jɔdɔr": 6552,
      "blæk": 6553,
      "##, kataˌriːna\n": 6554,
      "##)            \n": 6555,
      "##ˌgeːni": 6556,
      "##ha͜uzn\n": 6557,
      "##, ˌeːrɪk\n": 6558,
      "##riˌkard": 6559,
      "##eˌfan\n": 6560,
      "##eɪθən\n": 6561,
      "##asˌkal\n": 6562,
      "be": 6563,
      "beʹl": 6564,
      "hoːx": 6565,
      "jan": 6566,
      "ks": 6567,
      "laʹm": 6568,
      "laʹp": 6569,
      "mʊr": 6570,
      "maʹm": 6571,
      "taʹ": 6572,
      "tɔl": 6573,
      "ʹɪm": 6574,
      "ʹa͜iz": 6575,
      "##a                                       \n": 6576,
      "##ʧɛŋkɔ\n": 6577,
      "##sg": 6578,
      "## ɕ": 6579,
      "##ti)\n": 6580,
      "##ə d": 6581,
      "##ərɪŋ": 6582,
      "##uˌt": 6583,
      "##ɪʹʃ": 6584,
      "##ɪˌm": 6585,
      "##æz\n": 6586,
      "##ɑnd": 6587,
      "##ʌp\n": 6588,
      "##iː ˌ": 6589,
      "##aːrɛk\n": 6590,
      "##ara)\n": 6591,
      "##uːr)\n": 6592,
      "##iʹθ": 6593,
      "##ɛn ": 6594,
      "##a͜ip": 6595,
      "##ɔrʦ": 6596,
      "ʹkruː": 6597,
      "##ʹlan": 6598,
      "ʹmɑːr": 6599,
      "##vɪk\n": 6600,
      "##ʹmã": 6601,
      "##, maʹn": 6602,
      "##, mɔˌ": 6603,
      "ʹlaːg": 6604,
      "ʹluːk": 6605,
      "ʹtuː": 6606,
      "##i, z": 6607,
      "##aɪv\n": 6608,
      "##iˌp": 6609,
      "##yːlə": 6610,
      "## kat": 6611,
      "##əl)\n": 6612,
      "##, ˌʤɛnɪf": 6613,
      "##aʹliː\n": 6614,
      "##ɛmʹb": 6615,
      "##əˌʃ": 6616,
      "## ʹsm": 6617,
      "## tɛk": 6618,
      "##aʃi\n": 6619,
      "##, ʹmaɪk": 6620,
      "##eʹrik\n": 6621,
      "ʹʧɛr": 6622,
      "##i, ʹf": 6623,
      "##jɛfˌgeːni": 6624,
      "##ʌn)\n": 6625,
      "a͜u": 6626,
      "##eˌmi\n": 6627,
      "zaŋkt ʹ": 6628,
      "ʹanʃlʊs": 6629,
      "##ænθəni\n": 6630,
      "##ɪməθi\n": 6631,
      "baʹd": 6632,
      "i̯": 6633,
      "kɪŋ": 6634,
      "pɔt": 6635,
      "ʃiʹ": 6636,
      "ʹiːv": 6637,
      "##a, ˌb": 6638,
      "##a                                  \n": 6639,
      "##ʧɛk": 6640,
      "##ʊʦ\n": 6641,
      "##rʃ": 6642,
      "##ld": 6643,
      "##lo)\n": 6644,
      "##os)\n": 6645,
      "##)                                     \n": 6646,
      "##hɛd": 6647,
      "##e d": 6648,
      "##e (p": 6649,
      "##z)\n": 6650,
      "##vɔl": 6651,
      "##pər": 6652,
      "##ʏr\n": 6653,
      "## ʹjuː": 6654,
      "## (u̯aŋ": 6655,
      "## (ʹθ": 6656,
      "##rɪlj": 6657,
      "ʹkøː": 6658,
      "##ɑːni": 6659,
      "##ɔːp": 6660,
      "##ska\n": 6661,
      "##riːk\n": 6662,
      "##lap": 6663,
      "ʹmaːt": 6664,
      "ʹheɪz": 6665,
      "ʹgɔt": 6666,
      "##ɪkl": 6667,
      "##ɛːle": 6668,
      "##ɔf, ˌ": 6669,
      "##, ˌʤɔːrʤ\n": 6670,
      "ʹra͜u": 6671,
      "##ind": 6672,
      "##, krisʹt": 6673,
      "##ɛ̃ʒ": 6674,
      "##ren": 6675,
      "##ɜːst": 6676,
      "##l̩s": 6677,
      "##ʹʧiːn": 6678,
      "##, ˌhɝː": 6679,
      "##, ˌliː": 6680,
      "##, ˌfraŋk\n": 6681,
      "##ʊmʹb": 6682,
      "##ɐsdɔrf": 6683,
      "## də)\n": 6684,
      "##skij)\n": 6685,
      "##nikaˌla": 6686,
      "##ɔu̯\n": 6687,
      "##eːzar": 6688,
      "ʹæʃ": 6689,
      "##ɛˌksandɐ\n": 6690,
      "##eɪtɪd\n": 6691,
      "##ɛx\n": 6692,
      "##, ˌmaɪkəɫ": 6693,
      "##valtɐ": 6694,
      "##jœrt": 6695,
      "##ɨna)\n": 6696,
      "##, ˌroːman": 6697,
      "##iːʤeɪ": 6698,
      "##ævən": 6699,
      "##uˌzɛpe\n": 6700,
      "##ɪnstɪt": 6701,
      "## kvarˌtɛt\n": 6702,
      "##alɛˌksandɐ\n": 6703,
      "##katɛˌ": 6704,
      "bab": 6705,
      "kɪr": 6706,
      "kuʹb": 6707,
      "pəʹt": 6708,
      "sã": 6709,
      "vɪlj": 6710,
      "ɔb": 6711,
      "##au": 6712,
      "##aʨ": 6713,
      "##a fɔn\n": 6714,
      "##i ʹg": 6715,
      "##roʊ\n": 6716,
      "##ɪʹf": 6717,
      "##o (ʹp": 6718,
      "##ð)\n": 6719,
      "##jiː": 6720,
      "##jaʹn": 6721,
      "##nɛn": 6722,
      "##ɫi, ˌ": 6723,
      "##ɐʃtraːsə\n": 6724,
      "##eʃ": 6725,
      "##və\n": 6726,
      "##vart\n": 6727,
      "##aʹkɔf, ": 6728,
      "##uː)\n": 6729,
      "##ɛlb": 6730,
      "ʹbaɪ": 6731,
      "##ɔri\n": 6732,
      "##laʊ": 6733,
      "ʹmɛs": 6734,
      "ʹgɪɫ": 6735,
      "ʹgɪb": 6736,
      "ʹpa͜ul": 6737,
      "ʹʃrøː": 6738,
      "##, ˌmaːri̯o\n": 6739,
      "##aŋ)\n": 6740,
      "##a, anˌt": 6741,
      "##ʊnʹj": 6742,
      "##ɛi̯l": 6743,
      "##aːlo": 6744,
      "##ɔs (": 6745,
      "##ɛfski": 6746,
      "##art)\n": 6747,
      "##vis": 6748,
      "##o̯aʹz": 6749,
      "##ɔːrəns\n": 6750,
      "##aʃk": 6751,
      "ʹjʌŋ": 6752,
      "##mən, ˌ": 6753,
      "## ʹlʌv\n": 6754,
      "ˌkoːt": 6755,
      "##), h": 6756,
      "##ãːu": 6757,
      "##, ˌgæri\n": 6758,
      "##uːli\n": 6759,
      "##uːli̯o\n": 6760,
      "##iʹtɛːt\n": 6761,
      "##vald": 6762,
      "##oʹʒ": 6763,
      "##y̆ɛl": 6764,
      "##ʏrst": 6765,
      "##, ʹdænj": 6766,
      "ləʹm": 6767,
      "##ʦi̯oːn": 6768,
      "##uːzik": 6769,
      "##œi̯s": 6770,
      "##, ˌʤeɪmi\n": 6771,
      "barʹb": 6772,
      "##i̯ɛrra": 6773,
      "##eːfano\n": 6774,
      "##ai̯)\n": 6775,
      "##nikɔf, ": 6776,
      "##, ʹrɔbət\n": 6777,
      "##)                  \n": 6778,
      "##hɔrn\n": 6779,
      "##y̆ɛn)\n": 6780,
      "##, maksiˌm": 6781,
      "##ʹnɔ͜ynʦɪç\n": 6782,
      "##ɔmiˌnik\n": 6783,
      "dz": 6784,
      "kaʹʃ": 6785,
      "meʹd": 6786,
      "rɔʹm": 6787,
      "sw": 6788,
      "sanʹt": 6789,
      "ɛsʹt": 6790,
      "ʹandɐ": 6791,
      "ˌkɔ": 6792,
      "##a ˌm": 6793,
      "##a                                             \n": 6794,
      "##a, maˌriː": 6795,
      "##ɔviʧ": 6796,
      "##dz": 6797,
      "##n, ʹ": 6798,
      "##æli": 6799,
      "##hɔlt": 6800,
      "##veːk\n": 6801,
      "##yʹt": 6802,
      "##, aˌm": 6803,
      "##iːri̯": 6804,
      "##, ˌrɔ": 6805,
      "##aːʹ": 6806,
      "##aːo\n": 6807,
      "##ana)\n": 6808,
      "##eːi̯": 6809,
      "##arˌm": 6810,
      "##uːjɛf\n": 6811,
      "##alɛkˌs": 6812,
      "##ɛlg": 6813,
      "##ɛnʃ": 6814,
      "##kɔn\n": 6815,
      "##rast": 6816,
      "##rɪl\n": 6817,
      "ʹbreː": 6818,
      "ʹbʊʃ": 6819,
      "##ɔrs": 6820,
      "##a͜uˌ": 6821,
      "ʹgeː": 6822,
      "##ɪkst": 6823,
      "ʹfɔl": 6824,
      "##, ˌmɛr": 6825,
      "##, ˌmɪk": 6826,
      "##, ˌmɑːr": 6827,
      "##aɪə": 6828,
      "##raː\n": 6829,
      "##, ˌʤɪmi\n": 6830,
      "##ərən\n": 6831,
      "##reːt\n": 6832,
      "##oːni̯a\n": 6833,
      "##a͜ins": 6834,
      "##ɔ̃ʹd": 6835,
      "alm": 6836,
      "##, diˌm": 6837,
      "##loːt": 6838,
      "##bɛrk                                         \n": 6839,
      "##ɔx\n": 6840,
      "##ɪx\n": 6841,
      "##a͜idə\n": 6842,
      "##, roˌ": 6843,
      "##ɑːtɪn": 6844,
      "ʹblæk": 6845,
      "##ʊs fɔn ": 6846,
      "## ˌnæʃənəɫ": 6847,
      "##iːʧ\n": 6848,
      "ɛrʹn": 6849,
      "##ɑːɫz\n": 6850,
      "##, ʧɑːl": 6851,
      "##agnʊs": 6852,
      "##eːdu̯art\n": 6853,
      "bɪr": 6854,
      "bru": 6855,
      "baʹr": 6856,
      "dar": 6857,
      "koʊ": 6858,
      "kras": 6859,
      "lam": 6860,
      "mʊ": 6861,
      "naʹ": 6862,
      "naʹv": 6863,
      "ʹaks": 6864,
      "ˌx": 6865,
      "##ɔ (ʹ": 6866,
      "##ta)\n": 6867,
      "##o f": 6868,
      "##ðað": 6869,
      "##nz": 6870,
      "##ɫɚ": 6871,
      "##ɫɪn\n": 6872,
      "##ha͜u": 6873,
      "##hɪl": 6874,
      "##ʉː": 6875,
      "##iːʒ": 6876,
      "##iːst": 6877,
      "##aːi̯": 6878,
      "##aːrɔf": 6879,
      "## (ɑ": 6880,
      "## (br": 6881,
      "##i̯aŋ\n": 6882,
      "##arz": 6883,
      "##, ʹroːbɛrt\n": 6884,
      "##ɛrʹl": 6885,
      "##ənk": 6886,
      "##ənʹb": 6887,
      "##a͜iɐ": 6888,
      "ʹbeɪk": 6889,
      "ʹbɝːn": 6890,
      "ʹkæn": 6891,
      "ʹkɝː": 6892,
      "##ɑːʹd": 6893,
      "##asʹp": 6894,
      "ʹpal": 6895,
      "ʹpeːrɛs": 6896,
      "ʹvɛrn": 6897,
      "##yːk": 6898,
      "ʹniːd": 6899,
      "##əlt": 6900,
      "##əlz": 6901,
      "##əln\n": 6902,
      "##ɔ͜yk": 6903,
      "ʹzaːl": 6904,
      "##a͜inɛn": 6905,
      "##iːls": 6906,
      "##aːdo\n": 6907,
      "##uʹriː": 6908,
      "alk": 6909,
      "alʹt": 6910,
      "##əˌg": 6911,
      "##eːta\n": 6912,
      "##ʹʧɛl": 6913,
      "##ɛntə": 6914,
      "##, ʤɔːʤ\n": 6915,
      "## geː": 6916,
      "##ruʹb": 6917,
      "##i, ʹl": 6918,
      "##uːlɔf\n": 6919,
      "##, naˌ": 6920,
      "##, ʹpeːt": 6921,
      "art": 6922,
      "##roʊz\n": 6923,
      "## ˌfɛst": 6924,
      "ˌtriː": 6925,
      "##jʊət\n": 6926,
      "la s": 6927,
      "la b": 6928,
      "##uʹsɛi̯n": 6929,
      "##, ʹkrɪsti̯an\n": 6930,
      "##)             \n": 6931,
      "##)               \n": 6932,
      "##, ˌbruːn": 6933,
      "##reɪnʤ": 6934,
      "##alɛʹksandɐ": 6935,
      "marʹtiːnɛs": 6936,
      "##, ˌbɒb\n": 6937,
      "##uʹzɛpe\n": 6938,
      "## frãˌso̯a\n": 6939,
      "aʹx": 6940,
      "bu": 6941,
      "dj": 6942,
      "han": 6943,
      "laʹv": 6944,
      "ps": 6945,
      "pɔd": 6946,
      "roʹz": 6947,
      "sæn": 6948,
      "æɫ": 6949,
      "ɪz": 6950,
      "ʹaːn": 6951,
      "ʹæk": 6952,
      "ʹjɛː": 6953,
      "##rn": 6954,
      "##lf": 6955,
      "##ɔɪd\n": 6956,
      "##ə, k": 6957,
      "##u ʹs": 6958,
      "##oɲ": 6959,
      "##o                                            \n": 6960,
      "##ɫuː": 6961,
      "##h)\n": 6962,
      "##ʏs\n": 6963,
      "##, rɛ": 6964,
      "##, abd": 6965,
      "##aːrɪs\n": 6966,
      "##i̯ɛt": 6967,
      "##oːk\n": 6968,
      "##a͜iʹl": 6969,
      "##iʹkɔf\n": 6970,
      "##kɔʹv": 6971,
      "ʹbɛt": 6972,
      "ʹbʊr": 6973,
      "##eɪl\n": 6974,
      "ʹka͜iz": 6975,
      "##oʊnt": 6976,
      "##jɛʹg": 6977,
      "ʹmax": 6978,
      "ʹmiːk": 6979,
      "##riz": 6980,
      "ʹhʌnt": 6981,
      "ʹpɪl": 6982,
      "##ʹraːn": 6983,
      "ʹʃɛp": 6984,
      "##, ˌmɪr": 6985,
      "##, ˌmæt\n": 6986,
      "##aɪʤ": 6987,
      "##ak)\n": 6988,
      "##raːr\n": 6989,
      "ʹva͜id": 6990,
      "##, ˌʤɪm\n": 6991,
      "##aʹlaː": 6992,
      "##ʊs ʹ": 6993,
      "##inɔf\n": 6994,
      "##ɛmə\n": 6995,
      "##, saˌm": 6996,
      "##, ˌpɔl\n": 6997,
      "##əˌh": 6998,
      "## fɔn ʹp": 6999,
      "##aʃʹviːli": 7000,
      "ʹwɪn": 7001,
      "##, fɛrˌnand": 7002,
      "##ə v": 7003,
      "##, ˌjaːkɔp\n": 7004,
      "ʹkɔv": 7005,
      "##, ˌfrɛd": 7006,
      "##reɪz": 7007,
      "ʹʤeɪmz": 7008,
      "##toʹm": 7009,
      "##enʹt": 7010,
      "##ele": 7011,
      "##a, ˌv": 7012,
      "##, vaˌl": 7013,
      "##jɛrm": 7014,
      "##ræf": 7015,
      "##ʊxt": 7016,
      "##rɔfski\n": 7017,
      "##rɪnʦ": 7018,
      "##, franˌʦɪsk": 7019,
      "##, ʹvɛrnɐ\n": 7020,
      "##ɑ̃)\n": 7021,
      "ʹjuːn": 7022,
      "##ro̯a\n": 7023,
      "## an deːɐ̯ ʹ": 7024,
      "##iʨ)": 7025,
      "##rɛçt\n": 7026,
      "ʹælən": 7027,
      "##ohaʹm": 7028,
      "ʹluːɪs": 7029,
      "##ɑːndə\n": 7030,
      "##iˌjoːm\n": 7031,
      "##vikˌt": 7032,
      "##rænsɪs\n": 7033,
      "##, ˌdi̯eːgo\n": 7034,
      "ʹloːpɛs": 7035,
      "##ɛ̃ˌsã\n": 7036,
      "##ɛnʦʔyːbɐgaŋ": 7037,
      "buʹd": 7038,
      "daʹn": 7039,
      "hoːən": 7040,
      "pɛl": 7041,
      "piʹk": 7042,
      "riʹv": 7043,
      "siʹ": 7044,
      "snt": 7045,
      "ɛʹr": 7046,
      "ʃaʹl": 7047,
      "ʹɪs": 7048,
      "ʹrɛi̯": 7049,
      "##ʧɛf": 7050,
      "##ʧtraːsə\n": 7051,
      "##iro": 7052,
      "##i                                         \n": 7053,
      "##ɛ (ʹ": 7054,
      "##sv": 7055,
      "##ʊər": 7056,
      "## θ": 7057,
      "## ɔv": 7058,
      "##ə, ˌk": 7059,
      "##u)": 7060,
      "##jʊŋ": 7061,
      "##bl̩\n": 7062,
      "##nb": 7063,
      "##æ)\n": 7064,
      "##ɑu̯": 7065,
      "##yˌ": 7066,
      "##ɒk\n": 7067,
      "##ɨg": 7068,
      "##ɨĩ̯": 7069,
      "##, val": 7070,
      "##iːʹ": 7071,
      "##iːrɛs": 7072,
      "##uːʒ": 7073,
      "##, ʹʒ": 7074,
      "##stər": 7075,
      "##ənsən": 7076,
      "##iʹɣ": 7077,
      "##ɪn ˌ": 7078,
      "##kɔu̯": 7079,
      "ʹbyː": 7080,
      "ʹbɛnd": 7081,
      "ʹboːd": 7082,
      "##jɛʦ\n": 7083,
      "##rɔst": 7084,
      "ʹhaː": 7085,
      "ʹhuː": 7086,
      "##rɛb": 7087,
      "##, mɑːrk\n": 7088,
      "##ɪŋ, ˌ": 7089,
      "ʹsanʧɛs": 7090,
      "ʹʃk": 7091,
      "ʹdɒn": 7092,
      "ʹta͜u": 7093,
      "##ɛsə\n": 7094,
      "##, ˌmɑːk\n": 7095,
      "##liz": 7096,
      "##aʹliːn": 7097,
      "##in, ": 7098,
      "## baɪ": 7099,
      "ʹziːg": 7100,
      "##ɛft": 7101,
      "##res": 7102,
      "##vid\n": 7103,
      "##o̯aːz\n": 7104,
      "##ʊld": 7105,
      "##ʊlf\n": 7106,
      "##ɝːd": 7107,
      "##, fræŋk\n": 7108,
      "## de ʹ": 7109,
      "##eːlɪs": 7110,
      "##ɐ, p": 7111,
      "##, ˌfeːlɪks\n": 7112,
      "##ndɔrf": 7113,
      "##riʹd": 7114,
      "##i, ʹs": 7115,
      "##kəm\n": 7116,
      "##, lu̯i\n": 7117,
      "ˌmɪs": 7118,
      "##iʹmeːn": 7119,
      "##, tjɛˌri\n": 7120,
      "##jeːm": 7121,
      "##, anʹd": 7122,
      "##, nɪk\n": 7123,
      "##ɛʹriː": 7124,
      "ʹrɔb": 7125,
      "##, ʹʤɛr": 7126,
      "##ski, ˌp": 7127,
      "##aŋgo\n": 7128,
      "##œln\n": 7129,
      "ʹraːm": 7130,
      "##nɪʹv": 7131,
      "##, ˌʤɒni\n": 7132,
      "## am ʹ": 7133,
      "##oˌdriːg": 7134,
      "##eˌbast": 7135,
      "##a, xoˌs": 7136,
      "##ysˌt": 7137,
      "##iːzabɛt": 7138,
      "##anʹdreːas\n": 7139,
      "##ɛrdinant\n": 7140,
      "fɛrʹnandɛs": 7141,
      "##tfɔ": 7142,
      "bɔʹ": 7143,
      "kaˌ": 7144,
      "kəʹn": 7145,
      "kamp": 7146,
      "maˌ": 7147,
      "siʹn": 7148,
      "tre": 7149,
      "vɔlf": 7150,
      "ʹɔf": 7151,
      "ʹɔːɫ": 7152,
      "ʹeːb": 7153,
      "##a, ʹk": 7154,
      "##ʧak": 7155,
      "##iu̯)\n": 7156,
      "##sʹh": 7157,
      "##m)\n": 7158,
      "##ɔdɔr": 7159,
      "##us\n": 7160,
      "##ɪən\n": 7161,
      "##o, ˌl": 7162,
      "##jal": 7163,
      "##ɐʦ": 7164,
      "##ɐs\n": 7165,
      "##ɐ ʹm": 7166,
      "##est": 7167,
      "##e k": 7168,
      "##waŋ": 7169,
      "##fəd\n": 7170,
      "##͜ç": 7171,
      "##ʔak": 7172,
      "##iː s": 7173,
      "##, ʹana\n": 7174,
      "##ɛra\n": 7175,
      "##alʹv": 7176,
      "##ɛlʹm": 7177,
      "##rɪb": 7178,
      "ʹbɪʃ": 7179,
      "##ɔrʃ": 7180,
      "ʹkæl": 7181,
      "##u̯ən": 7182,
      "## da\n": 7183,
      "##oʊm\n": 7184,
      "##jɛg": 7185,
      "ʹmɛd": 7186,
      "##rɔˌ": 7187,
      "##rɔz": 7188,
      "##rɔʹn": 7189,
      "##rib": 7190,
      "##rɛŋ": 7191,
      "##, mɑːk\n": 7192,
      "## fa͜u": 7193,
      "ʹsɪt": 7194,
      "##atʹt": 7195,
      "ʹfoː": 7196,
      "##ɛːa\n": 7197,
      "##n̩b": 7198,
      "##a al": 7199,
      "##juːd": 7200,
      "##eˌɔrg": 7201,
      "ʹroʊ": 7202,
      "##, ˌdmɪtri": 7203,
      "ʹzeː": 7204,
      "##a͜ins\n": 7205,
      "##ɛfski, ": 7206,
      "##aːda (": 7207,
      "##, saˌ": 7208,
      "al ʹk": 7209,
      "##əˌz": 7210,
      "## fɔn m": 7211,
      "## fɔn k": 7212,
      "## fɔn ʹh": 7213,
      "## fɔn ʹz": 7214,
      "ʹjoːn": 7215,
      "##ʹkɔl": 7216,
      "##ikʊs\n": 7217,
      "##rət": 7218,
      "##i ʃ": 7219,
      "##ranʦ\n": 7220,
      "##, ʒɔrʒ\n": 7221,
      "##i (ˌ": 7222,
      "##, ʤoʊ\n": 7223,
      "##oli\n": 7224,
      "##, ʹkæθ": 7225,
      "##, ʹkɛvɪn\n": 7226,
      "##aːki\n": 7227,
      "##), p": 7228,
      "##aːgn": 7229,
      "##i, ʹg": 7230,
      "##aʊɚd\n": 7231,
      "##, leˌ": 7232,
      "##oːmin": 7233,
      "##, bɔˌriːs": 7234,
      "##aːsloː\n": 7235,
      "##, toˌbiːas\n": 7236,
      "##bɛrk                                       \n": 7237,
      "##bax                                         \n": 7238,
      "##, ʹdɛnɪs\n": 7239,
      "lə p": 7240,
      "karʹt": 7241,
      "##ʌmp": 7242,
      "## ˌgeː\n": 7243,
      "##oːko\n": 7244,
      "##rɪns": 7245,
      "##, ãˌt": 7246,
      "##ænsi\n": 7247,
      "ʹhɛrman": 7248,
      "##)                    \n": 7249,
      "ʹa͜uf": 7250,
      "##wɜːθ": 7251,
      "##byː\n": 7252,
      "##               \n": 7253,
      "##, ˌtɔmaːʃ\n": 7254,
      "##jaʧɛs": 7255,
      "aˌl": 7256,
      "fɔn": 7257,
      "gaʹ": 7258,
      "graːf": 7259,
      "kɔt": 7260,
      "lar": 7261,
      "mɪn": 7262,
      "maʹg": 7263,
      "meʹn": 7264,
      "paʹp": 7265,
      "pɔʹt": 7266,
      "rad": 7267,
      "viʹl": 7268,
      "zaʹl": 7269,
      "ɪnd": 7270,
      "ʧɛn": 7271,
      "ʹɛ": 7272,
      "ʹæt": 7273,
      "ʹraːt": 7274,
      "ˌan": 7275,
      "##a, ˌʤ": 7276,
      "##a ˌk": 7277,
      "##a                                   \n": 7278,
      "##ia)\n": 7279,
      "##i (ʹb": 7280,
      "## oʊ": 7281,
      "##rø": 7282,
      "##rʊs\n": 7283,
      "##ə, ˌd": 7284,
      "##dan": 7285,
      "##oʦ": 7286,
      "##ond": 7287,
      "##o (ʹk": 7288,
      "##(ə)": 7289,
      "##jeːd": 7290,
      "##æh": 7291,
      "##ækə": 7292,
      "##ɫɪ": 7293,
      "##wɝː": 7294,
      "##z, ": 7295,
      "##.z": 7296,
      "##x)\n": 7297,
      "##ɚ, ˌd": 7298,
      "##ɚ, ˌɫ": 7299,
      "##iːjɛf\n": 7300,
      "##i̯at": 7301,
      "##arn\n": 7302,
      "##ɛrst": 7303,
      "##ɛrə\n": 7304,
      "##ənʹd": 7305,
      "##əndɔrf": 7306,
      "##ɛnkɔ": 7307,
      "##ra ": 7308,
      "ʹbɔt": 7309,
      "##eɪʃ": 7310,
      "##ɔnz": 7311,
      "ʹks": 7312,
      "ʹkœ": 7313,
      "##ɑːʂ": 7314,
      "##jɛʹp": 7315,
      "##jɛk)\n": 7316,
      "ʹmand": 7317,
      "ʹmɪd": 7318,
      "##a͜ust": 7319,
      "##iːn, ˌ": 7320,
      "ʹgɔr": 7321,
      "ʹpat": 7322,
      "##ɪkəɫ": 7323,
      "ʹsiː": 7324,
      "ʹliːb": 7325,
      "ʹfal": 7326,
      "##i, r": 7327,
      "##lit": 7328,
      "##aːlɛks\n": 7329,
      "##ər)": 7330,
      "##, kaˌ": 7331,
      "alɛʹks": 7332,
      "##abˌd": 7333,
      "ʹjɛl": 7334,
      "##ɔva, ʹ": 7335,
      "##, ˌhæri\n": 7336,
      "##, ˌluːka\n": 7337,
      "##ɐ, ʹz": 7338,
      "##iːkfriːt\n": 7339,
      "##, ˌbarbara\n": 7340,
      "##iːva\n": 7341,
      "##ɪʧi\n": 7342,
      "ʹʧɛrn": 7343,
      "##riʹʃ": 7344,
      "##i, ʹb": 7345,
      "## (bɪɫ": 7346,
      "##aʊz": 7347,
      "##, ʹdmɪtri\n": 7348,
      "##ɐnˌt": 7349,
      "ʹrɔk": 7350,
      "##, ʹfriːdrɪç": 7351,
      "ʹskɒt": 7352,
      "kɔz": 7353,
      "##, ʃarl": 7354,
      "##, ˌrɒʤ": 7355,
      "##anʤɛi̯": 7356,
      "la f": 7357,
      "##ɑlɑ": 7358,
      "##, ˌmartiːn": 7359,
      "##, arˌt": 7360,
      "##)                \n": 7361,
      "##, maˌnu̯ɛl\n": 7362,
      "##ˌrin\n": 7363,
      "##, ˌvɪktoːɐ̯\n": 7364,
      "##riˌkardo\n": 7365,
      "aʹf": 7366,
      "boʊ": 7367,
      "bag": 7368,
      "daʹm": 7369,
      "dəʹv": 7370,
      "eɪ": 7371,
      "griːn": 7372,
      "jʌŋ": 7373,
      "kɔv": 7374,
      "mi": 7375,
      "mɛd": 7376,
      "mon": 7377,
      "manʹd": 7378,
      "oʹl": 7379,
      "prɛ": 7380,
      "pɛt": 7381,
      "rɔm": 7382,
      "sim": 7383,
      "vɪk": 7384,
      "ˌʃt": 7385,
      "##a ʹh": 7386,
      "##a, ʹj": 7387,
      "##iɛ̯": 7388,
      "##si": 7389,
      "##əw": 7390,
      "##ə                                        \n": 7391,
      "##uʎ": 7392,
      "##dj": 7393,
      "##jɛrn": 7394,
      "##ɐ d": 7395,
      "##ɐ, ˌd": 7396,
      "##ɐ ʹb": 7397,
      "##gən\n": 7398,
      "##vyːð": 7399,
      "##ɑd": 7400,
      "##ɒʃ\n": 7401,
      "##, ɛl": 7402,
      "##, ra": 7403,
      "##, ˌɪŋg": 7404,
      "## ʹʃtraːsə\n": 7405,
      "## ʹkɔː": 7406,
      "## ʹɔst\n": 7407,
      "##aʹman": 7408,
      "##anʦ\n": 7409,
      "##i̯eːla\n": 7410,
      "##arç": 7411,
      "##oːp\n": 7412,
      "## ˌrɒ": 7413,
      "##eɪtən": 7414,
      "##ɔnʹd": 7415,
      "ʹkant": 7416,
      "##u̯i (": 7417,
      "##ʹlaːn": 7418,
      "##jɛʹb": 7419,
      "##jɛvɪʧ\n": 7420,
      "ʹmuː": 7421,
      "ʹmaɪ": 7422,
      "ʹhɛk": 7423,
      "ʹhaːz": 7424,
      "##ako\n": 7425,
      "##raːʃ": 7426,
      "##n̩s": 7427,
      "##a (ʧ": 7428,
      "##ɔf (": 7429,
      "##yːɐ̯\n": 7430,
      "##roʹl": 7431,
      "## kaʹn": 7432,
      "##eˌk": 7433,
      "##, ˌʤɔːʤ\n": 7434,
      "ʹreːg": 7435,
      "##bra\n": 7436,
      "##iːli̯o\n": 7437,
      "## pr": 7438,
      "##, sɝː": 7439,
      "##o̯aʹj": 7440,
      "al b": 7441,
      "##o, r": 7442,
      "##roːp": 7443,
      "##ɛnto\n": 7444,
      "##ˌno\n": 7445,
      "## gu̯": 7446,
      "##ɪʦɪn\n": 7447,
      "##reɪv": 7448,
      "##oʹriːn": 7449,
      "##rɒm": 7450,
      "##aʦi̯oʹn": 7451,
      "##aːva\n": 7452,
      "arʹk": 7453,
      "##ɐnʹt": 7454,
      "leʹv": 7455,
      "##ɒməs\n": 7456,
      "##rɔ͜yt": 7457,
      "##rafaˌ": 7458,
      "##, ˌjuːri": 7459,
      "##iʦɛ\n": 7460,
      "##)         \n": 7461,
      "##rɪʃə\n": 7462,
      "məʹkɫ": 7463,
      "## ˌwɪɫjəm\n": 7464,
      "##a͜iç\n": 7465,
      "## ãˌsãː": 7466,
      "##vɪkʹt": 7467,
      "##ɛrviːn\n": 7468,
      "##, ɔliˌvje\n": 7469,
      "##, ʹtɔməs\n": 7470,
      "##, ˌælən\n": 7471,
      "##eˌdu̯aːr\n": 7472,
      "##, joʹhanəs\n": 7473,
      "bi": 7474,
      "bɛk": 7475,
      "bʊrk": 7476,
      "dəl": 7477,
      "daʹv": 7478,
      "fal": 7479,
      "kʊ": 7480,
      "kuʹt": 7481,
      "kʊz": 7482,
      "kɔsʹt": 7483,
      "mɔʹr": 7484,
      "peʹ": 7485,
      "piʹn": 7486,
      "vɔr": 7487,
      "vɛst": 7488,
      "zaʹb": 7489,
      "ʹiːg": 7490,
      "ʹeːg": 7491,
      "##avɪl": 7492,
      "##ʹɛk": 7493,
      "##iʃt": 7494,
      "##ɛɲ": 7495,
      "##ran\n": 7496,
      "##rɒn": 7497,
      "##lʊnt": 7498,
      "##uʤ": 7499,
      "##jɔr": 7500,
      "##jɛnt": 7501,
      "##jɔk": 7502,
      "##hɛr": 7503,
      "##ɐ ʹp": 7504,
      "##ɐr)\n": 7505,
      "##e b": 7506,
      "##iːw": 7507,
      "##aʹro": 7508,
      "##an (ʹ": 7509,
      "##eːɔn": 7510,
      "##eːm\n": 7511,
      "##i̯)\n": 7512,
      "##i̯aːd": 7513,
      "##i̯aːk": 7514,
      "##uːθ": 7515,
      "##a͜iʹs": 7516,
      "##iʹri": 7517,
      "ʹban": 7518,
      "##ɔrʹm": 7519,
      "ʹkɛm": 7520,
      "ʹkæm": 7521,
      "ʹkɛmp": 7522,
      "##ɑːtə": 7523,
      "##u̯ɛrt": 7524,
      "ʹmɔnt": 7525,
      "##aːnu̯eːl\n": 7526,
      "##ɪldə\n": 7527,
      "##ʹkjɛvɪʧ": 7528,
      "ʹgu̯": 7529,
      "ʹʃiː": 7530,
      "ʹfræŋk": 7531,
      "ʹdɔn": 7532,
      "ʹdiːt": 7533,
      "ʹteɪɫ": 7534,
      "##ɛsʹp": 7535,
      "##, ˌmanfreːt\n": 7536,
      "##, ˌkɛn": 7537,
      "##oˌk": 7538,
      "##juːs": 7539,
      "##niʦ": 7540,
      "##ələ": 7541,
      "##ərən": 7542,
      "##ɪmfən": 7543,
      "##dək": 7544,
      "##o̯a, ": 7545,
      "ʹwɔːl": 7546,
      "##o (d": 7547,
      "##ə ð": 7548,
      "##, ˌhɛrman\n": 7549,
      "##iʹna\n": 7550,
      "##ɔks\n": 7551,
      "##ʊʃk": 7552,
      "##aʊd": 7553,
      "##astaˌs": 7554,
      "## vɑn": 7555,
      "##uːdo\n": 7556,
      "##ou̯r": 7557,
      "##aʧ\n": 7558,
      "ʹbrand": 7559,
      "##arnə\n": 7560,
      "##a maˌriː": 7561,
      "##a maˌriːa\n": 7562,
      "##̃ː\n": 7563,
      "##a͜ilɐ\n": 7564,
      "##edeˌriː": 7565,
      "##aɪld": 7566,
      "##iʃɛk": 7567,
      "##eɪsi\n": 7568,
      "##ɑːθə\n": 7569,
      "##eliz": 7570,
      "##anʤelo\n": 7571,
      "##ɛnˌriːk": 7572,
      "##igɐrj)\n": 7573,
      "##jœrtç": 7574,
      "beʹn": 7575,
      "kn": 7576,
      "karl": 7577,
      "laʹb": 7578,
      "mæn": 7579,
      "noʊ": 7580,
      "pɔm": 7581,
      "pav": 7582,
      "reʹ": 7583,
      "raz": 7584,
      "sab": 7585,
      "taʹl": 7586,
      "ʹæm": 7587,
      "##ai": 7588,
      "##a, ʹl": 7589,
      "##ʧt": 7590,
      "##kk": 7591,
      "##mɛd)\n": 7592,
      "##ʊ̯": 7593,
      "##lɪ": 7594,
      "##leʹ": 7595,
      "##u (ʹ": 7596,
      "##und": 7597,
      "##o ˌ": 7598,
      "##nɔ\n": 7599,
      "##ɫ̩": 7600,
      "##ɫoʊ": 7601,
      "##gɪn\n": 7602,
      "##e ʹm": 7603,
      "##œnd": 7604,
      "##vɔ": 7605,
      "##vlaʹd": 7606,
      "##pəˌreɪ": 7607,
      "##ɚn": 7608,
      "##ʌs\n": 7609,
      "##ʌŋg": 7610,
      "##çən": 7611,
      "##iːʦi̯": 7612,
      "##anɛn": 7613,
      "##anʹʤ": 7614,
      "##, ʹɛl": 7615,
      "## ˌθ": 7616,
      "##kɔt\n": 7617,
      "ʹbaːb": 7618,
      "##ʹtiːn\n": 7619,
      "ʹkæ": 7620,
      "ʹkʊk": 7621,
      "##ɑːʧ": 7622,
      "##laʃ": 7623,
      "##laɪn\n": 7624,
      "##laɪnz\n": 7625,
      "ʹmʏlɐ": 7626,
      "##aːn (": 7627,
      "##a͜uʹr": 7628,
      "ʹhoʊm": 7629,
      "##ʹks": 7630,
      "ʹpɛn": 7631,
      "##ɪsə\n": 7632,
      "##aŋn": 7633,
      "##, ˌkla͜udi̯a\n": 7634,
      "ʹnak": 7635,
      "##ɛi̯f": 7636,
      "##ɔsp": 7637,
      "##aʹni\n": 7638,
      "ʹzɛl": 7639,
      "##ɛ̃ʹs": 7640,
      "##dəʹl": 7641,
      "##re̯": 7642,
      "##ʹhuːz": 7643,
      "##ɪʃɛf\n": 7644,
      "##ʹjeː": 7645,
      "##ɑːr)\n": 7646,
      "## fɔn ʹt": 7647,
      "##ʊlʹt": 7648,
      "## ʹpeː\n": 7649,
      "##, ˌluːk": 7650,
      "##rəʹt": 7651,
      "##eːli̯ʊs": 7652,
      "##reɪn\n": 7653,
      "##aːmi\n": 7654,
      "##jaz": 7655,
      "##uːtɪn\n": 7656,
      "##, bɪl\n": 7657,
      "##oːza\n": 7658,
      "##a, ˌx": 7659,
      "##loːstɐ": 7660,
      "##o x": 7661,
      "ləʹb": 7662,
      "##, marʹsɛl\n": 7663,
      "ʹbrant": 7664,
      "##nikoˌ": 7665,
      "##, ʹgeːɔrk\n": 7666,
      "##ɔːni̯o": 7667,
      "##fɛld": 7668,
      "## jɔŋ": 7669,
      "##ʹkɔfski, ": 7670,
      "maʹʦ": 7671,
      "##, ãˌdre\n": 7672,
      "##i̯ɛːri": 7673,
      "##, ˌxɔrxe\n": 7674,
      "##anʧtraːsə\n": 7675,
      "##sdou̯tiːɐ̯": 7676,
      "##ʃpɪʦə\n": 7677,
      "##anˌdrɛːa\n": 7678,
      "##, ʹrɪʧəd\n": 7679,
      "##ɔktoːɐ̯": 7680,
      "##ʹkɪrçən\n": 7681,
      "##ɐ, ʹkrɪst": 7682,
      "##eːməns\n": 7683,
      "##kɔnstanˌtiːn": 7684,
      "asʹt": 7685,
      "baˌ": 7686,
      "bre": 7687,
      "barb": 7688,
      "ge": 7689,
      "iz": 7690,
      "la ʹ": 7691,
      "li̯u": 7692,
      "luʹk": 7693,
      "miʹʃ": 7694,
      "ruʹb": 7695,
      "æbə": 7696,
      "ɔn": 7697,
      "ɔʹl": 7698,
      "ɔsʹt": 7699,
      "ʃɛr": 7700,
      "##ʹʨ": 7701,
      "##i                                        \n": 7702,
      "##i ʹn": 7703,
      "##i ʹv": 7704,
      "##sbɛrk\n": 7705,
      "##mi\n": 7706,
      "## eː": 7707,
      "## rɔ": 7708,
      "##ruʹ": 7709,
      "##ɔɫ": 7710,
      "##ɔˌt": 7711,
      "##ɔˌs": 7712,
      "##uð": 7713,
      "##uri": 7714,
      "##ɪˌs": 7715,
      "##ɪˌv": 7716,
      "##o (ʹb": 7717,
      "##jʊl": 7718,
      "##ba\n": 7719,
      "##ærɪs": 7720,
      "##ɫæk": 7721,
      "##wiːn": 7722,
      "##wɪk": 7723,
      "##fɚd": 7724,
      "##.s": 7725,
      "##ʔɛk": 7726,
      "##ɨʦ": 7727,
      "##ʎa)\n": 7728,
      "##aːʹm": 7729,
      "## ʹruː": 7730,
      "##ĩ̯": 7731,
      "##i̯ak": 7732,
      "##oː)\n": 7733,
      "##, ʹbr": 7734,
      "##a͜i (": 7735,
      "##a͜is\n": 7736,
      "##raʤ": 7737,
      "ʹbiːl": 7738,
      "ʹbroː": 7739,
      "ʹbɛɫ": 7740,
      "##ʹlɔf\n": 7741,
      "##ʹnjɔf\n": 7742,
      "##lag": 7743,
      "ʹmoː": 7744,
      "##ʹdɛl": 7745,
      "ʹhɛlm": 7746,
      "ʹgriː": 7747,
      "ʹgøː": 7748,
      "ʹgrɪf": 7749,
      "##ɪŋka\n": 7750,
      "##ɪkɐt": 7751,
      "ʹfloː": 7752,
      "ʹfriːt": 7753,
      "ʹtɛl": 7754,
      "##ɛːn\n": 7755,
      "ʹviːz": 7756,
      "##a (ˌm": 7757,
      "ʹnɛs": 7758,
      "##ɛi̯ʃ": 7759,
      "##ələs\n": 7760,
      "ʹziːk": 7761,
      "##iːli̯": 7762,
      "##anta\n": 7763,
      "##ks)\n": 7764,
      "##dəb": 7765,
      "##manfreːt\n": 7766,
      "##o̯aʹ": 7767,
      "al h": 7768,
      "al ʃ": 7769,
      "##ɔːrəns": 7770,
      "##aʃʃ": 7771,
      "##, ʹmaːri̯o\n": 7772,
      "##rəʹd": 7773,
      "##, ʤæk\n": 7774,
      "## gruːp\n": 7775,
      "##ændrə\n": 7776,
      "##, maˌri\n": 7777,
      "## (ˌh": 7778,
      "##toʹb": 7779,
      "ʹʃtɛf": 7780,
      "##ɛndə\n": 7781,
      "##õʹs": 7782,
      "## haː": 7783,
      "##, ʹhɛrman\n": 7784,
      "lə m": 7785,
      "## al ʹ": 7786,
      "##nikoˌl": 7787,
      "##, ʹgeːɐ̯hart\n": 7788,
      "##uːba\n": 7789,
      "##eːzə\n": 7790,
      "## ˌgruːp\n": 7791,
      "##, ˌʃarl\n": 7792,
      "ʹbluːm": 7793,
      "##rat)\n": 7794,
      "##iʃɛk)\n": 7795,
      "ʹgryːn": 7796,
      "ɔrʹkɛst": 7797,
      "##aɲɲ": 7798,
      "##skaja": 7799,
      "##hɔrst\n": 7800,
      "##la͜udi̯o\n": 7801,
      "##eˌreːz": 7802,
      "##ʌgɫ": 7803,
      "##, ˌjoːnas\n": 7804,
      "##jenij)\n": 7805,
      "##ɛˌxandro\n": 7806,
      "dam": 7807,
      "fɪl": 7808,
      "gɔʹl": 7809,
      "joʹhan": 7810,
      "kã": 7811,
      "maʹʃ": 7812,
      "oʹk": 7813,
      "pe": 7814,
      "rɔk": 7815,
      "sɛm": 7816,
      "sav": 7817,
      "vɪʃ": 7818,
      "ɪʃ": 7819,
      "ʃaˌto": 7820,
      "ʹʊn": 7821,
      "ʹaf": 7822,
      "ʹaːz": 7823,
      "ʹrɪŋ": 7824,
      "##ir\n": 7825,
      "##i ʹh": 7826,
      "##i (ʹm": 7827,
      "##ɛvi": 7828,
      "##muːt\n": 7829,
      "## ʃtraːsə\n": 7830,
      "##ə                                         \n": 7831,
      "##uˑ": 7832,
      "##u s": 7833,
      "##u ʹm": 7834,
      "##ɪʣ": 7835,
      "##oʹʧ": 7836,
      "##o ð": 7837,
      "##), ʤ": 7838,
      "##n                                         \n": 7839,
      "##nɪs\n": 7840,
      "##ɐ, ˌk": 7841,
      "##pas\n": 7842,
      "##ʔɛk\n": 7843,
      "##ʏk\n": 7844,
      "##, rɪ": 7845,
      "##, ˌvaltɐ\n": 7846,
      "##uːa\n": 7847,
      "##oːrɪs": 7848,
      "##, ʹruːdɔlf\n": 7849,
      "##ɛrn\n": 7850,
      "## (ʹʦ": 7851,
      "##kɔʃ": 7852,
      "##rɪ\n": 7853,
      "ʹbaː": 7854,
      "ʹbaːt": 7855,
      "##eɪʒ": 7856,
      "ʹkiːn": 7857,
      "##oʊp\n": 7858,
      "##jɛʹʧ": 7859,
      "ʹmɒ": 7860,
      "ʹhak": 7861,
      "##rɛŋk": 7862,
      "##asan": 7863,
      "ʹgɔlt": 7864,
      "ʹgoʊɫd": 7865,
      "ʹsaː": 7866,
      "ʹlyː": 7867,
      "ʹdɛn": 7868,
      "ʹdɛk": 7869,
      "##ʹgjej)\n": 7870,
      "ʹvɪn": 7871,
      "ʹvɛs": 7872,
      "##lim": 7873,
      "##ɛi̯ʹt": 7874,
      "##, ˌʤeɪsən\n": 7875,
      "##, ˌʤɛfri\n": 7876,
      "##ante\n": 7877,
      "##, siˌm": 7878,
      "##ɪʃə ʹ": 7879,
      "##ɪʃəs": 7880,
      "##aʃ)\n": 7881,
      "ʹjaːn": 7882,
      "ʹjʊŋ": 7883,
      "##ə h": 7884,
      "##ilˌj": 7885,
      "##iːmo\n": 7886,
      "##iːmɔf\n": 7887,
      "##eʹð": 7888,
      "ʹkɔs": 7889,
      "##i (t": 7890,
      "##, ˌfræŋk\n": 7891,
      "##, ʹkat": 7892,
      "##, ˌgeːɐ̯hart\n": 7893,
      "##tom": 7894,
      "##ɛndrɪk\n": 7895,
      "##eʹliːn": 7896,
      "##ʏrʦ": 7897,
      "##uːd)\n": 7898,
      "##ɑnn": 7899,
      "##rɔslaf\n": 7900,
      "##lɐˌd": 7901,
      "##uʹti̯ɛr": 7902,
      "##ɔskar": 7903,
      "##ʌndən": 7904,
      "##reːdo\n": 7905,
      "##, ʹkarlɔs\n": 7906,
      "##ẽnt": 7907,
      "##, ˌra͜inɐ\n": 7908,
      "##, margaˌ": 7909,
      "##jeːtɔf\n": 7910,
      "##, ˌsæmjʊ": 7911,
      "bu̯": 7912,
      "bart": 7913,
      "bɛrn": 7914,
      "baʹj": 7915,
      "diʹ": 7916,
      "dʌn": 7917,
      "fr": 7918,
      "it": 7919,
      "iʹz": 7920,
      "mɛl": 7921,
      "miʹk": 7922,
      "muʹs": 7923,
      "paʹn": 7924,
      "pɔʹp": 7925,
      "sak": 7926,
      "tuʹr": 7927,
      "viʹd": 7928,
      "ʹrɪt": 7929,
      "ˌab": 7930,
      "##aʣə": 7931,
      "##i                                       \n": 7932,
      "##mʊs": 7933,
      "##ʊə\n": 7934,
      "## aʹm": 7935,
      "## ju": 7936,
      "##ə t": 7937,
      "##uru": 7938,
      "##o v": 7939,
      "##ækt": 7940,
      "##hal": 7941,
      "##vas": 7942,
      "##viːt": 7943,
      "##.f": 7944,
      "##ʏl\n": 7945,
      "##aːʦi̯": 7946,
      "##aʹu̯": 7947,
      "##aʹran": 7948,
      "##eːrə\n": 7949,
      "##i̯eːt": 7950,
      "##ɛrf": 7951,
      "##stiˌt": 7952,
      "##ɪn, ʹ": 7953,
      "##ɪnə\n": 7954,
      "## ˌx": 7955,
      "ʹbaʊ": 7956,
      "ʹblaŋk": 7957,
      "##ɔran\n": 7958,
      "##ɔn (": 7959,
      "## deː ʹ": 7960,
      "##ɔːk\n": 7961,
      "##lax\n": 7962,
      "ʹmʊr": 7963,
      "##aːni̯a\n": 7964,
      "##a͜uʹ": 7965,
      "ʹhat": 7966,
      "ʹhaːb": 7967,
      "ʹsɔl": 7968,
      "ʹʃɛf": 7969,
      "ʹfɛlt": 7970,
      "ʹdɛl": 7971,
      "ʹtɪl": 7972,
      "##ɛːri̯": 7973,
      "##aɪf": 7974,
      "##ʹvɛst": 7975,
      "##ɪsl": 7976,
      "##ɪsa\n": 7977,
      "##ʹgiː": 7978,
      "##aːrə\n": 7979,
      "##ʃtj)\n": 7980,
      "##, ˌkloːd\n": 7981,
      "##andɛs": 7982,
      "##oˌp": 7983,
      "##nikɔf": 7984,
      "##ɛi̯z": 7985,
      "##eˌp": 7986,
      "##eˌroː": 7987,
      "##, ˌdeɪv\n": 7988,
      "##ɛfsk": 7989,
      "##aːdi̯ɔn\n": 7990,
      "##re)\n": 7991,
      "##viə\n": 7992,
      "##abl": 7993,
      "##ɐ, ˌn": 7994,
      "##ɝːɫ\n": 7995,
      "##əs, ˌ": 7996,
      "##aʹdiː": 7997,
      "ʹjaːkɔp": 7998,
      "## de k": 7999,
      "##ilˌv": 8000,
      "##a (ʹf": 8001,
      "##, ˌbɛnjamiːn\n": 8002,
      "##ɐ, b": 8003,
      "##, ˌfɪɫ": 8004,
      "##, ˌfɔlkɐ\n": 8005,
      "##, ˌgeːɔrk\n": 8006,
      "##, ˌniːna\n": 8007,
      "##ɪgˌn": 8008,
      "##, pa͜ul": 8009,
      "ˌmɪst": 8010,
      "##ʹʦɔf": 8011,
      "##bax                                          \n": 8012,
      "##iːgoːɐ̯\n": 8013,
      "##aˌni\n": 8014,
      "##ʏrt": 8015,
      "##uːdi\n": 8016,
      "##rɪŋən\n": 8017,
      "##, ʹjoːzɛf": 8018,
      "karʹd": 8019,
      "ʹbrɛn": 8020,
      "##leoˌn": 8021,
      "##a de\n": 8022,
      "kɔʹm": 8023,
      "kɔʹr": 8024,
      "##aɪtɪd": 8025,
      "##oʹse\n": 8026,
      "akrɔʹt": 8027,
      "##, ãʹt": 8028,
      "##i, moˌham": 8029,
      "##jørd": 8030,
      "##rɪvɚ\n": 8031,
      "## kɔ̃": 8032,
      "glɛn": 8033,
      "##, krɪsˌtiːnə\n": 8034,
      "ʹba͜um": 8035,
      "ʹwɪɫsən": 8036,
      "##, ˌkrɪstəfɚ\n": 8037,
      "ãˌsãːbl": 8038,
      "##, sebasˌt": 8039,
      "##katɛˌriːn": 8040,
      "##, maksiˌmiːli̯aːn\n": 8041,
      "beː ": 8042,
      "bəʹn": 8043,
      "duː": 8044,
      "dɔl": 8045,
      "har": 8046,
      "kəʹl": 8047,
      "koʹm": 8048,
      "kasˌt": 8049,
      "me": 8050,
      "moʊ": 8051,
      "mel": 8052,
      "nas": 8053,
      "raʹb": 8054,
      "toʹm": 8055,
      "wʌn": 8056,
      "ʹaːt": 8057,
      "ʹad": 8058,
      "ʹɛnd": 8059,
      "##a                                    \n": 8060,
      "##ki)\n": 8061,
      "##ɛʹʤ": 8062,
      "## ɔː": 8063,
      "##lɛn\n": 8064,
      "##ɔɪz": 8065,
      "##əx": 8066,
      "##əkə": 8067,
      "##ʦi\n": 8068,
      "##u (k": 8069,
      "##o ʹb": 8070,
      "##jɔrt": 8071,
      "##jʌŋ": 8072,
      "##n, ": 8073,
      "##nʹt": 8074,
      "##n                                            \n": 8075,
      "##ˌlaf\n": 8076,
      "##ɐʹd": 8077,
      "##gas": 8078,
      "##.p": 8079,
      "##ɒʤ": 8080,
      "##ɚi\n": 8081,
      "##ʌʃ": 8082,
      "##ʌg\n": 8083,
      "##ɨʧ": 8084,
      "##̥l": 8085,
      "## ʹroː": 8086,
      "##anð": 8087,
      "##i̯ɔ": 8088,
      "##i̯al": 8089,
      "##uːrɪn\n": 8090,
      "##, ʹvaltɐ\n": 8091,
      "##ən, ": 8092,
      "##ənʃta͜in\n": 8093,
      "##iʹni": 8094,
      "##rað": 8095,
      "##raham": 8096,
      "ʹbaːd": 8097,
      "ʹbɔk": 8098,
      "ʹbra͜i": 8099,
      "ʹbrɔ͜y": 8100,
      "ʹbræd": 8101,
      "##eɪ ": 8102,
      "##eɪm\n": 8103,
      "##ɔrsk": 8104,
      "ʹkra": 8105,
      "ʹkriː": 8106,
      "ʹka͜u": 8107,
      "ʹmɪn": 8108,
      "ʹmɪʃ": 8109,
      "##rɔʹv": 8110,
      "##aːna (": 8111,
      "ʹhɔlʦ": 8112,
      "##rɛf": 8113,
      "##, maʹriːa\n": 8114,
      "ʹgruː": 8115,
      "ʹpɛl": 8116,
      "##ami\n": 8117,
      "## fʏnf": 8118,
      "ʹdiːas": 8119,
      "##aːrd": 8120,
      "##aːre\n": 8121,
      "##liʦ": 8122,
      "##rof": 8123,
      "##eˌv": 8124,
      "##əl ʹ": 8125,
      "## baˌt": 8126,
      "##øːs": 8127,
      "##aːtʊs\n": 8128,
      "##reːdə": 8129,
      "##antoːn\n": 8130,
      "##o̯a ": 8131,
      "##ɔtfriːt\n": 8132,
      "al s": 8133,
      "##ʹfl": 8134,
      "##ʹfɛld": 8135,
      "##ɜːf": 8136,
      "##, ˌpætrɪk\n": 8137,
      "## ʹsɪst": 8138,
      "ʹjɛn": 8139,
      "ʹjoːhan": 8140,
      "##ilj": 8141,
      "##ɛnte\n": 8142,
      "##ɐ, ʹb": 8143,
      "##ɛŋkɔf\n": 8144,
      "##reɪs": 8145,
      "##ʊks\n": 8146,
      "##ɔʹʤ": 8147,
      "##aʊt\n": 8148,
      "##, paʹt": 8149,
      "##əʹriː\n": 8150,
      "##ɑːnoʊ": 8151,
      "##bɛrk                                        \n": 8152,
      "##ɔʃi\n": 8153,
      "##ɪdni\n": 8154,
      "##ɐ ʹz": 8155,
      "##ærvi": 8156,
      "##ærəɫd\n": 8157,
      "##oːlə\n": 8158,
      "## də t": 8159,
      "##ei̯)\n": 8160,
      "##iːbn̩": 8161,
      "##, ʹjoːzɛf\n": 8162,
      "karʹp": 8163,
      "##rɪʧɚd\n": 8164,
      "##əntaːl\n": 8165,
      "##oːgə\n": 8166,
      "##jʊər": 8167,
      "##rãːs": 8168,
      "##aʊnd\n": 8169,
      "##oʹhamɛt\n": 8170,
      "##jɔtr̩\n": 8171,
      "##reːgoːɐ̯\n": 8172,
      "##ohaˌm": 8173,
      "##, karoˌl": 8174,
      "##ɐ ʹhʏtə\n": 8175,
      "##eːdu̯art": 8176,
      "naʹtuːɐ̯": 8177,
      "##rɛdərɪk\n": 8178,
      "##ɔminɪk\n": 8179,
      "## tɛkʹn": 8180,
      "bon": 8181,
      "dɔb": 8182,
      "dəʹm": 8183,
      "franʦ": 8184,
      "jaʹn": 8185,
      "kad": 8186,
      "kɔp": 8187,
      "laʹg": 8188,
      "max": 8189,
      "mah": 8190,
      "pɔrt": 8191,
      "sant": 8192,
      "tak": 8193,
      "taʹk": 8194,
      "uʹl": 8195,
      "uʹr": 8196,
      "ʊl": 8197,
      "ʹiːl": 8198,
      "ʹuːl": 8199,
      "##aj)\n": 8200,
      "##a fɔn ʹ": 8201,
      "##iɣ": 8202,
      "##ɛʎ": 8203,
      "##ɛəri\n": 8204,
      "##sa)\n": 8205,
      "## ...": 8206,
      "##ʃv": 8207,
      "##rænd": 8208,
      "##raʹv": 8209,
      "##ɔɪn": 8210,
      "##ək\n": 8211,
      "##u, s": 8212,
      "##o                                       \n": 8213,
      "##), ˌs": 8214,
      "##jɔl": 8215,
      "##bɪn": 8216,
      "##gar\n": 8217,
      "##e, m": 8218,
      "##œj": 8219,
      "##z, ˌ": 8220,
      "##yʹd": 8221,
      "##ɚ)\n": 8222,
      "##ʌd\n": 8223,
      "##ʨin)\n": 8224,
      "##, aˌd": 8225,
      "##uːʹ": 8226,
      "##uːɫ\n": 8227,
      "##oːrɪʦ\n": 8228,
      "##a͜iʹn": 8229,
      "##ɛrʒ": 8230,
      "##ənʹt": 8231,
      "##ənbʊrk\n": 8232,
      "##iʹraː": 8233,
      "## ˌbl": 8234,
      "##ɛnə\n": 8235,
      "ʹbat": 8236,
      "ʹki̯": 8237,
      "ʹkaːm": 8238,
      "ʹkʊʃ": 8239,
      "##ɑːlə": 8240,
      "##oʊəɫ\n": 8241,
      "ʹmiː": 8242,
      "ʹmæθ": 8243,
      "##aːni, ˌ": 8244,
      "##iːnʊs\n": 8245,
      "##rɛʹn": 8246,
      "ʹpɪk": 8247,
      "ʹpɔrt": 8248,
      "ʹsɔb": 8249,
      "ʹʃɪl": 8250,
      "ʹloː": 8251,
      "##ɛːb": 8252,
      "##aɪət": 8253,
      "##ɛkˌt": 8254,
      "##ɪsˌt": 8255,
      "ʹviːs": 8256,
      "ʹveːb": 8257,
      "##lika\n": 8258,
      "##roʹbɛrto\n": 8259,
      "##øːrən": 8260,
      "ʹzɔn": 8261,
      "##iːlɪn\n": 8262,
      "##ɔ̃ʹb": 8263,
      "al k": 8264,
      "##eːni̯a\n": 8265,
      "##ri̯an\n": 8266,
      "##iːmɔf": 8267,
      "##, ˌla͜ura\n": 8268,
      "##ik)\n": 8269,
      "##ɐ, ʹd": 8270,
      "ʹkɔz": 8271,
      "##aːba\n": 8272,
      "##, ˌfrant": 8273,
      "##rud": 8274,
      "## (kar": 8275,
      "## ʹval": 8276,
      "##i, ʹh": 8277,
      "##, diʹm": 8278,
      "##uːta\n": 8279,
      "##ra͜iz": 8280,
      "##əʹri": 8281,
      "##el)\n": 8282,
      "##jub": 8283,
      "##juʃ)\n": 8284,
      "##ærəl": 8285,
      "##ei̯ru": 8286,
      "## əv ʹm": 8287,
      "## ʹwʌn\n": 8288,
      "##, ʹgʏntɐ\n": 8289,
      "##œːɐ̯": 8290,
      "##ijɐ)\n": 8291,
      "##ʹkɔfski, ˌ": 8292,
      "##, ãʹd": 8293,
      "##ɔʧkɪn\n": 8294,
      "##ɔʹseː\n": 8295,
      "##, krɪsʹtiːn": 8296,
      "##eɪdri": 8297,
      "##ao̯\n": 8298,
      "məkʹm": 8299,
      "##vɛrz": 8300,
      "##aɪɫd": 8301,
      "##, ʹrɪʧɚd\n": 8302,
      "##jeːnɪn\n": 8303,
      "##ɑːrθɚ\n": 8304,
      "##, fredeˌrik\n": 8305,
      "##, sɛrˌhiː\n": 8306,
      "##, ˌgreɪəm\n": 8307,
      "ʹkæmbəɫ": 8308,
      "biː": 8309,
      "dal": 8310,
      "dem": 8311,
      "deʹm": 8312,
      "iʹ": 8313,
      "jar": 8314,
      "kle": 8315,
      "mam": 8316,
      "meʹl": 8317,
      "moʹn": 8318,
      "oʹt": 8319,
      "riʹb": 8320,
      "triʹ": 8321,
      "teˌaːt": 8322,
      "zaʹm": 8323,
      "ʃax": 8324,
      "ʊm": 8325,
      "ʧɛr": 8326,
      "ˌiːz": 8327,
      "ˌrɔɪ": 8328,
      "ˌabu": 8329,
      "##aɪl\n": 8330,
      "##ʹvɪ": 8331,
      "##i (ʹs": 8332,
      "##kn": 8333,
      "##ɛviʨ": 8334,
      "##mɛn": 8335,
      "##ʊʹl": 8336,
      "## ʨ": 8337,
      "##ɔrɪn\n": 8338,
      "##ɔviʦ": 8339,
      "##ə ˌm": 8340,
      "##ul\n": 8341,
      "##u, ʒ": 8342,
      "##ori̯": 8343,
      "##o (ʹm": 8344,
      "##(ə)\n": 8345,
      "##ɐʹt": 8346,
      "##œɐ̯": 8347,
      "##p)\n": 8348,
      "##ysʹt": 8349,
      "##ɚmən": 8350,
      "##ɚ, ˌb": 8351,
      "##, ˌvɪ": 8352,
      "##aːð": 8353,
      "##aːʦ\n": 8354,
      "##ansk": 8355,
      "##i̯aːt": 8356,
      "##i̯ɛ\n": 8357,
      "##i̯aʦ": 8358,
      "##, ʹjan": 8359,
      "##, ʹændruː\n": 8360,
      "##ɛrʃ": 8361,
      "##iʹβ": 8362,
      "##ɛlt\n": 8363,
      "##a͜i ": 8364,
      "##rɪtə\n": 8365,
      "ʹbɪt": 8366,
      "ʹbeɪɫ": 8367,
      "ʹbʌt": 8368,
      "ʹkɛs": 8369,
      "##ɔːsən": 8370,
      "##last": 8371,
      "ʹmaːn": 8372,
      "ʹmeːd": 8373,
      "ʹmoːz": 8374,
      "##rɔŋ": 8375,
      "##rɔl\n": 8376,
      "##a͜uʹl": 8377,
      "ʹhaːd": 8378,
      "ʹgrɛː": 8379,
      "ʹgraːf": 8380,
      "##ã, ": 8381,
      "ʹsɛl": 8382,
      "ʹʃɛl": 8383,
      "##ati\n": 8384,
      "ʹfiːl": 8385,
      "ʹfriːdrɪç": 8386,
      "##ʹgaːd": 8387,
      "##ʊnʹd": 8388,
      "##a (n": 8389,
      "##a x": 8390,
      "##, ˌkeɪt\n": 8391,
      "ʹnaɪt": 8392,
      "##aːlɪs": 8393,
      "##eˌr": 8394,
      "##, ˌʤeɪn\n": 8395,
      "ʹreɪ": 8396,
      "##øːk": 8397,
      "##ɛm)\n": 8398,
      "## san": 8399,
      "## ʹmart": 8400,
      "ʹzɛm": 8401,
      "ʹzɪm": 8402,
      "## ʹkarl": 8403,
      "##iːli\n": 8404,
      "##iːlə\n": 8405,
      "##ɪmjɛʃ": 8406,
      "ʹwɔː": 8407,
      "ʹwɛɫ": 8408,
      "##, ˌteːodoːɐ̯\n": 8409,
      "ʹjam": 8410,
      "## de ʹm": 8411,
      "## de p": 8412,
      "##ˌlje": 8413,
      "##ˌlaːk\n": 8414,
      "##iːde": 8415,
      "##apd": 8416,
      "##ɪɫtən": 8417,
      "##, ˌhana\n": 8418,
      "##eʹʦ": 8419,
      "##ɐ, g": 8420,
      "##ɔŋʹk": 8421,
      "ʹʤɛn": 8422,
      "##), b": 8423,
      "##), g": 8424,
      "##ʊŋs": 8425,
      "##, ˌneɪθən\n": 8426,
      "##uˌʧ": 8427,
      "##oːma\n": 8428,
      "##oʹri": 8429,
      "##ena\n": 8430,
      "##, anaˌt": 8431,
      "##aːv\n": 8432,
      "## deːɐ̯ ʹz": 8433,
      "##roʊd": 8434,
      "##roʊv": 8435,
      "## ˌdeɪvɪd\n": 8436,
      "##irʒ": 8437,
      "##aʹfiː\n": 8438,
      "##uːma\n": 8439,
      "ʹlam": 8440,
      "##ɛi̯n)\n": 8441,
      "##, sɛrʹgeː\n": 8442,
      "##iˌlɪp": 8443,
      "##eːfa\n": 8444,
      "##hɔlʦ\n": 8445,
      "##aˌvi̯ɛr\n": 8446,
      "##aːʦlaf\n": 8447,
      "##ʹviːl                                        \n": 8448,
      "##freːt": 8449,
      "##ɪŋən                                         \n": 8450,
      "##, ʹrɔbɚt\n": 8451,
      "##ɛrɪkə\n": 8452,
      "##alɛʹksandɐ\n": 8453,
      "## ˌbrʌð": 8454,
      "ʹændɚsən": 8455,
      "##ɔjɛˌv": 8456,
      "##, diˌmiːt": 8457,
      "naʹtuːɐ̯park": 8458,
      "doʹm": 8459,
      "haʹl": 8460,
      "haʹn": 8461,
      "krɪsʹt": 8462,
      "lap": 8463,
      "pʃ": 8464,
      "pasʹk": 8465,
      "rɔʹs": 8466,
      "rɔʹb": 8467,
      "sul": 8468,
      "ɛi̯": 8469,
      "ɛst": 8470,
      "ʹʣ": 8471,
      "ʹɪnd": 8472,
      "ʹiːs": 8473,
      "ʹrɪk": 8474,
      "##avi": 8475,
      "##a                                \n": 8476,
      "##ʹriːt": 8477,
      "##ʧə\n": 8478,
      "##sdɔrf": 8479,
      "##ʊli": 8480,
      "## ɔr": 8481,
      "##ʃɪn": 8482,
      "##raʹg": 8483,
      "##lɛ": 8484,
      "##lɛn": 8485,
      "##ɔð": 8486,
      "##ɔɪl": 8487,
      "##tr": 8488,
      "##u k": 8489,
      "##u b": 8490,
      "##u ʤ": 8491,
      "##o                                 \n": 8492,
      "##jaʹt": 8493,
      "##æl\n": 8494,
      "##ætən": 8495,
      "##ɐ ʹt": 8496,
      "##gɔːɐ̯t": 8497,
      "##frɪd\n": 8498,
      "##vaːn": 8499,
      "##yʹf": 8500,
      "##ʤo\n": 8501,
      "##iːo\n": 8502,
      "##a͜iʹk": 8503,
      "##, ʹhan": 8504,
      "##ɛrz": 8505,
      "##iʹriːn": 8506,
      "ʹbiːt": 8507,
      "ʹbʊk": 8508,
      "ʹbjɛl": 8509,
      "##ɔnɪn\n": 8510,
      "ʹkreɪ": 8511,
      "##u̯aˌd": 8512,
      "##oʊʹt": 8513,
      "##ʹnj": 8514,
      "ʹmɪs": 8515,
      "##ʹkuːr": 8516,
      "ʹgn": 8517,
      "##ɪŋʹk": 8518,
      "ʹpar": 8519,
      "ʹpaːt": 8520,
      "ʹfɛn": 8521,
      "ʹdam": 8522,
      "ʹtɔp": 8523,
      "##ɛsi\n": 8524,
      "##i, st": 8525,
      "##juːz\n": 8526,
      "##ɛi̯v": 8527,
      "##axt\n": 8528,
      "##, ˌʤæk": 8529,
      "ʹza͜id": 8530,
      "##aːd)\n": 8531,
      "##aːdam\n": 8532,
      "##ɔmp": 8533,
      "##ɪʃa\n": 8534,
      "## ʹpeːtɐ\n": 8535,
      "## teː ʹ": 8536,
      "##ɐ, ˌʃtɛfan\n": 8537,
      "##ntaːl": 8538,
      "##jen": 8539,
      "##iːvən": 8540,
      "##olt": 8541,
      "##reɪs\n": 8542,
      "##aːka\n": 8543,
      "ˌkɪm": 8544,
      "## (kim": 8545,
      "##ãːʒ": 8546,
      "##, bɛn\n": 8547,
      "##val\n": 8548,
      "##urt": 8549,
      "##, gabriˌ": 8550,
      "##juz": 8551,
      "##æɫi\n": 8552,
      "##ɐ ʹzeː\n": 8553,
      "##i̯aːnʊs\n": 8554,
      "## deːɐ̯ ˌ": 8555,
      "##ræt": 8556,
      "ˌdiːʤeɪ": 8557,
      "##kɔnraːt": 8558,
      "##ʦi̯oːn\n": 8559,
      "##ɛg\n": 8560,
      "##erʹn": 8561,
      "## ˌhɛnri\n": 8562,
      "##, ʹbraɪən\n": 8563,
      "##əntaːl": 8564,
      "##ija)\n": 8565,
      "## (vər": 8566,
      "##)        \n": 8567,
      "##ivɐ\n": 8568,
      "## də ʹf": 8569,
      "##ɪnsk\n": 8570,
      "##ʹbrʊn\n": 8571,
      "##ʹviːl                                       \n": 8572,
      "##, ʹrɔbət": 8573,
      "## ˌjoːzɛf\n": 8574,
      "##ˌriːkə\n": 8575,
      "##oʹhamɛt": 8576,
      "##reːgoːɐ̯": 8577,
      "##, ˌsɛrə\n": 8578,
      "##ba͜um": 8579,
      "##ɔlgɐ\n": 8580,
      "##ʃɪʃtɔf": 8581,
      "##raʹjɔn\n": 8582,
      "##ɪkɐtɪˌ": 8583,
      "##jørdj)\n": 8584,
      "ast": 8585,
      "bɔʹn": 8586,
      "gran": 8587,
      "kuʹm": 8588,
      "ma": 8589,
      "mɛn": 8590,
      "nɪk": 8591,
      "tab": 8592,
      "xar": 8593,
      "ɔg": 8594,
      "ʃɪn": 8595,
      "ʃʹʧ": 8596,
      "ʃaʹp": 8597,
      "ʊnt": 8598,
      "ʹɔk": 8599,
      "ˌruː": 8600,
      "##aĩ̯": 8601,
      "##ɛz\n": 8602,
      "##ɛ                                          \n": 8603,
      "##s, ʹ": 8604,
      "##,ˌ": 8605,
      "##raʹn": 8606,
      "##ɔkɔ": 8607,
      "##ɔbr": 8608,
      "##ɔɪz\n": 8609,
      "##ə                                            \n": 8610,
      "##dɛn": 8611,
      "##jap": 8612,
      "##nʹb": 8613,
      "##har": 8614,
      "##haʊs": 8615,
      "##gar": 8616,
      "##wɛə\n": 8617,
      "##øˌʒ": 8618,
      "##ʤa\n": 8619,
      "##aːʹd": 8620,
      "##uːro": 8621,
      "##oːlaf\n": 8622,
      "##, ʹjuːl": 8623,
      "##iʹra": 8624,
      "##iʹkɔf": 8625,
      "##ɛl (": 8626,
      "ʹbɔd": 8627,
      "ʹbʌk": 8628,
      "##ʹtɛt": 8629,
      "ʹkɒ": 8630,
      "ʹkɪl": 8631,
      "##a͜uʹd": 8632,
      "##vɪʒ": 8633,
      "##rɛx": 8634,
      "##ʹmaːt": 8635,
      "##ʹmɔ̃": 8636,
      "##ʹsiːn": 8637,
      "ʹlɛn": 8638,
      "ʹleːn": 8639,
      "ʹlanʦ": 8640,
      "##atˌj": 8641,
      "ʹfalk": 8642,
      "ʹtiː": 8643,
      "ʹteɪlə": 8644,
      "##ɛːi̯": 8645,
      "##aɪg": 8646,
      "##aɪz\n": 8647,
      "##n̩t": 8648,
      "##n̩bʊrk": 8649,
      "ʹnuː": 8650,
      "##roʹp": 8651,
      "##øːz\n": 8652,
      "##aʹna\n": 8653,
      "##i, ˌʧ": 8654,
      "## ʹkʌmpəni\n": 8655,
      "##brəh": 8656,
      "##artuːɐ̯": 8657,
      "##artuːɐ̯\n": 8658,
      "al ʹh": 8659,
      "##iːkə\n": 8660,
      "##), n": 8661,
      "## ʹnad": 8662,
      "##, ˌgɫ": 8663,
      "##jaʦ": 8664,
      "## (ˌj": 8665,
      "##, ˌniːko\n": 8666,
      "##aʊə\n": 8667,
      "##ɪfk": 8668,
      "##oʹʤ": 8669,
      "##oʹriː": 8670,
      "##ɑːndə": 8671,
      "##rɒs": 8672,
      "məʹkɔː": 8673,
      "##loːʃ": 8674,
      "##, nɪkɔˌl": 8675,
      "##ski)": 8676,
      "##ʹʒe\n": 8677,
      "## ˌpjɛːr\n": 8678,
      "##iːba\n": 8679,
      "##eɪnə\n": 8680,
      "ʹbrʊk": 8681,
      "##ɑ˞ːk": 8682,
      "##, ˌvɛrnɐ\n": 8683,
      "##ort": 8684,
      "##aksl̩\n": 8685,
      "##oːsa\n": 8686,
      "## zaŋkt": 8687,
      "ðə ʹm": 8688,
      "amʹb": 8689,
      "##, franʹsɪsk": 8690,
      "maʹriːn": 8691,
      "##ɛdwɚd": 8692,
      "dyʹp": 8693,
      "##juːzɛf": 8694,
      "##jɔˌnal": 8695,
      "##o de la": 8696,
      "##a̯\n": 8697,
      "##ʹviːl                                         \n": 8698,
      "##ɔnso\n": 8699,
      "ʹʃlɔs": 8700,
      "##jɛʒɨ)\n": 8701,
      "##, aˌlɛ̃\n": 8702,
      "##ʹʃtɛi̯n\n": 8703,
      "##aʹʦi̯oːn": 8704,
      "## geː ɛm beː ʹhaː\n": 8705,
      "##eːodoːɐ̯": 8706,
      "##, ˌhɛnri": 8707,
      "##, moʹhamɛt": 8708,
      "##agdaˌl": 8709,
      "##, rəˌne\n": 8710,
      "ˌvɪla": 8711,
      "##ʹʦvanʦɪç\n": 8712,
      "dan": 8713,
      "duʹb": 8714,
      "jak": 8715,
      "kɪl": 8716,
      "kõ": 8717,
      "kɔst": 8718,
      "laʹs": 8719,
      "maz": 8720,
      "maʹj": 8721,
      "oʹd": 8722,
      "rɛd": 8723,
      "rəʹn": 8724,
      "siː": 8725,
      "sɔn": 8726,
      "seɪnt": 8727,
      "xaʹl": 8728,
      "zam": 8729,
      "ʧaŋ": 8730,
      "ʹoːm": 8731,
      "ˌaːd": 8732,
      "##ʧə": 8733,
      "##ito": 8734,
      "##sʹk": 8735,
      "##məs": 8736,
      "##ʃɔː": 8737,
      "##lɪʦ": 8738,
      "##to)\n": 8739,
      "##u p": 8740,
      "##dou̯tiːɐ̯": 8741,
      "##o ʹt": 8742,
      "##o ʹl": 8743,
      "##n                                      \n": 8744,
      "##e, ˌ": 8745,
      "##e t": 8746,
      "##vɔr": 8747,
      "##vɛrnɐ\n": 8748,
      "##͜f\n": 8749,
      "##yst": 8750,
      "##ɚ ˌ": 8751,
      "##ʏç": 8752,
      "##, am": 8753,
      "##, eˌm": 8754,
      "##iːa ": 8755,
      "##iːrɔf\n": 8756,
      "##, ˌʊlrɪç\n": 8757,
      "##aːvid": 8758,
      "## (ʔ": 8759,
      "## (li": 8760,
      "##aʹra\n": 8761,
      "##i̯aʹn": 8762,
      "##iʹla": 8763,
      "##iʹroː": 8764,
      "##a͜im\n": 8765,
      "ʹkeɪ": 8766,
      "ʹkoːn": 8767,
      "ʹkuːl": 8768,
      "##ɔːˌ": 8769,
      "##oʊ ": 8770,
      "##ʹlaf": 8771,
      "ʹmɔn": 8772,
      "ʹheː": 8773,
      "ʹhɔːɫ": 8774,
      "##vɪd": 8775,
      "ʹpriː": 8776,
      "ʹland": 8777,
      "ʹlant": 8778,
      "ʹlaːz": 8779,
      "##at ʹ": 8780,
      "##, ˌmoːnika\n": 8781,
      "##aɪən": 8782,
      "##ˌtɛl": 8783,
      "## maʹriːa\n": 8784,
      "ʹveːg": 8785,
      "##ɛtə": 8786,
      "ʹnɔr": 8787,
      "##inɐ)\n": 8788,
      "##, ˌdɛrɪk\n": 8789,
      "##øːg": 8790,
      "##i, ˌst": 8791,
      "al x": 8792,
      "alɛkʹs": 8793,
      "##ʹje": 8794,
      "## ʹbeː\n": 8795,
      "ʹwɔːk": 8796,
      "##əmz": 8797,
      "##əmən": 8798,
      "## de m": 8799,
      "##iːd)\n": 8800,
      "##, ˌjoːhan\n": 8801,
      "##, ˌhɛlmuːt\n": 8802,
      "##i (d": 8803,
      "##i (ʤ": 8804,
      "ʹstæn": 8805,
      "##ɛɫd": 8806,
      "##uːlə\n": 8807,
      "##, loˌ": 8808,
      "##, bəˌn": 8809,
      "##enj)\n": 8810,
      "## ˌkʌmpəni\n": 8811,
      "ˌpark": 8812,
      "##ɪps\n": 8813,
      "##aˌli\n": 8814,
      "##ækt\n": 8815,
      "## ˌmaɪk": 8816,
      "##, ʹha͜inrɪç\n": 8817,
      "arm": 8818,
      "##aldə\n": 8819,
      "##aɪnə\n": 8820,
      "##aŋga\n": 8821,
      "##, zoˌf": 8822,
      "ʹalm": 8823,
      "##oʹvani\n": 8824,
      "##, ʃarl\n": 8825,
      "ðə ʹk": 8826,
      "##ɪˌks": 8827,
      "##ɔrgɔs\n": 8828,
      "##arbar": 8829,
      "##zn̩, ˌ": 8830,
      "##oˌse\n": 8831,
      "##ɔfski, ʹ": 8832,
      "##hɔrst": 8833,
      "##, ʹtɔməs": 8834,
      "##ɪrgɪt\n": 8835,
      "##, ˌkatriːn\n": 8836,
      "ʃlɔs": 8837,
      "##, ˌbɒbi\n": 8838,
      "##ænʤəɫ": 8839,
      "##ʊrzula\n": 8840,
      "##ʃɨʃt": 8841,
      "##, ˌʤɛsɪkə\n": 8842,
      "##riˌgɔr": 8843,
      "ʹhɔfman": 8844,
      "ʹkøːnɪçs": 8845,
      "ʹstiːvənz": 8846,
      "##izaˌbɛl\n": 8847,
      "##riˑnɐ)\n": 8848,
      "buʹt": 8849,
      "jam": 8850,
      "kʊk": 8851,
      "mɛt": 8852,
      "pɔ̃": 8853,
      "ruʹ": 8854,
      "tʃ": 8855,
      "waɪt": 8856,
      "zaʹv": 8857,
      "ɫəʹv": 8858,
      "ʃam": 8859,
      "ʧɛrʹn": 8860,
      "ʹarb": 8861,
      "##az\n": 8862,
      "##aɛl\n": 8863,
      "##a, ʹs": 8864,
      "##irɔ": 8865,
      "##id\n": 8866,
      "##ɛ, ˌ": 8867,
      "##syr": 8868,
      "##rɑ̃": 8869,
      "##lɚ": 8870,
      "##ɔθ": 8871,
      "##ɔɪnt\n": 8872,
      "##t ": 8873,
      "##), ʹj": 8874,
      "##jeː\n": 8875,
      "##joˌaxiːm\n": 8876,
      "##bə\n": 8877,
      "##bɝː": 8878,
      "##nəs": 8879,
      "##ɐʹh": 8880,
      "##eʃtj)\n": 8881,
      "##wəɫ": 8882,
      "##vɪnt": 8883,
      "##yʹp": 8884,
      "##ɒp\n": 8885,
      "##ʒɛg": 8886,
      "##ɨk)\n": 8887,
      "##, eʹl": 8888,
      "##iːx": 8889,
      "##aːʹgeː": 8890,
      "##anl": 8891,
      "##i̯ɔr": 8892,
      "##i̯oˌ": 8893,
      "##i̯as\n": 8894,
      "##ar (": 8895,
      "##arja\n": 8896,
      "##arʹθ": 8897,
      "##oːrə": 8898,
      "##oːro\n": 8899,
      "##stn̩": 8900,
      "##ənɐ ʹʃtraːsə\n": 8901,
      "##ənbʊrk": 8902,
      "##albɛrt\n": 8903,
      "##ɪnja (": 8904,
      "##raj": 8905,
      "ʹbraɪ": 8906,
      "ʹbeːr": 8907,
      "##ɔːʹ": 8908,
      "##ɔːˌl": 8909,
      "##laʦ": 8910,
      "ʹmɛn": 8911,
      "ʹmɛʦ": 8912,
      "ʹmœl": 8913,
      "##rɔ̃\n": 8914,
      "##ri, ˌ": 8915,
      "ʹhɪntɐ": 8916,
      "##, mik": 8917,
      "##ɪlja": 8918,
      "ʹgroː": 8919,
      "ʹsal": 8920,
      "ʹsiːm": 8921,
      "ʹløːv": 8922,
      "ʹfɔː": 8923,
      "ʹtoːɐ̯": 8924,
      "##, ˌmɛri\n": 8925,
      "##a, ʃ": 8926,
      "##iˌʃ": 8927,
      "##juːp": 8928,
      "ʹnɛl": 8929,
      "##ʊrʦ": 8930,
      "##ə ʹst": 8931,
      "##roʹ": 8932,
      "##roʹb": 8933,
      "## kal": 8934,
      "##ɪrd": 8935,
      "##i, ˌz": 8936,
      "##, kloːd\n": 8937,
      "##reʹm": 8938,
      "## fɔn p": 8939,
      "## fɔn ʹv": 8940,
      "##ʊlk": 8941,
      "##ʊlj": 8942,
      "##aʃkɪn\n": 8943,
      "## de b": 8944,
      "##o (l": 8945,
      "##ɛsto\n": 8946,
      "##ˌman\n": 8947,
      "##ɛnte": 8948,
      "##imir": 8949,
      "##ɐ, d": 8950,
      "##, ˌsuːzən\n": 8951,
      "## lu̯i\n": 8952,
      "##rum": 8953,
      "##ʊŋʹg": 8954,
      "##ɛvɔ\n": 8955,
      "##uːtə\n": 8956,
      "## ˌkɫ": 8957,
      "## də f": 8958,
      "##jɛf)\n": 8959,
      "##oːto\n": 8960,
      "ʹrɔɪ": 8961,
      "##rɪʧəd\n": 8962,
      "## ʹʃl": 8963,
      "##ɑ˞ːd": 8964,
      "##eːmiːl": 8965,
      "##, ˌwɔːɫt": 8966,
      "##aŋgel": 8967,
      "ʹɫiː": 8968,
      "##ɛbɛl": 8969,
      "## ðə ʹb": 8970,
      "##ɒks\n": 8971,
      "ʹkroːn": 8972,
      "## ʹʦva͜i\n": 8973,
[...]
