{
  "version": "1.0",
  "truncation": null,
  "padding": null,
  "added_tokens": [
    {
      "id": 0,
      "content": "<sos>",
      "single_word": false,
      "lstrip": false,
      "rstrip": false,
      "normalized": false,
      "special": true
    },
    {
      "id": 1,
      "content": "<eos>",
      "single_word": false,
      "lstrip": false,
      "rstrip": false,
      "normalized": false,
      "special": true
    },
    {
      "id": 2,
      "content": "<pad>",
      "single_word": false,
      "lstrip": false,
      "rstrip": false,
      "normalized": false,
      "special": true
    },
    {
      "id": 3,
      "content": "<unk>",
      "single_word": false,
      "lstrip": false,
      "rstrip": false,
      "normalized": false,
      "special": true
    }
  ],
  "normalizer": null,
  "pre_tokenizer": null,
  "post_processor": null,
  "decoder": null,
  "model": {
    "type": "WordPiece",
    "unk_token": "<unk>",
    "continuing_subword_prefix": "##",
    "max_input_chars_per_word": 100,
    "vocab": {
      "<sos>": 0,
      "<eos>": 1,
      "<pad>": 2,
      "<unk>": 3,
      "\t": 4,
      "\n": 5,
      " ": 6,
      "!": 7,
      "\"": 8,
      "#": 9,
      "&": 10,
      "'": 11,
      "(": 12,
      ")": 13,
      "*": 14,
      "+": 15,
      ",": 16,
      "-": 17,
      ".": 18,
      "/": 19,
      "1": 20,
      "2": 21,
      "3": 22,
      "4": 23,
      "5": 24,
      "9": 25,
      ":": 26,
      ";": 27,
      "<": 28,
      "=": 29,
      ">": 30,
      "?": 31,
      "A": 32,
      "B": 33,
      "C": 34,
      "D": 35,
      "E": 36,
      "F": 37,
      "G": 38,
      "H": 39,
      "I": 40,
      "J": 41,
      "K": 42,
      "L": 43,
      "M": 44,
      "N": 45,
      "O": 46,
      "P": 47,
      "R": 48,
      "S": 49,
      "T": 50,
      "U": 51,
      "V": 52,
      "W": 53,
      "X": 54,
      "Z": 55,
      "[": 56,
      "\\": 57,
      "]": 58,
      "_": 59,
      "`": 60,
      "a": 61,
      "b": 62,
      "c": 63,
      "d": 64,
      "e": 65,
      "f": 66,
      "g": 67,
      "h": 68,
      "i": 69,
      "j": 70,
      "k": 71,
      "l": 72,
      "m": 73,
      "n": 74,
      "o": 75,
      "p": 76,
      "q": 77,
      "r": 78,
      "s": 79,
      "t": 80,
      "u": 81,
      "v": 82,
      "w": 83,
      "x": 84,
      "y": 85,
      "z": 86,
      "{": 87,
      "|": 88,
      "´": 89,
      "Ä": 90,
      "Ö": 91,
      "Ü": 92,
      "ß": 93,
      "ä": 94,
      "ö": 95,
      "ü": 96,
      "ŋ": 97,
      "ɐ": 98,
      "ɛ": 99,
      "ɫ": 100,
      "ʊ": 101,
      "ʎ": 102,
      "ʒ": 103,
      "ʧ": 104,
      "ʹ": 105,
      "ˈ": 106,
      "ˌ": 107,
      "ː": 108,
      "̩": 109,
      "͜": 110,
      "С": 111,
      "а": 112,
      "е": 113,
      "л": 114,
      "н": 115,
      "р": 116,
      "с": 117,
      "у": 118,
      "ы": 119,
      "ь": 120,
      "‘": 121,
      "’": 122,
      "‚": 123,
      "ꞌ": 124,
      "##S": 125,
      "##c": 126,
      "##h": 127,
      "##l": 128,
      "##u": 129,
      "##m": 130,
      "##i": 131,
      "## ": 132,
      "##(": 133,
      "##=": 134,
      "##s": 135,
      "##t": 136,
      "##.": 137,
      "##)": 138,
      "##\n": 139,
      "##o": 140,
      "##n": 141,
      "##d": 142,
      "##'": 143,
      "##e": 144,
      "##r": 145,
      "##L": 146,
      "##a": 147,
      "##g": 148,
      "##f": 149,
      "##k": 150,
      "##D": 151,
      "##ä": 152,
      "##R": 153,
      "##p": 154,
      "##j": 155,
      "##w": 156,
      "##,": 157,
      "##B": 158,
      "##b": 159,
      "##;": 160,
      "##M": 161,
      "##K": 162,
      "##-": 163,
      "##I": 164,
      "##ü": 165,
      "##Ä": 166,
      "##T": 167,
      "##J": 168,
      "##H": 169,
      "##ö": 170,
      "##P": 171,
      "##W": 172,
      "##N": 173,
      "##F": 174,
      "##G": 175,
      "##O": 176,
      "##2": 177,
      "##+": 178,
      "##x": 179,
      "##A": 180,
      "##E": 181,
      "##C": 182,
      "##1": 183,
      "##U": 184,
      "##/": 185,
      "##Ö": 186,
      "##:": 187,
      "##3": 188,
      "##Ü": 189,
      "##’": 190,
      "##ꞌ": 191,
      "##‘": 192,
      "##|": 193,
      "##q": 194,
      "##z": 195,
      "###": 196,
      "##V": 197,
      "##_": 198,
      "##ˈ": 199,
      "##´": 200,
      "##Z": 201,
      "##\"": 202,
      "##*": 203,
      "##?": 204,
      "##!": 205,
      "##4": 206,
      "##`": 207,
      "##ʹ": 208,
      "##&": 209,
      "##X": 210,
      "##[": 211,
      "##]": 212,
      "##ß": 213,
      "##ʧ": 214,
      "##ɛ": 215,
      "##ˌ": 216,
      "##v": 217,
      "##>": 218,
      "##{": 219,
      "##с": 220,
      "##\t": 221,
      "##ы": 222,
      "##ʒ": 223,
      "##ː": 224,
      "##͜": 225,
      "##9": 226,
      "##ɫ": 227,
      "##ʊ": 228,
      "##<": 229,
      "##ŋ": 230,
      "##ɐ": 231,
      "##р": 232,
      "##С": 233,
      "##у": 234,
      "##л": 235,
      "##ь": 236,
      "##е": 237,
      "##н": 238,
      "##а": 239,
      "##ʎ": 240,
      "##\\": 241,
      "##5": 242,
      "##y": 243,
      "##ch": 244,
      "##sch": 245,
      "## (": 246,
      "##, ": 247,
      "##ar": 248,
      "##)\n": 249,
      "##s=": 250,
      "##schar": 251,
      "##scharf": 252,
      "##nn": 253,
      "##s=scharf": 254,
      "##st": 255,
      "##ll": 256,
      "##=st": 257,
      "##, '": 258,
      "##ss": 259,
      "##s=scharf)\n": 260,
      "##rr": 261,
      "##sch=st": 262,
      "##ah": 263,
      "##l.": 264,
      "## (S": 265,
      "##ih": 266,
      "## '": 267,
      "## (s": 268,
      "##ich": 269,
      "##tt": 270,
      "## (sch=st": 271,
      "##we": 272,
      "##s=scharf)": 273,
      "##mm": 274,
      "##a'": 275,
      "##weich": 276,
      "##kk": 277,
      "##oh": 278,
      "## (S=": 279,
      "##ann": 280,
      "##s=weich": 281,
      "##i'": 282,
      "##eh": 283,
      "##wi": 284,
      "##ng": 285,
      "## (sch=stl.": 286,
      "##e ": 287,
      "##h.": 288,
      "##ff": 289,
      "##enn": 290,
      "##inn": 291,
      "##o'": 292,
      "##na": 293,
      "##uh": 294,
      "## (S=scharf": 295,
      "## (ss=scharf)\n": 296,
      "## (s=scharf)\n": 297,
      "##arr": 298,
      "##a\n": 299,
      "##sa": 300,
      "##e'": 301,
      "##ärr": 302,
      "##dd": 303,
      "##), ": 304,
      "##), '": 305,
      "##wie ": 306,
      "## wie ": 307,
      "##änn": 308,
      "'S": 309,
      "## (Sch": 310,
      "## (s=scharf)": 311,
      "##onn": 312,
      "## (ss=scharf)": 313,
      "##ai": 314,
      "## (Sch=st": 315,
      "##ri": 316,
      "##ach": 317,
      "##s=weich)\n": 318,
      "##äll": 319,
      "## (sch=sth.": 320,
      "##ch wie ": 321,
      "##u'": 322,
      "##) ": 323,
      "##imm": 324,
      "##=na": 325,
      "##=nasa": 326,
      "##=nasal": 327,
      "'K": 328,
      "'B": 329,
      "##all": 330,
      "##'t": 331,
      "## (sch=stl.)\n": 332,
      "##orr": 333,
      "##i\n": 334,
      "##off": 335,
      "##iss": 336,
      "##e\n": 337,
      "##ass": 338,
      "##ill": 339,
      "## (ch wie ": 340,
      "##pp": 341,
      "##ikk": 342,
      "##itt": 343,
      "##bb": 344,
      "## (Sch=stl.": 345,
      "##ou": 346,
      "## (S=scharf)\n": 347,
      "##o\n": 348,
      "##th": 349,
      "##sst": 350,
      "##Dsch": 351,
      "##oll": 352,
      "##) '": 353,
      "##err": 354,
      "##ww": 355,
      "'M": 356,
      "##au": 357,
      "##att": 358,
      "##ätt": 359,
      "##Sch": 360,
      "##ihn": 361,
      "##lo": 362,
      "##ahn": 363,
      "'T": 364,
      "##ahr": 365,
      "'H": 366,
      "##jä": 367,
      "## (s=weich)\n": 368,
      "##ts": 369,
      "'W": 370,
      "##gg": 371,
      "## (S=weich": 372,
      "## (sch=sth.)\n": 373,
      "##hr": 374,
      "##äss": 375,
      "##ell": 376,
      "## (s=weich": 377,
      "##ss=scharf)\n": 378,
      "##rih": 379,
      "##amm": 380,
      "##äkk": 381,
      "'L": 382,
      "##sch=stl.": 383,
      "##t\n": 384,
      "## (ch wie ach": 385,
      "'R": 386,
      "'P": 387,
      "'G": 388,
      "##'d": 389,
      "##eng": 390,
      "##uss": 391,
      "##=eng": 392,
      "##äi": 393,
      "##a=nasal": 394,
      "## (2": 395,
      "##li": 396,
      "## (s=scharf), '": 397,
      "##oss": 398,
      "##a ": 399,
      "##=engl.": 400,
      "'Sch": 401,
      "##Ch": 402,
      "##sk": 403,
      "'A": 404,
      "##'k": 405,
      "##tsch": 406,
      "##ohr": 407,
      "'D": 408,
      "##los": 409,
      "##'l": 410,
      "##'s": 411,
      "##immlos": 412,
      "Sch": 413,
      "##s=scharf, ": 414,
      "'F": 415,
      "##akk": 416,
      "## (2x": 417,
      "##ngk": 418,
      "## d": 419,
      "##rah": 420,
      "## (s=scharf), ": 421,
      "##öh": 422,
      "## (ss=scharf), '": 423,
      "## (ss=scharf), ": 424,
      "##urr": 425,
      "##'m": 426,
      "##ing": 427,
      "##ess": 428,
      "## (ch wie ich": 429,
      "##s (s=scharf)\n": 430,
      "## (S+": 431,
      "##enn\n": 432,
      "##a, '": 433,
      "##ss=scharf)": 434,
      "##rä": 435,
      "##ro": 436,
      "## (S=scharf, ": 437,
      "##'n": 438,
      "##th=engl.": 439,
      "##a, ": 440,
      "##, s=scharf)\n": 441,
      "##ahl": 442,
      "##dsch": 443,
      "'N": 444,
      "'Ä": 445,
      "##irr": 446,
      "##ott": 447,
      "##'b": 448,
      "##, st": 449,
      "##omm": 450,
      "## (Sch=stl.)\n": 451,
      "## (sch=stl.), '": 452,
      "##ohn": 453,
      "##ski": 454,
      "##äff": 455,
      "##ann\n": 456,
      "##ra": 457,
      "## (ch wie ach)\n": 458,
      "##wwi": 459,
      "##se": 460,
      "##a't": 461,
      "##unn": 462,
      "##sch=stl.)\n": 463,
      "##ha": 464,
      "##ämm": 465,
      "## (S=weich)\n": 466,
      "## (Sch=sth.": 467,
      "##ainn": 468,
      "## 'S": 469,
      "## (ss=scharf) ": 470,
      "##ft": 471,
      "##1.": 472,
      "## (th=engl.": 473,
      "## (ss=weich": 474,
      "##immlos)\n": 475,
      "##emm": 476,
      "##a'l": 477,
      "##=nasal)\n": 478,
      "##aht": 479,
      "##annd": 480,
      "##Ann": 481,
      "##si": 482,
      "##ull": 483,
      "## (Ch": 484,
      "##haft": 485,
      "##reh": 486,
      "## (sch=stl.), ": 487,
      "##immhaft": 488,
      "## (ss=weich)\n": 489,
      "##ih-": 490,
      "##inn\n": 491,
      "##a '": 492,
      "##, M": 493,
      "## (Ch wie ": 494,
      "##ang": 495,
      "##äh": 496,
      "##fonn": 497,
      "##'g": 498,
      "##na\n": 499,
      "##-h": 500,
      "##isch": 501,
      "## (1.": 502,
      "##iht": 503,
      "##üh": 504,
      "##sch=sth.": 505,
      "##, ss=scharf)\n": 506,
      "##a'n": 507,
      "##k\n": 508,
      "##'w": 509,
      "## (s=scharf) ": 510,
      "##ihl": 511,
      "##e '": 512,
      "'O": 513,
      "## (Ch wie ach": 514,
      "##, 'M": 515,
      "##okk": 516,
      "##ohl": 517,
      "##ehr": 518,
      "##a's": 519,
      "##ahd": 520,
      "##ttsch": 521,
      "##bärr": 522,
      "##, s=scharf)": 523,
      "##All": 524,
      "##2.": 525,
      "##a'm": 526,
      "##ihr": 527,
      "##a'd": 528,
      "##o'l": 529,
      "## (a=nasal": 530,
      "## 'K": 531,
      "'J": 532,
      "##n\n": 533,
      "##'j": 534,
      "##öhr": 535,
      "##idd": 536,
      "##asch": 537,
      "## (s+": 538,
      "##i, ": 539,
      "##add": 540,
      "##ittsch": 541,
      "##annt": 542,
      "##off\n": 543,
      "##, 'K": 544,
      "##jj": 545,
      "##i ": 546,
      "##ch wie ach": 547,
      "##ett": 548,
      "##ännd": 549,
      "## (ch wie ich)\n": 550,
      "##oww": 551,
      "##aff": 552,
      "##l.)\n": 553,
      "##umm": 554,
      "##ass (ss=scharf)\n": 555,
      "## 'M": 556,
      "##Th": 557,
      "##ruh": 558,
      "## (S=scharf) ": 559,
      "##ehl": 560,
      "## (th=engl., st": 561,
      "## (s=weich), '": 562,
      "##arrt": 563,
      "## (S=scharf), ": 564,
      "##ihm": 565,
      "##äll\n": 566,
      "##ukk": 567,
      "All": 568,
      "##scht": 569,
      "##ahk": 570,
      "##i, '": 571,
      "##; ": 572,
      "## (sch=stimmhaft": 573,
      "##Ah": 574,
      "## (o": 575,
      "##senn": 576,
      "##ihd": 577,
      "## 'B": 578,
      "##a'k": 579,
      "## st": 580,
      "##e, ": 581,
      "##ädd": 582,
      "##riss": 583,
      "## 'T": 584,
      "## (s=scharf, ": 585,
      "##jäff": 586,
      "##u\n": 587,
      "##uhr": 588,
      "Tsch": 589,
      "##a'r": 590,
      "## K": 591,
      "##a'b": 592,
      "##abb": 593,
      "## (sch=stimmlos)\n": 594,
      "##juh": 595,
      "##e'l": 596,
      "##a'rih": 597,
      "##i'k": 598,
      "##eht": 599,
      "## S": 600,
      "## (S=scharf), '": 601,
      "##i'n": 602,
      "##ä'": 603,
      "## (s=weich), ": 604,
      "##obb": 605,
      "##Ih": 606,
      "##ännt": 607,
      "##a (s=scharf)\n": 608,
      "##, S": 609,
      "##e'n": 610,
      "##s (s=weich)\n": 611,
      "##o'n": 612,
      "## (sch=sth., ": 613,
      "## M": 614,
      "##rai": 615,
      "##ässt": 616,
      "##mann": 617,
      "##aww": 618,
      "##wwe": 619,
      "##opp": 620,
      "##ihn\n": 621,
      "##edd": 622,
      "## (Th": 623,
      "##ri\n": 624,
      "##ähr": 625,
      "##nnt": 626,
      "##ihk": 627,
      "##Äll": 628,
      "##Fr": 629,
      "## 'H": 630,
      "##app": 631,
      "##, K": 632,
      "##e, '": 633,
      "##utt": 634,
      "##ahb": 635,
      "##rikk": 636,
      "##i't": 637,
      "##iss (ss=scharf)\n": 638,
      "##ohm": 639,
      "##auss": 640,
      "Dsch": 641,
      "##ahs": 642,
      "## 'W": 643,
      "## (ss": 644,
      "##ehn": 645,
      "##usch": 646,
      "##Dschonn": 647,
      "## 'P": 648,
      "##'p": 649,
      "##eh-": 650,
      "##de ": 651,
      "## (ss=scharf, ": 652,
      "##ahm": 653,
      "##odd": 654,
      "##d\n": 655,
      "##, ss=scharf)": 656,
      "##-g": 657,
      "##risst": 658,
      "##osch": 659,
      "##sch=sth.)\n": 660,
      "##e'r": 661,
      "##oht": 662,
      "##Eh": 663,
      "'Tsch": 664,
      "##i'l": 665,
      "##a (ss=scharf)\n": 666,
      "##, 'R": 667,
      "##ch wie ach)\n": 668,
      "##'tsch": 669,
      "##ih\n": 670,
      "## (Th=engl.": 671,
      "## (Sch=stl.), '": 672,
      "## 'R": 673,
      "##igg": 674,
      "##ong": 675,
      "## (sch=stl.) ": 676,
      "##uss (ss=scharf)\n": 677,
      "##o ": 678,
      "##o, ": 679,
      "##, 'S": 680,
      "## (S=scharf) '": 681,
      "##, 2.": 682,
      "##onn\n": 683,
      "##i'm": 684,
      "## (ä": 685,
      "##a=nasal)\n": 686,
      "##o'm": 687,
      "##'h": 688,
      "##, 'D": 689,
      "##änn\n": 690,
      "##l\n": 691,
      "##arrk": 692,
      "##isst": 693,
      "##aitt": 694,
      "'St": 695,
      "'Dsch": 696,
      "##'sch": 697,
      "## 'L": 698,
      "## 'F": 699,
      "##äsch": 700,
      "##a'w": 701,
      "##o's": 702,
      "##Scht": 703,
      "## (ss+": 704,
      "## (sch=stimmhaft)\n": 705,
      "##ohs": 706,
      "##ipp": 707,
      "##äpp": 708,
      "## T": 709,
      "## B": 710,
      "##nnd": 711,
      "##agg": 712,
      "## 'D": 713,
      "##=nasal), ": 714,
      "##i's": 715,
      "##ikk\n": 716,
      "##eww": 717,
      "##'r": 718,
      "Th": 719,
      "##'f": 720,
      "##ihs": 721,
      "##menn": 722,
      "##wwittsch": 723,
      "##ja\n": 724,
      "##ürr": 725,
      "## (sch=sth.) ": 726,
      "##f\n": 727,
      "##aikk": 728,
      "##ahg": 729,
      "## fonn": 730,
      "##ätt\n": 731,
      "##asst": 732,
      "## (sch=stimmlos": 733,
      "##, 'J": 734,
      "##itts": 735,
      "##uhn": 736,
      "##, 'T": 737,
      "'Ah": 738,
      "## de ": 739,
      "##, Sch": 740,
      "## (Sch=sth., ": 741,
      "##h.) '": 742,
      "##dd\n": 743,
      "##e'm": 744,
      "## A": 745,
      "##ekk": 746,
      "## 'Ä": 747,
      "## 'G": 748,
      "##äinn": 749,
      "## (sch=stl.) '": 750,
      "##ri'": 751,
      "##ohd": 752,
      "##ahri": 753,
      "##ah-": 754,
      "## (Sch=stl.), ": 755,
      "## (Sch=sth.)\n": 756,
      "##o'd": 757,
      "##, 'L": 758,
      "## (s=weich) ": 759,
      "##rahse": 760,
      "##uht": 761,
      "##u's": 762,
      "##eh\n": 763,
      "##, 'H": 764,
      "##o'r": 765,
      "##aimm": 766,
      "## (s+ss=scharf)\n": 767,
      "##ja": 768,
      "##, A": 769,
      "##, 'W": 770,
      "##ell\n": 771,
      "## (Ch wie ach)\n": 772,
      "##, 'Ä": 773,
      "##re": 774,
      "##ko": 775,
      "##ss=weich)\n": 776,
      "##aill": 777,
      "##ängk": 778,
      "##=nasal) ": 779,
      "##nn\n": 780,
      "##aiss": 781,
      "'Scht": 782,
      "##o't": 783,
      "'Br": 784,
      "'Oh": 785,
      "## Ä": 786,
      "## (sch=stl., ": 787,
      "##e's": 788,
      "##s (s=scharf), '": 789,
      "##angk": 790,
      "##, 'Dsch": 791,
      "##äng": 792,
      "Ch": 793,
      "##uhl": 794,
      "##, 'P": 795,
      "##i (sch=sth.)\n": 796,
      "##unnt": 797,
      "## (sch=sth.), ": 798,
      "##illj": 799,
      "##oull": 800,
      "##, R": 801,
      "##o'h": 802,
      "##, 'B": 803,
      "##e't": 804,
      "##a (sch=stl.)\n": 805,
      "##kinn": 806,
      "##uhd": 807,
      "##udd": 808,
      "##, Dsch": 809,
      "##ung": 810,
      "## 'A": 811,
      "##offski": 812,
      "## P": 813,
      "## (S+s=scharf)\n": 814,
      "##a'sch": 815,
      "## D": 816,
      "##ah\n": 817,
      "## (A": 818,
      "##ess (ss=scharf)\n": 819,
      "##sch=stl.), '": 820,
      "##iff": 821,
      "##bärrk": 822,
      "##St": 823,
      "##oss (ss=scharf)\n": 824,
      "##uh-": 825,
      "##o'w": 826,
      "##sn": 827,
      "##ä'k": 828,
      "##i'd": 829,
      "##ahn\n": 830,
      "## (Sch=stl., ": 831,
      "##ss=weich": 832,
      "Arr": 833,
      "##ennd": 834,
      "##ch wie ich": 835,
      "## (a=nasal)\n": 836,
      "##ai\n": 837,
      "'Ts": 838,
      "##ounn": 839,
      "##a'rih-": 840,
      "##u'l": 841,
      "##ehd": 842,
      "##uhk": 843,
      "##ohr\n": 844,
      "##oi": 845,
      "##äimm": 846,
      "##Tsch": 847,
      "'I": 848,
      "##a-": 849,
      "##a'g": 850,
      "##ärrn": 851,
      "'Kl": 852,
      "##, B": 853,
      "## (sch=stl": 854,
      "##ebb": 855,
      "##tsi": 856,
      "##ärrt": 857,
      "'Gr": 858,
      "##allt": 859,
      "##ritt": 860,
      "## 'N": 861,
      "##Lu'": 862,
      "'U": 863,
      "The": 864,
      "##onnt": 865,
      "##rich": 866,
      "##i'sch": 867,
      "##e'd": 868,
      "##a (S=scharf)\n": 869,
      "##arr't": 870,
      "##e (ss=scharf)\n": 871,
      "##innd": 872,
      "##a'p": 873,
      "##atts": 874,
      "##o (s=scharf)\n": 875,
      "##ouss": 876,
      "## (th=engl. st": 877,
      "##ou\n": 878,
      "##o'b": 879,
      "##ihna": 880,
      "##arrd": 881,
      "##e (s=scharf)\n": 882,
      "## (sch=sth.), '": 883,
      "##ei": 884,
      "##Ann'd": 885,
      "##Kl": 886,
      "##a'j": 887,
      "Äll": 888,
      "##ü'": 889,
      "##, J": 890,
      "##, D": 891,
      "##örr": 892,
      "## (sch=stl., s=scharf)\n": 893,
      "## (S+s=scharf)": 894,
      "##arrl": 895,
      "##Oh": 896,
      "##ihb": 897,
      "##innt": 898,
      "##bach": 899,
      "##orrt": 900,
      "##emm\n": 901,
      "##attsch": 902,
      "St": 903,
      "##ahni": 904,
      "##ohk": 905,
      "##ohri": 906,
      "##orrf": 907,
      "##i'w": 908,
      "##e'k": 909,
      "##o (o": 910,
      "##äch": 911,
      "##ill\n": 912,
      "##ibb": 913,
      "##ä\n": 914,
      "##, P": 915,
      "##Nikk": 916,
      "##ahr\n": 917,
      "##rikk\n": 918,
      "## (sch=sth.) '": 919,
      "##äiwwi": 920,
      "## G": 921,
      "##s (s=weich), '": 922,
      "##ehg": 923,
      "##'ts": 924,
      "##sche": 925,
      "##arr\n": 926,
      "## (Th=engl., st": 927,
      "## (s+ss=scharf)": 928,
      "##jähr": 929,
      "##), M": 930,
      "Ts": 931,
      "##ä'ks": 932,
      "## (Sch+": 933,
      "##ägg": 934,
      "##annts": 935,
      "## dehr": 936,
      "##üll": 937,
      "## (2x ": 938,
      "##itt\n": 939,
      "##=scharf": 940,
      "## (sch": 941,
      "##oh-": 942,
      "##upp": 943,
      "##ihna\n": 944,
      "##, 'G": 945,
      "## (S+ss=scharf)\n": 946,
      "## (ss=weich), '": 947,
      "Le ": 948,
      "Gr": 949,
      "## (S=weich, ": 950,
      "##, W": 951,
      "##the": 952,
      "'All": 953,
      "##anns": 954,
      "##osst": 955,
      "##ss (ss=scharf)\n": 956,
      "##usst": 957,
      "## R": 958,
      "##2x": 959,
      "##e'b": 960,
      "## F": 961,
      "##ohni": 962,
      "##ä (ä": 963,
      "La ": 964,
      "##äi\n": 965,
      "##burr": 966,
      "##tts": 967,
      "##jeh": 968,
      "##äss (ss=scharf)\n": 969,
      "##, 'F": 970,
      "##ihli": 971,
      "##Arr": 972,
      "##aidd": 973,
      "##ünn": 974,
      "##i'b": 975,
      "##ännts": 976,
      "##ihg": 977,
      "Br": 978,
      "##i'r": 979,
      "## H": 980,
      "##arrt\n": 981,
      "##a=nasal) ": 982,
      "##uhb": 983,
      "##ollf": 984,
      "##owwittsch": 985,
      "##äiss": 986,
      "##i (S=scharf)\n": 987,
      "## W": 988,
      "##äill": 989,
      "##järr": 990,
      "##ss=scharf, ": 991,
      "##ohf": 992,
      "##i'g": 993,
      "##'dsch": 994,
      "##amm\n": 995,
      "## L": 996,
      "##schenn": 997,
      "##ajj": 998,
      "##sch=stl.), ": 999,
      "## (ss+s=scharf)\n": 1000,
      "##att\n": 1001,
      "##en": 1002,
      "##ogg": 1003,
      "##a'h": 1004,
      "##ahna": 1005,
      "##de\n": 1006,
      "## (ss=weich), ": 1007,
      "##e (S=scharf)\n": 1008,
      "##uhs": 1009,
      "## (s=weich) '": 1010,
      "##och": 1011,
      "##uhli": 1012,
      "##alle ": 1013,
      "##äbb": 1014,
      "## (2xss=scharf)\n": 1015,
      "## de\n": 1016,
      "##äkk\n": 1017,
      "##e'w": 1018,
      "##ahsch": 1019,
      "##äidd": 1020,
      "##öhn": 1021,
      "##ahw": 1022,
      "##änns": 1023,
      "##tenn": 1024,
      "##, T": 1025,
      "## 'J": 1026,
      "## (2.": 1027,
      "## (S=weich), '": 1028,
      "##ä=nasal)\n": 1029,
      "##o'k": 1030,
      "## (th=engl., stl.)\n": 1031,
      "Ann": 1032,
      "## (S+ss=scharf)": 1033,
      "##Allä'ks": 1034,
      "##s (sch=sth., ": 1035,
      "##iww": 1036,
      "##, L": 1037,
      "'Bl": 1038,
      "##aunn": 1039,
      "##ihr\n": 1040,
      "Kl": 1041,
      "##ihw": 1042,
      "##e'g": 1043,
      "## Sch": 1044,
      "##ammp": 1045,
      "## (ch wie ach), '": 1046,
      "##äkks": 1047,
      "##ing\n": 1048,
      "##Dschonn (sch=sth.)\n": 1049,
      "##a'f": 1050,
      "##immhaft)\n": 1051,
      "'Ih": 1052,
      "##off (sch=stl.)\n": 1053,
      "Karr": 1054,
      "##h.) ": 1055,
      "##aull": 1056,
      "'Äll": 1057,
      "##la": 1058,
      "##ju": 1059,
      "##ällm": 1060,
      "##ihp": 1061,
      "##uhm": 1062,
      "##ahwi": 1063,
      "##u'k": 1064,
      "##, F": 1065,
      "##i (sch=stl.)\n": 1066,
      "##je": 1067,
      "##i (ss=scharf)\n": 1068,
      "##off (ss=scharf)\n": 1069,
      "##ärr'n": 1070,
      "##sa (s=scharf)\n": 1071,
      "##Oll": 1072,
      "##Ann'dreh": 1073,
      "##ohg": 1074,
      "##'tihn": 1075,
      "##ahna\n": 1076,
      "##'rih": 1077,
      "##s=weich), '": 1078,
      "## (ch wie ich), '": 1079,
      "##ärrk": 1080,
      "## 'Sch": 1081,
      "'Kr": 1082,
      "##, sch=stl.)\n": 1083,
      "##enns": 1084,
      "##u'b": 1085,
      "##ling": 1086,
      "##ka": 1087,
      "##ehta\n": 1088,
      "##ükk": 1089,
      "'Eh": 1090,
      "##dorrf": 1091,
      "##i'j": 1092,
      "##Ärr": 1093,
      "##riss (ss=scharf)\n": 1094,
      "##, G": 1095,
      "##o (ss=scharf)\n": 1096,
      "##äww": 1097,
      "##bei": 1098,
      "##ohp": 1099,
      "##jäff\n": 1100,
      "##ätts": 1101,
      "## (alle ": 1102,
      "##Karr": 1103,
      "## (2xs=scharf)\n": 1104,
      "Pr": 1105,
      "##nikk": 1106,
      "##o'p": 1107,
      "##i'ahn": 1108,
      "##beide ": 1109,
      "##ennt": 1110,
      "##ch wie ich)\n": 1111,
      "##ällt": 1112,
      "## I": 1113,
      "## (Sch=stl.) ": 1114,
      "##rihd": 1115,
      "##äikk": 1116,
      "## (ss=weich) ": 1117,
      "##äitt": 1118,
      "##ohb": 1119,
      "##o=nasal)\n": 1120,
      "'Ch": 1121,
      "##Schtrahse": 1122,
      "##Marr": 1123,
      "##annda (s=scharf)\n": 1124,
      "##ingk": 1125,
      "## (ch wie ach), ": 1126,
      "Kr": 1127,
      "##u'r": 1128,
      "##o (sch=stl.)\n": 1129,
      "##ä'l": 1130,
      "##ski (s=scharf)\n": 1131,
      "##h.)\n": 1132,
      "##err\n": 1133,
      "##äth": 1134,
      "Marr": 1135,
      "'Sk": 1136,
      "##a (Sch=sth., ": 1137,
      "## (th=engl., stl.": 1138,
      "##ahl\n": 1139,
      "##ütt": 1140,
      "##uh\n": 1141,
      "##orrn": 1142,
      "##äss (ss=scharf), ": 1143,
      "##, H": 1144,
      "## (Th=engl. st": 1145,
      "## 'Dsch": 1146,
      "##ehb": 1147,
      "## (sch=sth": 1148,
      "## (Sch=stl., s=scharf)\n": 1149,
      "##u'd": 1150,
      "##all\n": 1151,
      "##ühr": 1152,
      "##uch": 1153,
      "##oh\n": 1154,
      "##ärri\n": 1155,
      "##Krisst": 1156,
      "##o'f": 1157,
      "##alld": 1158,
      "## (Sch=stimmlos)\n": 1159,
      "##o'g": 1160,
      "##u't": 1161,
      "##ättsch": 1162,
      "##ohl\n": 1163,
      "## (Sch=stimmlos": 1164,
      "##th=engl., st": 1165,
      "##unnd": 1166,
      "##ia\n": 1167,
      "##a (sch=sth.)\n": 1168,
      "## (beide ": 1169,
      "##üss": 1170,
      "##kks": 1171,
      "##öll": 1172,
      "##äiwwidd\n": 1173,
      "##eff": 1174,
      "##ahp": 1175,
      "##ang\n": 1176,
      "##Ann't": 1177,
      "##ett\n": 1178,
      "##bärrt\n": 1179,
      "## f": 1180,
      "##weh": 1181,
      "##sa (s=weich)\n": 1182,
      "##u'n": 1183,
      "##imm\n": 1184,
      "##senn (s=scharf), '": 1185,
      "##äirr": 1186,
      "## N": 1187,
      "##ls": 1188,
      "##ehm": 1189,
      "##schi": 1190,
      "##rangk": 1191,
      "##, N": 1192,
      "##tt\n": 1193,
      "##ollt": 1194,
      "## Dsch": 1195,
      "##sch=stimmlos)\n": 1196,
      "##will": 1197,
      "##o'hann": 1198,
      "##winn": 1199,
      "##uff": 1200,
      "##onnd": 1201,
      "##ass't": 1202,
      "## E": 1203,
      "##s=st": 1204,
      "##icha": 1205,
      "##ts (s=scharf)\n": 1206,
      "##a'rih-a\n": 1207,
      "##je\n": 1208,
      "##uss (ss=scharf) ": 1209,
      "##Frann": 1210,
      "##o (S=scharf)\n": 1211,
      "Tr": 1212,
      "##u'm": 1213,
      "##räh": 1214,
      "##jäll": 1215,
      "## J": 1216,
      "## (S=scharf, sch=stl.)\n": 1217,
      "##ässk": 1218,
      "## (2xsch=stl.)\n": 1219,
      "##e'rih": 1220,
      "## (s=scharf) '": 1221,
      "##au\n": 1222,
      "##, 'A": 1223,
      "'Will": 1224,
      "##a d": 1225,
      "##a-h": 1226,
      "'Fl": 1227,
      "##raht": 1228,
      "##sonn": 1229,
      "##o'sch": 1230,
      "##br": 1231,
      "##, 'N": 1232,
      "##ihl\n": 1233,
      "##an": 1234,
      "##=scharf)\n": 1235,
      "##s (s=weich), ": 1236,
      "##eth": 1237,
      "##ddsch": 1238,
      "##, I": 1239,
      "##ith": 1240,
      "##ihwe": 1241,
      "##ahli": 1242,
      "##riss't": 1243,
      "##ännj": 1244,
      "##inn (sch=stl.)\n": 1245,
      "##iwwe": 1246,
      "## (sch=stl., s=scharf)": 1247,
      "##umm\n": 1248,
      "##oh-h": 1249,
      "##iann": 1250,
      "##s (s=scharf), ": 1251,
      "##, s=weich)\n": 1252,
      "##ihni": 1253,
      "## (S=weich), ": 1254,
      "## (A=nasal)\n": 1255,
      "##oll\n": 1256,
      "##ska": 1257,
      "##er": 1258,
      "##a (S=weich)\n": 1259,
      "##ann'd": 1260,
      "## (Sch=stl., s=scharf)": 1261,
      "##ssk": 1262,
      "##iht\n": 1263,
      "##uhp": 1264,
      "##iss (ss=scharf), '": 1265,
      "##mitt": 1266,
      "##, E": 1267,
      "##s=weich), ": 1268,
      "##, 'Krisst": 1269,
      "##ring": 1270,
      "##ikkt": 1271,
      "##rich (ch wie ich)\n": 1272,
      "##orr\n": 1273,
      "##seh": 1274,
      "##owwa": 1275,
      "##Schtäff": 1276,
      "##ärrm": 1277,
      "##i (s=scharf)\n": 1278,
      "##innski": 1279,
      "##ijj": 1280,
      "##ka\n": 1281,
      "## (S=scharf, s=weich)\n": 1282,
      "##jo": 1283,
      "##jätt": 1284,
      "## (s=weich, ": 1285,
      "##Tomm": 1286,
      "##äh-": 1287,
      "##schtrahse": 1288,
      "##ä's": 1289,
      "##ubb": 1290,
      "##a'tsch": 1291,
      "##ohna": 1292,
      "Amm": 1293,
      "##'ch": 1294,
      "##jängk": 1295,
      "##jähr\n": 1296,
      "##ammb": 1297,
      "Sk": 1298,
      "##a (s=weich)\n": 1299,
      "##errd": 1300,
      "##, 'Ann": 1301,
      "##ohn\n": 1302,
      "##jann": 1303,
      "## (ss=weich) '": 1304,
      "##off (s=scharf)\n": 1305,
      "##s=weich) ": 1306,
      "##ähr\n": 1307,
      "##ehs": 1308,
      "##äkk's": 1309,
      "## (sch=stimmlos), '": 1310,
      "##sch (sch=stl.)\n": 1311,
      "Korr": 1312,
      "##e (sch=stl.)\n": 1313,
      "##Nikko'l": 1314,
      "##burrk": 1315,
      "##pp\n": 1316,
      "## (sch=stl.), 'M": 1317,
      "##ichaehl": 1318,
      "## eww": 1319,
      "##ä'n": 1320,
      "## (sch=stl., ss=scharf)\n": 1321,
      "'Ö": 1322,
      "##e'p": 1323,
      "##o-": 1324,
      "##ä't": 1325,
      "##annt\n": 1326,
      "##ng-g": 1327,
      "##ugg": 1328,
      "##laff": 1329,
      "##äwwi": 1330,
      "##i'p": 1331,
      "##ämmp": 1332,
      "##Uh": 1333,
      "## (o=nasal)\n": 1334,
      "##s=weich, 2.": 1335,
      "##o'a": 1336,
      "##ihta\n": 1337,
      "##ahf": 1338,
      "##ehk": 1339,
      "##egg": 1340,
      "##berr": 1341,
      "##s=scharf; ": 1342,
      "##e'f": 1343,
      "##iss (ss=scharf), ": 1344,
      "## (s=scharf), 'M": 1345,
      "##o'hamm": 1346,
      "##akk\n": 1347,
      "## the": 1348,
      "##ärri": 1349,
      "##ahrt": 1350,
      "Bl": 1351,
      "##uttsch": 1352,
      "##=weich": 1353,
      "##änn't": 1354,
      "Ass": 1355,
      "##ni": 1356,
      "##a, M": 1357,
      "##, 'Äll": 1358,
      "##a, 'M": 1359,
      "'Pl": 1360,
      "##bbd": 1361,
      "##off (S=scharf)\n": 1362,
      "##riht": 1363,
      "##'na": 1364,
      "## 'St": 1365,
      "##Ann'dreh-": 1366,
      "##ahbl": 1367,
      "## (ss=scharf), 'M": 1368,
      "##haimm": 1369,
      "'Härr": 1370,
      "##la ": 1371,
      "##ass (ss=scharf), ": 1372,
      "##ollf\n": 1373,
      "Orr": 1374,
      "##ühl": 1375,
      "## (th": 1376,
      "##u'ann": 1377,
      "##i'li": 1378,
      "##A'l": 1379,
      "##uhr\n": 1380,
      "##sw": 1381,
      "##l.), '": 1382,
      "##rinn": 1383,
      "##oiss": 1384,
      "##auss (ss=scharf)\n": 1385,
      "##jänn": 1386,
      "##illipp": 1387,
      "## (S=weich) '": 1388,
      "##ihf": 1389,
      "##orrg": 1390,
      "## (S=weich) ": 1391,
      "##Särr": 1392,
      "## (ss=scharf) '": 1393,
      "## (S=weich, ss=scharf)\n": 1394,
      "##ohmass (ss=scharf)\n": 1395,
      "##s=scharf, 2.": 1396,
      "##si (s=scharf)\n": 1397,
      "Oh": 1398,
      "Bärr": 1399,
      "##ih-ass (ss=scharf)\n": 1400,
      "'Arr": 1401,
      "## (s=scharf), M": 1402,
      "## (a=nasal) ": 1403,
      "Me'": 1404,
      "##s+": 1405,
      "##Änn": 1406,
      "##li\n": 1407,
      "##i'ohn": 1408,
      "##se (s=weich)\n": 1409,
      "##ich (ch wie ich)\n": 1410,
      "## (sch=sth., ss=scharf)\n": 1411,
      "##=nasal, ": 1412,
      "##ottsch": 1413,
      "## (1.sch=sth.": 1414,
      "##schtainn": 1415,
      "Barr": 1416,
      "##orrd": 1417,
      "## (ch wie ach) ": 1418,
      "##assk": 1419,
      "Ah": 1420,
      "Fr": 1421,
      "##rih-": 1422,
      "##bärrt": 1423,
      "##Ädd": 1424,
      "##o (sch=sth.)\n": 1425,
      "##Will": 1426,
      "Äss": 1427,
      "##m\n": 1428,
      "##o (o=nasal)\n": 1429,
      "Akk": 1430,
      "## (a=nasal), ": 1431,
      "##uhg": 1432,
      "## Ah": 1433,
      "The (Th=engl., st": 1434,
      "## O": 1435,
      "##i-": 1436,
      "##aurr": 1437,
      "##Frass": 1438,
      "##iddsch": 1439,
      "##audd": 1440,
      "##; s=scharf)\n": 1441,
      "Inn": 1442,
      "##ä (ä=nasal)\n": 1443,
      "##i'f": 1444,
      "##Allä'ksannda (s=scharf)\n": 1445,
      "##in": 1446,
      "##autt": 1447,
      "## (ss=weich, ": 1448,
      "##harrt\n": 1449,
      "##ang-g": 1450,
      "##o'se": 1451,
      "##aunnt": 1452,
      "## (2xss=scharf)": 1453,
      "##akks": 1454,
      "##e-": 1455,
      "'Bärr": 1456,
      "##äkkt": 1457,
      "##bärrk\n": 1458,
      "##ohsa": 1459,
      "##linn": 1460,
      "## b": 1461,
      "##a'ch": 1462,
      "##oumm": 1463,
      "##ä'r": 1464,
      "##Schtäffann": 1465,
      "##arr's": 1466,
      "## (s=weich, ss=scharf)\n": 1467,
      "## (ss+s=scharf)": 1468,
      "##illjemm\n": 1469,
      "Pl": 1470,
      "##ikka\n": 1471,
      "##äimms (sch=sth., ": 1472,
      "##ichaehl (ch wie ich)\n": 1473,
      "##u'sch": 1474,
      "Koll": 1475,
      "'Sp": 1476,
      "##epp": 1477,
      "##rill": 1478,
      "##,st": 1479,
      "##rädd": 1480,
      "##i'schäll": 1481,
      "##Br": 1482,
      "## de '": 1483,
      "## (sch=stl.), M": 1484,
      "##fonn\n": 1485,
      "Bäll": 1486,
      "##cht": 1487,
      "Scht": 1488,
      "##jäss": 1489,
      "##a (S=scharf) ": 1490,
      "## (S=weich, s=scharf)\n": 1491,
      "##ahjäff": 1492,
      "## 'O": 1493,
      "##ikks": 1494,
      "##ohsäff": 1495,
      "##a'rah": 1496,
      "'Ärr": 1497,
      "##denn": 1498,
      "##ihtsch": 1499,
      "##pl": 1500,
      "## (1.a=nasal": 1501,
      "##, 'Sch": 1502,
      "##loss": 1503,
      "##ahk\n": 1504,
      "##älli": 1505,
      "'Schw": 1506,
      "##üht": 1507,
      "##anntsch": 1508,
      "##ann't": 1509,
      "##aikkell\n": 1510,
      "##äwwe": 1511,
      "##outt": 1512,
      "##Ahd": 1513,
      "##enn (s=scharf)\n": 1514,
      "##ga\n": 1515,
      "##ehl\n": 1516,
      "##Ann'tohni": 1517,
      "##p\n": 1518,
      "##'ri": 1519,
      "##Scha (Sch=sth., ": 1520,
      "A'l": 1521,
      "##n (s=scharf)\n": 1522,
      "##ahsi": 1523,
      "##ärr\n": 1524,
      "##ra\n": 1525,
      "##Robb": 1526,
      "##a, 'J": 1527,
      "##nd": 1528,
      "##i'ann": 1529,
      "Ärr": 1530,
      "## (Sch=stl": 1531,
      "## (sch=sth., s=scharf)": 1532,
      "##äss (ss=scharf), '": 1533,
      "##e (sch=sth.)\n": 1534,
      "##ahj": 1535,
      "##, 'St": 1536,
      "##enn (ss=scharf)\n": 1537,
      "##arrtihn\n": 1538,
      "A's": 1539,
      "'Fr": 1540,
      "##'geh": 1541,
      "##ohdsch": 1542,
      "##ahra\n": 1543,
      "## (1.sch=sth., 2.": 1544,
      "##Pehta\n": 1545,
      "##issk": 1546,
      "##a (Sch=stl.), '": 1547,
      "##'sa": 1548,
      "##kk\n": 1549,
      "##illjemm": 1550,
      "##a M": 1551,
      "##mm\n": 1552,
      "## (Sch=stl.) '": 1553,
      "all": 1554,
      "##äischenn": 1555,
      "##aussn": 1556,
      "'Tr": 1557,
      "##ah-u": 1558,
      "'Ohb": 1559,
      "##ihwenn": 1560,
      "Abb": 1561,
      "##orrsch": 1562,
      "##ikks (s=scharf)\n": 1563,
      "##owwi": 1564,
      "##orrk": 1565,
      "##Inn": 1566,
      "##st (s=scharf)\n": 1567,
      "##jäww": 1568,
      "##angkt": 1569,
      "##e (S=weich)\n": 1570,
      "##u'g": 1571,
      "##sch=stl.) ": 1572,
      "##rängk": 1573,
      "Konn": 1574,
      "##ienn": 1575,
      "##sl": 1576,
      "##Ehr": 1577,
      "## (1.s=weich, 2.": 1578,
      "Kall": 1579,
      "##l.), ": 1580,
      "##, Ch": 1581,
      "##i'tsch": 1582,
      "##ehri": 1583,
      "##a (sch=stl.), '": 1584,
      "##o (s=weich)\n": 1585,
      "##wittsch": 1586,
      "##ro\n": 1587,
      "##e'sch": 1588,
      "##uht\n": 1589,
      "'Mai": 1590,
      "'Gl": 1591,
      "## (2xsch=sth.)\n": 1592,
      "##issm": 1593,
      "##ahnoff": 1594,
      "##jäsch": 1595,
      "##Alläkk's": 1596,
      "##ehna\n": 1597,
      "##rahs": 1598,
      "##arrm": 1599,
      "## scharf": 1600,
      "##r\n": 1601,
      "##'br": 1602,
      "##ängko": 1603,
      "## (sch=stl., s=weich)\n": 1604,
      "##aht\n": 1605,
      "##a'ri": 1606,
      "## 'Tsch": 1607,
      "## (th=engl., sth.) '": 1608,
      "##bl": 1609,
      "##arf": 1610,
      "## 'Ah": 1611,
      "## (Sch+sch=stl.)\n": 1612,
      "##,s=scharf)\n": 1613,
      "##orrf\n": 1614,
      "## (ss=scharf), M": 1615,
      "##nall": 1616,
      "##=nas": 1617,
      "##ohw": 1618,
      "##äht": 1619,
      "##Katt": 1620,
      "##a'ts": 1621,
      "##a (s=scharf), '": 1622,
      "##ü's": 1623,
      "##ah-h": 1624,
      "##urrk": 1625,
      "## (s=scharf, sch=stl.)\n": 1626,
      "## fonn\n": 1627,
      "## Äss": 1628,
      "##Hann": 1629,
      "##irrch": 1630,
      "##a (S=scharf), ": 1631,
      "##Fl": 1632,
      "##i'ärr": 1633,
      "##rahd": 1634,
      "## (sch=stl)\n": 1635,
      "##chm": 1636,
      "##ff\n": 1637,
      "##nt": 1638,
      "##a (ss=scharf), '": 1639,
      "##ä'm": 1640,
      "##ass (ss=scharf), '": 1641,
      "##e (s=weich)\n": 1642,
      "## (sch=stimmlos), ": 1643,
      "## s": 1644,
      "##sch=stimmhaft)\n": 1645,
      "##illd": 1646,
      "Ku'": 1647,
      "##oinn": 1648,
      "## (sch=stl., ss=scharf)": 1649,
      "##airr": 1650,
      "##scharr": 1651,
      "##l.) ": 1652,
      "##arrb": 1653,
      "'Ann": 1654,
      "##Ihw": 1655,
      "##ai'": 1656,
      "## (ch wie ich), ": 1657,
      "##Frasso'a": 1658,
      "##ruhn": 1659,
      "##a=nasal), ": 1660,
      "##iahn": 1661,
      "##Ull": 1662,
      "##ahno": 1663,
      "##'lih": 1664,
      "##s=weich) '": 1665,
      "##äss (ss=scharf) ": 1666,
      "##romm": 1667,
      "## (Ch wie ach, ": 1668,
      "##älld": 1669,
      "##rokk": 1670,
      "##o'ann": 1671,
      "'Schp": 1672,
      "##s (s=scharf) ": 1673,
      "##addsch": 1674,
      "##le\n": 1675,
      "##raiss": 1676,
      "## (1.s=scharf, 2.": 1677,
      "##arr'd": 1678,
      "##ollts": 1679,
      "##, 'Robb": 1680,
      "## (ch wie ich) ": 1681,
      "## (1. ": 1682,
      "'Pr": 1683,
      "##senn (s=scharf), ": 1684,
      "##werr": 1685,
      "##ohrt": 1686,
      "##ümm": 1687,
      "##ihno\n": 1688,
      "##ko\n": 1689,
      "'Koll": 1690,
      "Sä": 1691,
      "##a (s=scharf), ": 1692,
      "##ki": 1693,
      "##Konn": 1694,
      "##ehw": 1695,
      "##se (s=scharf)\n": 1696,
      "##a'dihm": 1697,
      "##owwah": 1698,
      "##ihne\n": 1699,
      "##urrt": 1700,
      "##iss (ss=scharf) ": 1701,
      "Wall": 1702,
      "##io": 1703,
      "'Ädd": 1704,
      "##oi\n": 1705,
      "##kl": 1706,
      "##=stl.)\n": 1707,
      "Fl": 1708,
      "##re\n": 1709,
      "##annj": 1710,
      "##elld": 1711,
      "##o'wann": 1712,
      "Sann": 1713,
      "##ihdsch": 1714,
      "##rihg": 1715,
      "##Ann'dreh-ass (ss=scharf)\n": 1716,
      "## (a": 1717,
      "##ach (ch wie ach)\n": 1718,
      "##o=nasal), ": 1719,
      "## (S=scharf, sch=sth.)\n": 1720,
      "'Uh": 1721,
      "##jö": 1722,
      "##a'dsch": 1723,
      "##ohd\n": 1724,
      "##inns": 1725,
      "##öhl": 1726,
      "##ass (ss=scharf) ": 1727,
      "##Ämm": 1728,
      "##ennd\n": 1729,
      "##rehd": 1730,
      "## (Sch=sth.) ": 1731,
      "##ä=nasal) ": 1732,
      "##je, ": 1733,
      "##annu'": 1734,
      "##äll (s=scharf)\n": 1735,
      "##Frannts": 1736,
      "##kinn (sch=stl.)\n": 1737,
      "##ollfg": 1738,
      "##hällm": 1739,
      "##i, M": 1740,
      "##Däiwwidd\n": 1741,
      "##we\n": 1742,
      "## (th=engl. stl.)\n": 1743,
      "##, 'Eh": 1744,
      "## (ss=scharf, sch=stl.)\n": 1745,
      "##'koff": 1746,
      "##jjä": 1747,
      "Ka'": 1748,
      "##u ": 1749,
      "## 'Oh": 1750,
      "## (Sch=sth.), ": 1751,
      "##ascht": 1752,
      "## (ä=nasal)\n": 1753,
      "##a (ch wie ach)\n": 1754,
      "##a (sch=stl.), ": 1755,
      "##Iss": 1756,
      "##ärrd": 1757,
      "##allm": 1758,
      "##sch=stl.) '": 1759,
      "##idd\n": 1760,
      "##oukk": 1761,
      "##ih-a\n": 1762,
      "##ass'k": 1763,
      "##tsich": 1764,
      "Ill": 1765,
      "##, Dschonn (sch=sth.)\n": 1766,
      "##isch (sch=stl.)\n": 1767,
      "##bärrg": 1768,
      "##la\n": 1769,
      "##räi": 1770,
      "##l.) '": 1771,
      "##inn (s=scharf)\n": 1772,
      "##allk": 1773,
      "## (a=nasal, ": 1774,
      "##usch (sch=stl.)\n": 1775,
      "##=nas.": 1776,
      "##io\n": 1777,
      "##Hänn": 1778,
      "##i'ch": 1779,
      "## (Sch=stimmhaft)\n": 1780,
      "##ainn\n": 1781,
      "Änn": 1782,
      "##ittsa": 1783,
      "##ruh\n": 1784,
      "##witt": 1785,
      "##winn\n": 1786,
      "'Sw": 1787,
      "## (Sch=stimmhaft": 1788,
      "##allt\n": 1789,
      "##öhd": 1790,
      "##ess (ss=scharf), '": 1791,
      "## (ch wie ich) '": 1792,
      "##Anna\n": 1793,
      "##ik": 1794,
      "##Jo'hann": 1795,
      "##u'w": 1796,
      "##a fonn": 1797,
      "##=weich)\n": 1798,
      "##illipp\n": 1799,
      "Mekk": 1800,
      "##oubb": 1801,
      "Sm": 1802,
      "##s (s=weich) ": 1803,
      "##ann dehr": 1804,
      "##öhrn": 1805,
      "Mo'": 1806,
      "Sangkt": 1807,
      "##ä=nasal), ": 1808,
      "##,ss=scharf)\n": 1809,
      "## (Ch wie ach) ": 1810,
      "##or": 1811,
      "##Jann\n": 1812,
      "##arrg": 1813,
      "##ämmb": 1814,
      "##ahkopp": 1815,
      "##ann (S=scharf)\n": 1816,
      "##omm\n": 1817,
      "##Schtrahse (Sch=stl., s=scharf)\n": 1818,
      "##orrk\n": 1819,
      "'Tomm": 1820,
      "##arrko\n": 1821,
      "Ball": 1822,
      "##s\n": 1823,
      "## (S=weich, s=scharf)": 1824,
      "## (2xs=scharf)": 1825,
      "##u'h": 1826,
      "##bach (ch wie ach)\n": 1827,
      "A'm": 1828,
      "##a (Sch=stl.)\n": 1829,
      "##onn't": 1830,
      "##ihte\n": 1831,
      "##uss (ss=scharf) fonn": 1832,
      "Dü": 1833,
      "Gl": 1834,
      "##uaff": 1835,
      "##ke\n": 1836,
      "##ämm\n": 1837,
      "##, 'Däiwwidd\n": 1838,
      "##le": 1839,
      "##a (a=nasal)\n": 1840,
      "##Tohmass (ss=scharf)\n": 1841,
      "##illi\n": 1842,
      "##äimms (sch=sth., s=weich)\n": 1843,
      "##la '": 1844,
      "##rott": 1845,
      "##äschenn": 1846,
      "The (Th=engl. st": 1847,
      "##i'schäll (sch=stl.)\n": 1848,
      "## t": 1849,
      "##ä (s=scharf)\n": 1850,
      "##uhri": 1851,
      "##Scharf": 1852,
      "##i, Dsch": 1853,
      "La '": 1854,
      "##ojj": 1855,
      "##sch=sth.), ": 1856,
      "##'rah": 1857,
      "##reht\n": 1858,
      "Sp": 1859,
      "##'bärrt": 1860,
      "##ch wie ach), '": 1861,
      "##,'": 1862,
      "##Annt": 1863,
      "##ohsäff (s=weich)\n": 1864,
      "##Karrl": 1865,
      "##Pjähr\n": 1866,
      "##, Ä": 1867,
      "##innj": 1868,
      "##e'reh": 1869,
      "##ärr'm": 1870,
      "##oudd": 1871,
      "##aumm": 1872,
      "Ko'": 1873,
      "##arrts": 1874,
      "## (sch=sth., s=scharf)\n": 1875,
      "##ahrk\n": 1876,
      "##arrdo\n": 1877,
      "The (Th=engl., sth.) '": 1878,
      "##Schtäffann (Sch=stl.)\n": 1879,
      "##la'dihm": 1880,
      "## (s=scharf), 'J": 1881,
      "##o d": 1882,
      "##, O": 1883,
      "##enni\n": 1884,
      "##öhrg": 1885,
      "##ihm\n": 1886,
      "##i '": 1887,
      "## m": 1888,
      "##a (ss=weich)\n": 1889,
      "##ahrk": 1890,
      "##ä (ä=nasal), ": 1891,
      "## (ss=scharf) d": 1892,
      "##lott": 1893,
      "##ärr'nannd": 1894,
      "##al": 1895,
      "##Kriss't": 1896,
      "##, 'O": 1897,
      "##ih (S=scharf)\n": 1898,
      "##sall": 1899,
      "##ürrg": 1900,
      "##'geh (S=scharf)\n": 1901,
      "Me'k": 1902,
      "##i'h": 1903,
      "##e'h": 1904,
      "##ädd\n": 1905,
      "##fällt": 1906,
      "##Paull": 1907,
      "##s=scharf,": 1908,
      "##äff (sch=stl.)\n": 1909,
      "##abbri'": 1910,
      "##oh-hann": 1911,
      "##,s=scharf)": 1912,
      "##+a=nasal": 1913,
      "##a (ss=scharf), ": 1914,
      "##ropp": 1915,
      "##jörr": 1916,
      "##, 'Ih": 1917,
      "##inng": 1918,
      "##bbr": 1919,
      "'Wall": 1920,
      "##Frann'tsch": 1921,
      "Mall": 1922,
      "##fl": 1923,
      "##änni\n": 1924,
      "##rehn": 1925,
      "##ss=weich, 2.": 1926,
      "##ollfgang\n": 1927,
      "##oitt": 1928,
      "##e (Sch=stl.)\n": 1929,
      "## (s=st": 1930,
      "##inn (S=scharf)\n": 1931,
      "##el": 1932,
      "##ahtsch": 1933,
      "## (S+s=weich)\n": 1934,
      "##a'tih-ass (ss=scharf)\n": 1935,
      "## (Ch wie ich": 1936,
      "'Sm": 1937,
      "'Ämm": 1938,
      "##äi (sch=sth.)\n": 1939,
      "##öhm": 1940,
      "##aikk\n": 1941,
      "Ämm": 1942,
      "##S=scharf)\n": 1943,
      "##s (s=scharf)": 1944,
      "##kinn\n": 1945,
      "##ünnt": 1946,
      "##a, S": 1947,
      "##ukk\n": 1948,
      "## (o=nasal": 1949,
      "##äddsch": 1950,
      "##ehli": 1951,
      "## (sch=sth)\n": 1952,
      "##e 'S": 1953,
      "##gr": 1954,
      "##ittschedd": 1955,
      "##ss+": 1956,
      "## (ss=": 1957,
      "'Konn": 1958,
      "##ong\n": 1959,
      "Att": 1960,
      "##ü'l": 1961,
      "##erri\n": 1962,
      "##dschell": 1963,
      "##tsiuss": 1964,
      "Iss": 1965,
      "##, Dschonn": 1966,
      "##anni'": 1967,
      "##erri": 1968,
      "##äinn\n": 1969,
      "##o'a\n": 1970,
      "##errs": 1971,
      "##ahno\n": 1972,
      "##ing-g": 1973,
      "## (sch=stl.), 'D": 1974,
      "##Ann'tohnio\n": 1975,
      "##i (sch=stl.), ": 1976,
      "##a 'S": 1977,
      "##ä'd": 1978,
      "##, 'Ah": 1979,
      "##assn": 1980,
      "## (s=weich, ss=scharf)": 1981,
      "## (ch wie ach) '": 1982,
      "##u (s=scharf)\n": 1983,
      "##sst (ss=scharf)\n": 1984,
      "##Cho'se": 1985,
      "## (sch=sth., ss=weich)\n": 1986,
      "App": 1987,
      "##harrt": 1988,
      "##Gr": 1989,
      "##arrn": 1990,
      "## (Ch wie ach, s=scharf)\n": 1991,
      "##ss=scharf, 2.": 1992,
      "Sall": 1993,
      "##ann (ss=scharf)\n": 1994,
      "## (ch wie ach, ": 1995,
      "##äiww": 1996,
      "## (S=scharf, th=engl., st": 1997,
      "Kapp": 1998,
      "##assi": 1999,
      "A'b": 2000,
      "##äjj": 2001,
      "##ehro": 2002,
      "##ahrd": 2003,
      "Le'": 2004,
      "##a (s=scharf) ": 2005,
      "##ärrg": 2006,
      "##iss (s+ss=scharf)\n": 2007,
      "## Tsch": 2008,
      "##str": 2009,
      "##eh ": 2010,
      "'Mill": 2011,
      "##a, 'L": 2012,
      "##ühd": 2013,
      "##, 'Kl": 2014,
      "Parr": 2015,
      "##tenn\n": 2016,
      "##nj": 2017,
      "##ohch": 2018,
      "##akks (s=scharf)\n": 2019,
      "##rägg": 2020,
      "##allta\n": 2021,
      "'Sl": 2022,
      "##loss (ss=scharf)\n": 2023,
      "##äss't": 2024,
      "##äibb": 2025,
      "##, St": 2026,
      "##, 'Ädd": 2027,
      "##ungk": 2028,
      "##ällk": 2029,
      "##olld": 2030,
      "##Chu'ann": 2031,
      "##rämm": 2032,
      "##de '": 2033,
      "##ohli": 2034,
      "##'mahn": 2035,
      "##icht": 2036,
      "'Sannt": 2037,
      "##oss (ss=scharf), ": 2038,
      "## (sch=": 2039,
      "##sch=stl": 2040,
      "##ässko": 2041,
      "## (ch wie ach, s=scharf)\n": 2042,
      "'Äkk": 2043,
      "##okk\n": 2044,
      "##o (o=nasal), ": 2045,
      "##at": 2046,
      "##ohsch": 2047,
      "##uhn\n": 2048,
      "##off (ch wie ach)\n": 2049,
      "##äkks (s=scharf)\n": 2050,
      "##a'nj": 2051,
      "##ihld": 2052,
      "##äschennell": 2053,
      "##ahsa": 2054,
      "'Schl": 2055,
      "##wa\n": 2056,
      "##a'reh": 2057,
      "##uss (ss=scharf)": 2058,
      "##oulld": 2059,
      "Ih": 2060,
      "'Kall": 2061,
      "'Bänn": 2062,
      "##iss't": 2063,
      "##Äss": 2064,
      "##th=engl. st": 2065,
      "##ski (s=scharf), '": 2066,
      "Will": 2067,
      "'Sill": 2068,
      "##aiff": 2069,
      "##ou (sch=sth.)\n": 2070,
      "'Wässt": 2071,
      "Gu": 2072,
      "##ohbärrt\n": 2073,
      "##ehf": 2074,
      "##ikk't": 2075,
      "Agg": 2076,
      "##Ill": 2077,
      "##Hainn": 2078,
      "##ihsch": 2079,
      "##o'hammätt\n": 2080,
      "##Scha": 2081,
      "##ohrdsch": 2082,
      "##Allä'ksannd": 2083,
      "##Kw": 2084,
      "##, Tsch": 2085,
      "##ingenn\n": 2086,
      "Marr't": 2087,
      "##Bl": 2088,
      "##ihn (s=scharf)\n": 2089,
      "##ess (ss=scharf)": 2090,
      "##ott\n": 2091,
      "##ühn": 2092,
      "##, Kl": 2093,
      "##stenn": 2094,
      "##a'ri\n": 2095,
      "##ihno": 2096,
      "##rihm": 2097,
      "##lisch": 2098,
      "##Frasso'a (1.a=nasal": 2099,
      "## (3": 2100,
      "##inn (ss=scharf)\n": 2101,
      "##ass (ss=scharf)": 2102,
      "'Th": 2103,
      "##a, 'R": 2104,
      "Add": 2105,
      "##a (ss=scharf) ": 2106,
      "##errt": 2107,
      "'Ahr": 2108,
      "##oddsch": 2109,
      "##i'lipp\n": 2110,
      "Poll": 2111,
      "##ie\n": 2112,
      "'Holl": 2113,
      "##a de ": 2114,
      "## (s=scharf), S": 2115,
      "##a, A": 2116,
      "A'": 2117,
      "Samm": 2118,
      "##mai": 2119,
      "##ihri": 2120,
      "##a S": 2121,
      "##asch (sch=stl.)\n": 2122,
      "##uhri\n": 2123,
      "##änn'd": 2124,
      "## (sch=stl.), 'J": 2125,
      "## (1.sch=sth., 2.sch=stl.)\n": 2126,
      "##änntsch": 2127,
      "##errt\n": 2128,
      "'Pärr": 2129,
      "##a'rj": 2130,
      "##a'rihna\n": 2131,
      "##arrkuss (ss=scharf)\n": 2132,
      "##ihwenn (S=scharf)\n": 2133,
      "Kass": 2134,
      "Ka'l": 2135,
      "##eo'n": 2136,
      "##acht": 2137,
      "##öhk": 2138,
      "##önn": 2139,
      "##wiss": 2140,
      "##rimm": 2141,
      "'Käll": 2142,
      "##orrst": 2143,
      "'Akk": 2144,
      "##ch wie ach), ": 2145,
      "##äwwinn\n": 2146,
      "Oll": 2147,
      "##rr\n": 2148,
      "##Schakk": 2149,
      "'Ahd": 2150,
      "##sch=stimmlos": 2151,
      "##s (s=weich) '": 2152,
      "## (s=": 2153,
      "##ännt\n": 2154,
      "##onn's": 2155,
      "##älla\n": 2156,
      "##ahnd": 2157,
      "'Änn": 2158,
      "## (1.ss=weich, 2.": 2159,
      "## (S=scharf), M": 2160,
      "## (s=scharf, ch wie ach)\n": 2161,
      "##so": 2162,
      "##au'": 2163,
      "##Ro'": 2164,
      "##ihsi": 2165,
      "##innts": 2166,
      "'Kw": 2167,
      "'Bäkk": 2168,
      "##issenn": 2169,
      "## (2xsch=stl.), '": 2170,
      "## (S=scharf, ch wie ach)\n": 2171,
      "##'nj": 2172,
      "## (sch=sth., ss=scharf)": 2173,
      "##ohm\n": 2174,
      "##, 'Tomm": 2175,
      "##uhtw": 2176,
      "##icha'": 2177,
      "##ahrio\n": 2178,
      "##offski (s=scharf)\n": 2179,
      "##s+ss=scharf)\n": 2180,
      "##iahn (ss=scharf)\n": 2181,
      "##i, 'M": 2182,
      "##am": 2183,
      "##-t": 2184,
      "##uhch": 2185,
      "##arra\n": 2186,
      "##off, ": 2187,
      "##a, 'S": 2188,
      "##arrk\n": 2189,
      "##ahnoff\n": 2190,
      "##ohre\n": 2191,
      "##sch=sth.) ": 2192,
      "##freht\n": 2193,
      "##ahta\n": 2194,
      "##ahwitt\n": 2195,
      "##i (ss=scharf), ": 2196,
      "##i'ts": 2197,
      "##öht": 2198,
      "## (o=nasal), ": 2199,
      "##i'nj": 2200,
      "##, 'Ärr": 2201,
      "##uss't": 2202,
      "##oss (ss=scharf) ": 2203,
      "##äffski": 2204,
      "##ohlt": 2205,
      "##ehla\n": 2206,
      "##e, M": 2207,
      "##//": 2208,
      "##ahts": 2209,
      "##sakk": 2210,
      "'Bäll": 2211,
      "##inn (ch wie ach)\n": 2212,
      "## (S=weich, ss=scharf)": 2213,
      "'Pätt": 2214,
      "'Orr": 2215,
      "##nass": 2216,
      "Lih": 2217,
      "##ta\n": 2218,
      "##däll": 2219,
      "##ann'j": 2220,
      "##genn": 2221,
      "##Hanns": 2222,
      "##o'rih": 2223,
      "## (S+s=scharf, ": 2224,
      "Burr": 2225,
      "Sa'": 2226,
      "##= ": 2227,
      "##ihs (s=scharf)\n": 2228,
      "## (s=scharf) 'K": 2229,
      "##orrt\n": 2230,
      "##oss't": 2231,
      "##a 'K": 2232,
      "##juhs": 2233,
      "Bänn": 2234,
      "Kw": 2235,
      "##n (ss=scharf)\n": 2236,
      "##a (Sch=stl.), ": 2237,
      "##assp": 2238,
      "##aitt\n": 2239,
      "'Ü": 2240,
      "## k": 2241,
      "##schn": 2242,
      "##usstaff": 2243,
      "##u-": 2244,
      "##enn (S=scharf)\n": 2245,
      "##a, 'W": 2246,
      "## l": 2247,
      "## inn": 2248,
      "##a (S=scharf), '": 2249,
      "## 'Äll": 2250,
      "##), 'M": 2251,
      "##irrg": 2252,
      "##iann (ss=scharf)\n": 2253,
      "A'd": 2254,
      "##eb": 2255,
      "##fann\n": 2256,
      "##eh (s=scharf)\n": 2257,
      "##äff (s=scharf)\n": 2258,
      "##itsch": 2259,
      "##well": 2260,
      "'Karr": 2261,
      "##irr\n": 2262,
      "##lomm": 2263,
      "## dü": 2264,
      "##raitt": 2265,
      "##Ann'dreh\n": 2266,
      "##esst": 2267,
      "##ronn": 2268,
      "##räss": 2269,
      "##ill'j": 2270,
      "##ittscherrd": 2271,
      "## (th=engl. sth.) '": 2272,
      "##burrk\n": 2273,
      "Kamm": 2274,
      "Komm": 2275,
      "Ko'l": 2276,
      "##, 'All": 2277,
      "##itts (s=scharf)\n": 2278,
      "'Inn": 2279,
      "'Allt": 2280,
      "## fann\n": 2281,
      "Ma'": 2282,
      "##Orr": 2283,
      "##i'onn": 2284,
      "##ollt\n": 2285,
      "##ess (ss=weich)\n": 2286,
      "## (Ch wie ach, s=scharf)": 2287,
      "##i (Sch=stl.)\n": 2288,
      "##i (sch=stl.), '": 2289,
      "##o '": 2290,
      "##ihs (s=weich)\n": 2291,
      "##off (Sch=stl.)\n": 2292,
      "'Woll": 2293,
      "## (s=scharf), 'R": 2294,
      "##a K": 2295,
      "##äng-g": 2296,
      "##ss=weich) '": 2297,
      "##sd": 2298,
      "##aich": 2299,
      "##che": 2300,
      "##ahjäff\n": 2301,
      "##ehp": 2302,
      "##dschi": 2303,
      "##issmuss": 2304,
      "A'k": 2305,
      "##iwwi": 2306,
      "## p": 2307,
      "##inn (sch=sth.)\n": 2308,
      "##raff": 2309,
      "##'haussn": 2310,
      "Oss": 2311,
      "##, Lu'": 2312,
      "## (Sch=stl., ss=scharf)": 2313,
      "'Hänn": 2314,
      "##ossk": 2315,
      "##a 'M": 2316,
      "##e 'K": 2317,
      "## scharf)\n": 2318,
      "##, All": 2319,
      "##a P": 2320,
      "##Re'n": 2321,
      "##aiww": 2322,
      "##olla\n": 2323,
      "##olli\n": 2324,
      "'Witt": 2325,
      "##anndro": 2326,
      "##hauss": 2327,
      "##o-h": 2328,
      "##ihk\n": 2329,
      "##enns (s=scharf)\n": 2330,
      "##uhsch": 2331,
      "##ohra\n": 2332,
      "## (Sch=sth., s=weich)\n": 2333,
      "##ahbl (A": 2334,
      "##du": 2335,
      "##Luhk": 2336,
      "##Pohl\n": 2337,
      "##a'wi": 2338,
      "##o'j": 2339,
      "##ain": 2340,
      "##u'p": 2341,
      "##thenn": 2342,
      "##Scho's": 2343,
      "'Amm": 2344,
      "##eh-orrk\n": 2345,
      "Kurr": 2346,
      "##ongk": 2347,
      "##ärrell": 2348,
      "##ärrt\n": 2349,
      "##aibb": 2350,
      "##älli\n": 2351,
      "##rasch": 2352,
      "Ma't": 2353,
      "##ni\n": 2354,
      "##sch=stl., s=scharf)\n": 2355,
      "##ri'g": 2356,
      "##ss=weich) ": 2357,
      "##la'dihmihr\n": 2358,
      "Gall": 2359,
      "## Th": 2360,
      "##üpp": 2361,
      "##rahf": 2362,
      "##ä'sch": 2363,
      "##e'basst": 2364,
      "## th": 2365,
      "##illa\n": 2366,
      "##unn\n": 2367,
      "Kimm": 2368,
      "##s (S=scharf, ": 2369,
      "##Willjemm\n": 2370,
      "## 'I": 2371,
      "##orr't": 2372,
      "##a B": 2373,
      "##o (o=nasal) ": 2374,
      "##Sk": 2375,
      "##i (ss=scharf), '": 2376,
      "##a (s=scharf)": 2377,
      "##Ännd": 2378,
      "##ärrb": 2379,
      "##öhg": 2380,
      "##juh\n": 2381,
      "##e 'W": 2382,
      "##dorrf (s=scharf)\n": 2383,
      "##rihdrich": 2384,
      "## (1.s=scharf, 2.s=weich)\n": 2385,
      "##ärrs": 2386,
      "##issko": 2387,
      "##ikko\n": 2388,
      "'Oll": 2389,
      "##A'd": 2390,
      "##arr (ss=scharf)\n": 2391,
      "##ärr'l": 2392,
      "##lokk": 2393,
      "##oss (ss=scharf), '": 2394,
      "'Ännd": 2395,
      "##schtätt": 2396,
      "##Scha (Sch=sth., a=nasal) ": 2397,
      "## (1.s=weich, 2.s=scharf)\n": 2398,
      "##ehna": 2399,
      "'Braunn": 2400,
      "'Unnt": 2401,
      "##ikktohr\n": 2402,
      "##chmätt": 2403,
      "Dr": 2404,
      "##ma\n": 2405,
      "##ol": 2406,
      "##ihth": 2407,
      "##ich (ch wie ich), '": 2408,
      "##änniss (ss=scharf)\n": 2409,
      "'Mäll": 2410,
      "##skajj": 2411,
      "'Fisch": 2412,
      "##ess (ss=scharf) ": 2413,
      "##irrsch": 2414,
      "##o'drihg": 2415,
      "##sche (sch=stl.)\n": 2416,
      "## (s=scharf; ": 2417,
      "##u'ch": 2418,
      "'Häll": 2419,
      "##öh (S=scharf) '": 2420,
      "## (S+ss=scharf, ": 2421,
      "'Dschonn": 2422,
      "##o=nasal": 2423,
      "##-sch": 2424,
      "##Wall": 2425,
      "##ammann": 2426,
      "##ahls": 2427,
      "##ull\n": 2428,
      "##Hanns (s=scharf)\n": 2429,
      "##a (sch=stimmlos)\n": 2430,
      "##I'w": 2431,
      "##o'ra": 2432,
      "##uhf": 2433,
      "##onnj": 2434,
      "'Monnt": 2435,
      "##urrt\n": 2436,
      "##'wihl": 2437,
      "##ritts (s=scharf)\n": 2438,
      "## (alle s=scharf)\n": 2439,
      "##böhrg": 2440,
      "##jämm": 2441,
      "'Waiss": 2442,
      "## (s=scharf), 'D": 2443,
      "##wwenn": 2444,
      "##lenn": 2445,
      "##di": 2446,
      "##är": 2447,
      "##Pätt": 2448,
      "##ännsi": 2449,
      "##a, 'D": 2450,
      "##a, 'H": 2451,
      "##ski (s=scharf), ": 2452,
      "##schtatt": 2453,
      "##Karrl\n": 2454,
      "##hällm\n": 2455,
      "## (3x": 2456,
      "##anna\n": 2457,
      "##aigg": 2458,
      "## (sch=stl.), 'S": 2459,
      "##ss=weich), '": 2460,
      "Ou'": 2461,
      "##-a\n": 2462,
      "##ärr't": 2463,
      "'Müll": 2464,
      "##jäwwittsch": 2465,
      "##ühb": 2466,
      "## Ämm": 2467,
      "##, 'Pehta\n": 2468,
      "Mekk'": 2469,
      "Ka's": 2470,
      "##,ss=scharf)": 2471,
      "##ahdsch": 2472,
      "##riddsch": 2473,
      "##iss (ss=scharf)": 2474,
      "##e 'M": 2475,
      "## (a=nasal, s=scharf)\n": 2476,
      "##, Särr": 2477,
      "'Öh": 2478,
      "Borr": 2479,
      "##loh": 2480,
      "## all": 2481,
      "##roff": 2482,
      "##Dscho'wann": 2483,
      "##a, J": 2484,
      "##ähn": 2485,
      "## 'Br": 2486,
      "##ässt (ss=scharf)\n": 2487,
      "## (Ch wie ach), ": 2488,
      "##, 'Maikkell\n": 2489,
      "## St": 2490,
      "##raienn\n": 2491,
      "## (ss=scharf, s=weich)\n": 2492,
      "##, Scha (Sch=sth., ": 2493,
      "Sw": 2494,
      "##l (s=scharf)\n": 2495,
      "##ladd": 2496,
      "##o=nasal) ": 2497,
      "##e-h": 2498,
      "##iss (ss=weich)\n": 2499,
      "'Robb": 2500,
      "##ang'k": 2501,
      "## (o=nasal) ": 2502,
      "##Ärrn": 2503,
      "##th=engl., stl.)\n": 2504,
      "Ka'p": 2505,
      "Pa'l": 2506,
      "##likk": 2507,
      "## 'Scht": 2508,
      "##ärrna\n": 2509,
      "##engl.": 2510,
      "A'g": 2511,
      "##hohf": 2512,
      "## ennd": 2513,
      "##ökk": 2514,
      "##ihts": 2515,
      "##ischt": 2516,
      "##ehra\n": 2517,
      "##ung\n": 2518,
      "## unnt": 2519,
      "##da\n": 2520,
      "##ött": 2521,
      "##3.": 2522,
      "##orr'n": 2523,
      "##Sch=st": 2524,
      "##loww": 2525,
      "##uss (ss=scharf), '": 2526,
      "## (S=scharf, sch=stl.), '": 2527,
      "'Äss": 2528,
      "##ohnikka\n": 2529,
      "##e 'B": 2530,
      "Ann'd": 2531,
      "##Frann's": 2532,
      "##ia": 2533,
      "##oittsch": 2534,
      "##Abbd": 2535,
      "##oht\n": 2536,
      "## (S=scharf; ": 2537,
      "##ihn (sch=sth.)\n": 2538,
      "'Wäll": 2539,
      "'Ohl": 2540,
      "## (th=eng": 2541,
      "Mann": 2542,
      "##l., ": 2543,
      "##i'ahna\n": 2544,
      "##ärr's": 2545,
      "##onns": 2546,
      "##tschikk": 2547,
      "## (th=engl.,st": 2548,
      "##ohla\n": 2549,
      "##ahdi": 2550,
      "##kisst": 2551,
      "##Att": 2552,
      "##ahrls": 2553,
      "'Hamm": 2554,
      "'Ass": 2555,
      "'App": 2556,
      "##ommb": 2557,
      "##igg's": 2558,
      "##wänn": 2559,
      "##E'l": 2560,
      "##wehr": 2561,
      "##wi\n": 2562,
      "##i M": 2563,
      "##; ss=scharf)\n": 2564,
      "##Frann'tschässko": 2565,
      "##esch": 2566,
      "##e (ss=weich)\n": 2567,
      "##warr": 2568,
      "##-s": 2569,
      "##issuaff": 2570,
      "##auff": 2571,
      "## (ch wie ach, ss=scharf)\n": 2572,
      "##äigg": 2573,
      "Bo": 2574,
      "'Marr": 2575,
      "##riht\n": 2576,
      "'Rainn": 2577,
      "##ummb": 2578,
      "## Beh": 2579,
      "## (sch=stl., ch wie ach)\n": 2580,
      "##ihna (ss=scharf)\n": 2581,
      "##laff (ss=scharf)\n": 2582,
      "##wikk": 2583,
      "##enn (sch=stl.)\n": 2584,
      "'Säll": 2585,
      "##atts (s=scharf)\n": 2586,
      "##ells": 2587,
      "##i, 'Dsch": 2588,
      "##senn (sch=sth., s=scharf)": 2589,
      "##ürrgn\n": 2590,
      "##ro'": 2591,
      "##Ott": 2592,
      "##a'äll\n": 2593,
      "'Krisst": 2594,
      "## (s=scharf), 'S": 2595,
      "## (s=scharf), 'L": 2596,
      "'Dr": 2597,
      "##'lihn": 2598,
      "##irrk": 2599,
      "##äff\n": 2600,
      "##jott": 2601,
      "##ja'k": 2602,
      "##Frangk": 2603,
      "##Öhr": 2604,
      "##i'na": 2605,
      "'Mahr": 2606,
      "##ritt\n": 2607,
      "##wenn": 2608,
      "##änna\n": 2609,
      "'Hau": 2610,
      "'Däiwwi": 2611,
      "##edd\n": 2612,
      "##uhlia\n": 2613,
      "No": 2614,
      "##wai": 2615,
      "##-k": 2616,
      "##Ts": 2617,
      "##ohse": 2618,
      "##äss (ss=scharf)": 2619,
      "##'koffski": 2620,
      "##ohrn": 2621,
      "##a'tall": 2622,
      "##isst (ss=scharf)\n": 2623,
      "##uhdollf\n": 2624,
      "##ännjell\n": 2625,
      "Katt": 2626,
      "Sa'l": 2627,
      "## Ch": 2628,
      "##ng'g": 2629,
      "##rih\n": 2630,
      "##sk (s=scharf)\n": 2631,
      "## (sch=sth., s=weich)\n": 2632,
      "##Jo'hanness (ss=scharf)\n": 2633,
      "## amm": 2634,
      "##Bärrn": 2635,
      "##ihj": 2636,
      "'Kahr": 2637,
      "##öhs": 2638,
      "##a'rih-a ": 2639,
      "## (a+": 2640,
      "##ihja": 2641,
      "##e'rah": 2642,
      "##änns (s=scharf)\n": 2643,
      "##ällt\n": 2644,
      "'Hämm": 2645,
      "## (th=engl., stimmlos)\n": 2646,
      "##senn (s=scharf)\n": 2647,
      "##osch (sch=stl.)\n": 2648,
      "##ehn\n": 2649,
      "##inndsch": 2650,
      "##ddu'": 2651,
      "##all (ss=scharf)\n": 2652,
      "##ässp": 2653,
      "##ess (ss=scharf), ": 2654,
      "##ra (s=scharf)\n": 2655,
      "##ännd\n": 2656,
      "## (S=scharf), 'M": 2657,
      "##u'sann": 2658,
      "Dih": 2659,
      "## Äll": 2660,
      "##te\n": 2661,
      "##a (sch=stl.) ": 2662,
      "##ä=nasal": 2663,
      "##risch": 2664,
      "##a, 'G": 2665,
      "Ka'r": 2666,
      "'Simm": 2667,
      "##'lj": 2668,
      "##okks": 2669,
      "##obb\n": 2670,
      "##utts": 2671,
      "##sn (s=weich), '": 2672,
      "##Frasso'a (1.a=nasal, ss=scharf)\n": 2673,
      "Ma'k": 2674,
      "##o (s=scharf) ": 2675,
      "##ohna\n": 2676,
      "##ann (s=scharf)\n": 2677,
      "'Willjemm": 2678,
      "'Ross": 2679,
      "##otts": 2680,
      "## 'Kl": 2681,
      "##ross": 2682,
      "##illt": 2683,
      "'Marrk": 2684,
      "##a, R": 2685,
      "## (s=weich), M": 2686,
      "##Tomm\n": 2687,
      "##Frannts (s=scharf)\n": 2688,
      "Ba'": 2689,
      "Li'": 2690,
      "##o (s=scharf), ": 2691,
      "##ab": 2692,
      "##ä'g": 2693,
      "##Pl": 2694,
      "##ohri\n": 2695,
      "##ahni\n": 2696,
      "## (sch=stl.), S": 2697,
      "##, 'Willjemm\n": 2698,
      "Ma's": 2699,
      "##ou'": 2700,
      "##ü\n": 2701,
      "##ch=": 2702,
      "##ng\n": 2703,
      "##illm": 2704,
      "## (Sch=stl., ss=scharf)\n": 2705,
      "##ohrd": 2706,
      "## (sch=stl.), 'R": 2707,
      "## the (th=engl., sth.) '": 2708,
      "##i (s=weich)\n": 2709,
      "##ü'n": 2710,
      "##, 'Nikk": 2711,
      "##ih (s=scharf)\n": 2712,
      "## 'Eh": 2713,
      "##inn'j": 2714,
      "##'tj": 2715,
      "##'koff\n": 2716,
      "##a 'W": 2717,
      "##, 'Karr": 2718,
      "##, 'Ännd": 2719,
      "##'bärrto\n": 2720,
      "Sarr": 2721,
      "## All": 2722,
      "##e, 'M": 2723,
      "##, 'Ch": 2724,
      "##sal": 2725,
      "##assdorrf": 2726,
      "##th (th=engl., stl.": 2727,
      "'Annd": 2728,
      "## (1.ss=scharf, 2.": 2729,
      "##juht": 2730,
      "##ong-g": 2731,
      "A'n": 2732,
      "##il": 2733,
      "##nbärrk": 2734,
      "##em": 2735,
      "##Gabbri'": 2736,
      "##witts": 2737,
      "##ärrts": 2738,
      "##onn (s=scharf)\n": 2739,
      "##allw": 2740,
      "##iss (s+ss=scharf)": 2741,
      "##reh-": 2742,
      "##'gehn": 2743,
      "##u'säpp": 2744,
      "##attsi'ohn": 2745,
      "##ärrmann\n": 2746,
      "Baht": 2747,
      "##o'nall": 2748,
      "##uhl\n": 2749,
      "##Scharrl": 2750,
      "##äss (s+ss=scharf)": 2751,
      "##amm'b": 2752,
      "## (S=scharf, ä=nasal) ": 2753,
      "## 'Ts": 2754,
      "## 'Tsw": 2755,
      "##oussiff": 2756,
      "##'st": 2757,
      "##jo\n": 2758,
      "##roww": 2759,
      "Sl": 2760,
      "##Pr": 2761,
      "##ahs (s=scharf)\n": 2762,
      "## 'm": 2763,
      "##ärrw": 2764,
      "##illi": 2765,
      "##jäkk": 2766,
      "##sch=stl., 2.": 2767,
      "## (s=scharf), 'W": 2768,
      "##rahk": 2769,
      "##ähs": 2770,
      "## (th=engl., sth.)\n": 2771,
      "## (S=weich, sch=stl.)\n": 2772,
      "''": 2773,
      "Pe't": 2774,
      "##gohr\n": 2775,
      "##Amm": 2776,
      "##Ahr": 2777,
      "##e M": 2778,
      "##uhsi": 2779,
      "##äkk (sch=sth.)\n": 2780,
      "##a 'Schtrahse": 2781,
      "##eh-o\n": 2782,
      "## (ss=scharf, ch wie ach)\n": 2783,
      "##ss=weich), ": 2784,
      "##owwittsch (sch=stl.)\n": 2785,
      "Ka'm": 2786,
      "## w": 2787,
      "##jonn": 2788,
      "##Add": 2789,
      "##a'na": 2790,
      "'Borr": 2791,
      "##off (s=weich)\n": 2792,
      "##oupp": 2793,
      "##ggn": 2794,
      "##öhb": 2795,
      "##i S": 2796,
      "##i K": 2797,
      "##rihdrich (ch wie ich)\n": 2798,
      "##icha'ill": 2799,
      "##lerr": 2800,
      "##i (sch=sth.) ": 2801,
      "##o, M": 2802,
      "##ahst": 2803,
      "## (s=scharf) 'S": 2804,
      "'Korr": 2805,
      "##off (ss=weich)\n": 2806,
      "##i, S": 2807,
      "##annu'äll\n": 2808,
      "Bu'": 2809,
      "Makk": 2810,
      "##linn\n": 2811,
      "##jatt": 2812,
      "##Urr": 2813,
      "##, 'I": 2814,
      "'Rih-": 2815,
      "##Annd": 2816,
      "Allt": 2817,
      "## Tseh": 2818,
      "##mittri\n": 2819,
      "##, Äll": 2820,
      "##, 'Dschonn": 2821,
      "##essenn": 2822,
      "##ännderr": 2823,
      "##, 'Hänn": 2824,
      "## (Sch=stl., ch wie ach)\n": 2825,
      "##Lu'i\n": 2826,
      "##ihw (S=scharf)\n": 2827,
      "##arr'sih-": 2828,
      "##schl": 2829,
      "'Bahr": 2830,
      "##ahns": 2831,
      "## (sch=stl.), 'L": 2832,
      "##a 'L": 2833,
      "##ihmonn": 2834,
      "##riss'tihn": 2835,
      "## 'Aill": 2836,
      "The (Th=engl. sth.) '": 2837,
      "##i (ss=weich)\n": 2838,
      "##on": 2839,
      "##rass": 2840,
      "##ak": 2841,
      "##Kahr": 2842,
      "##ahri\n": 2843,
      "##ätte\n": 2844,
      "##ätt (s=weich)\n": 2845,
      "'Poll": 2846,
      "'Abb": 2847,
      "## de la ": 2848,
      "##sp": 2849,
      "##ä'b": 2850,
      "##ihsa": 2851,
      "##ill'w": 2852,
      "##therr": 2853,
      "##ollo\n": 2854,
      "'Oss": 2855,
      "##Nikko'lai\n": 2856,
      "Morr": 2857,
      "Ma'l": 2858,
      "##öss": 2859,
      "##ehsi": 2860,
      "##o'ach": 2861,
      "##aukk": 2862,
      "##'laff": 2863,
      "##rä\n": 2864,
      "##rosch": 2865,
      "##a 'B": 2866,
      "##ähri": 2867,
      "##sch=sth.), '": 2868,
      "## (sch=stimmhaft), ": 2869,
      "##a'bäll": 2870,
      "##, 'Tsch": 2871,
      "Kann": 2872,
      "##Fi'lipp\n": 2873,
      "##chn": 2874,
      "##i'dsch": 2875,
      "##ahnu": 2876,
      "##'liss": 2877,
      "Thi": 2878,
      "## (sch=stl), '": 2879,
      "## (Sch=stimmlos), '": 2880,
      "##Särr'geh (S=scharf)\n": 2881,
      "Mu'": 2882,
      "Wa'l": 2883,
      "##ie": 2884,
      "##'li": 2885,
      "## 'd": 2886,
      "##ärrk\n": 2887,
      "'Sall": 2888,
      "## (s=scharf) 'M": 2889,
      "##owwa, ": 2890,
      "##bärrk (s=scharf)\n": 2891,
      "Me'K": 2892,
      "##uhna": 2893,
      "##aipp": 2894,
      "##jädd": 2895,
      "##raht\n": 2896,
      "'No": 2897,
      "## (sch=stl.), 'B": 2898,
      "##, Karr": 2899,
      "##, A'l": 2900,
      "Grohs": 2901,
      "Aww": 2902,
      "Koss": 2903,
      "Soll": 2904,
      "##o (ch wie ach)\n": 2905,
      "##Fillipp\n": 2906,
      "##ngg": 2907,
      "##ikkell": 2908,
      "##rahm": 2909,
      "##rahg": 2910,
      "##, 'Tohmass (ss=scharf)\n": 2911,
      "##'ri (A=nasal)\n": 2912,
      "Urr": 2913,
      "##lannt": 2914,
      "##inna\n": 2915,
      "##nasal": 2916,
      "##ach)\n": 2917,
      "## (2xsch=stl.), ": 2918,
      "## (ch wie ich, s=scharf)\n": 2919,
      "##a, 'T": 2920,
      "##ä'ch": 2921,
      "##ikk'tohri": 2922,
      "##'jä": 2923,
      "##ad": 2924,
      "##ä'w": 2925,
      "##uhw": 2926,
      "##arrs": 2927,
      "##orrm": 2928,
      "## (s=scharf), 'B": 2929,
      "## (ss=scharf), S": 2930,
      "##rädd\n": 2931,
      "##'geh\n": 2932,
      "## 'Bl": 2933,
      "##, Jo'hann": 2934,
      "##ächt": 2935,
      "##ünnta\n": 2936,
      "Emm": 2937,
      "Färr": 2938,
      "##a (ss=scharf)": 2939,
      "##-unnt": 2940,
      "##a'ra": 2941,
      "##anns (s=scharf)\n": 2942,
      "'Bau": 2943,
      "## (s=scharf), 'H": 2944,
      "'Ahb": 2945,
      "##schtrahse (sch=stl., s=scharf)\n": 2946,
      "## ännd": 2947,
      "##'G": 2948,
      "##rou": 2949,
      "##äwwittsch": 2950,
      "##-enn\n": 2951,
      "##i'ang": 2952,
      "'Luh-": 2953,
      "##räitt": 2954,
      "##ang'g": 2955,
      "'Ott": 2956,
      "##ehr\n": 2957,
      "##ahniäll\n": 2958,
      "##unndatt": 2959,
      "##oh-hann\n": 2960,
      "##Scha (Sch=sth., a=nasal)\n": 2961,
      "Matt": 2962,
      "Nikk": 2963,
      "Ru'": 2964,
      "Su'": 2965,
      "##fihld": 2966,
      "##Ni'k": 2967,
      "##inntsch": 2968,
      "##ach'm": 2969,
      "##allp": 2970,
      "##ollk": 2971,
      "##aunn\n": 2972,
      "'Wainn": 2973,
      "'Gärr": 2974,
      "Schp": 2975,
      "##akkt": 2976,
      "##si (s=weich)\n": 2977,
      "## Kw": 2978,
      "##, 'Will": 2979,
      "##äimms": 2980,
      "##ethenn": 2981,
      "## s=scharf)\n": 2982,
      "##ns": 2983,
      "##'tätt\n": 2984,
      "'Morr": 2985,
      "'Hann": 2986,
      "##jä'": 2987,
      "##ässi": 2988,
      "##a 'H": 2989,
      "##add\n": 2990,
      "##i, 'L": 2991,
      "##app\n": 2992,
      "Annt": 2993,
      "##A'm": 2994,
      "##ittl": 2995,
      "##sch=stl., ": 2996,
      "## (s=scharf), W": 2997,
      "##rodd": 2998,
      "## (s=weich), 'M": 2999,
      "##wwerr": 3000,
      "##o'hammätt": 3001,
      "##Scharf)\n": 3002,
      "Pall": 3003,
      "Wärr": 3004,
      "##i (sch=stimmhaft)\n": 3005,
      "##re ": 3006,
      "##schell": 3007,
      "##inn (Sch=stl.)\n": 3008,
      "## (s=scharf), 'G": 3009,
      "##ohne\n": 3010,
      "##äff'gehn": 3011,
      "##ühs": 3012,
      "##lennd": 3013,
      "##en\n": 3014,
      "##a (S=scharf, ": 3015,
      "##ann (sch=stl.)\n": 3016,
      "##aienn": 3017,
      "'Frangk": 3018,
      "##annda\n": 3019,
      "## Änn": 3020,
      "##2xss=scharf)\n": 3021,
      "Lu'": 3022,
      "Särr": 3023,
      "##u (sch=stl.)\n": 3024,
      "##menn\n": 3025,
      "##E'm": 3026,
      "##ih (sch=sth.)\n": 3027,
      "##arri\n": 3028,
      "'Barr": 3029,
      "##'tr": 3030,
      "##illwi": 3031,
      "'Matt": 3032,
      "'Lang": 3033,
      "'Schm": 3034,
      "##rahl": 3035,
      "##ullts": 3036,
      "##okkt": 3037,
      "##Olli'w": 3038,
      "Bo'": 3039,
      "##i (S=weich)\n": 3040,
      "##o'ahr": 3041,
      "##riff": 3042,
      "'Känn": 3043,
      "'Bakk": 3044,
      "##assl": 3045,
      "##ullt": 3046,
      "##ähg": 3047,
      "##ittschell": 3048,
      "##arr'tätt\n": 3049,
      "##sche (sch=sth.)\n": 3050,
      "##im": 3051,
      "##o (S=scharf, ": 3052,
      "##fr": 3053,
      "##äerr": 3054,
      "'Samm": 3055,
      "##uss (s+ss=scharf)\n": 3056,
      "## (Ch wie ach, ss=scharf)\n": 3057,
      "## (th=engl., sth.": 3058,
      "## 'Geh\n": 3059,
      "##re (A=nasal)\n": 3060,
      "Pi'": 3061,
      "##nh": 3062,
      "##e'na": 3063,
      "##änndsch": 3064,
      "##attsi": 3065,
      "'Hainn": 3066,
      "##rächt": 3067,
      "##a, K": 3068,
      "##unnt\n": 3069,
      "## (ss=weich, s=scharf)\n": 3070,
      "## (Sch+sch=sth.)\n": 3071,
      "##'lihsa": 3072,
      "Juh": 3073,
      "Ma'd": 3074,
      "##i (S=scharf), ": 3075,
      "##äitt\n": 3076,
      "##onni\n": 3077,
      "'Bai": 3078,
      "##orr'd": 3079,
      "##errd\n": 3080,
      "##ätta\n": 3081,
      "##räiss": 3082,
      "##a 'P": 3083,
      "##ihko\n": 3084,
      "## 'Gr": 3085,
      "##rängk\n": 3086,
      "##ahkopp\n": 3087,
      "Di'": 3088,
      "##ienn\n": 3089,
      "##n-": 3090,
      "##a (sch=stimmhaft)\n": 3091,
      "##bäkk": 3092,
      "##, 'Arr": 3093,
      "##ahja\n": 3094,
      "##ohs (s=scharf)\n": 3095,
      "##sai": 3096,
      "##ätts (s=scharf)\n": 3097,
      "## (s=scharf), J": 3098,
      "## (ch wie ich, ": 3099,
      "##a 'R": 3100,
      "##öhrk": 3101,
      "##ehlikks (s=scharf)\n": 3102,
      "##aggl": 3103,
      "## (sch=stimmlos) '": 3104,
      "##, Jann\n": 3105,
      "##ahbl (A+a=nasal": 3106,
      "Gu'": 3107,
      "Ka'n": 3108,
      "Mo'r": 3109,
      "##a'si": 3110,
      "##ridd": 3111,
      "'Mall": 3112,
      "##ihn (ss=scharf)\n": 3113,
      "##äipp": 3114,
      "## (s=scharf), R": 3115,
      "##urr\n": 3116,
      "## (sch=stl.), 'W": 3117,
      "##ihra\n": 3118,
      "##upp\n": 3119,
      "The (Th=engl., sth.) ": 3120,
      "##e'basstiann": 3121,
      "##u'säppe": 3122,
      "##o'achihm": 3123,
      "##u (S=scharf)\n": 3124,
      "'Kn": 3125,
      "'Mohr": 3126,
      "##ihni, ": 3127,
      "##a, 'K": 3128,
      "##ämm (S=scharf)\n": 3129,
      "##eh-a\n": 3130,
      "##sn (s=weich)\n": 3131,
      "##Nikko'la\n": 3132,
      "##ittschedd (sch=stl.)\n": 3133,
      "##s ": 3134,
      "##nerr": 3135,
      "##Tr": 3136,
      "##Pi'": 3137,
      "##onnst": 3138,
      "##imm (sch=sth.)\n": 3139,
      "##iss'k": 3140,
      "##ittski": 3141,
      "'Männ": 3142,
      "'Hahr": 3143,
      "## (ss=scharf), 'R": 3144,
      "'Äng": 3145,
      "##ullf": 3146,
      "##i, 'D": 3147,
      "## (s=scharf, ch wie ich)\n": 3148,
      "## Kl": 3149,
      "##, Kriss't": 3150,
      "##Frann'sissko": 3151,
      "Aff": 3152,
      "Beh": 3153,
      "##a (S=scharf) '": 3154,
      "##üdd": 3155,
      "##schp": 3156,
      "##ann'tihn": 3157,
      "##inn (s=weich)\n": 3158,
      "'Wohl": 3159,
      "##öh\n": 3160,
      "## (ä=nasal), ": 3161,
      "##ittsä": 3162,
      "## (2.a=nasal)\n": 3163,
      "##bärrto\n": 3164,
      "##aunnti\n": 3165,
      "## (1.ss=weich, 2.ss=scharf)\n": 3166,
      "Ku": 3167,
      "##n (sch=stl.)\n": 3168,
      "##sch=sth": 3169,
      "##sch=stimmhaft": 3170,
      "##e'aht": 3171,
      "## (s=scharf) 'W": 3172,
      "##=nasal.)\n": 3173,
      "'Torr": 3174,
      "'Lih": 3175,
      "##ahda\n": 3176,
      "##i, 'R": 3177,
      "##i'lipp": 3178,
      "##ierr": 3179,
      "##a (a=nasal) ": 3180,
      "## (S=scharf,": 3181,
      "##e'orrg": 3182,
      "'Ball": 3183,
      "##ingtenn": 3184,
      "##ainna\n": 3185,
      "## (sch=stl.), W": 3186,
      "##ih-h": 3187,
      "##sch=sth.) '": 3188,
      "##ch wie ach) ": 3189,
      "##Ollga\n": 3190,
      "##Ullrich (ch wie ich)\n": 3191,
      "##=nas.)\n": 3192,
      "Monnt": 3193,
      "Äff": 3194,
      "##it": 3195,
      "##a (a=nasal), ": 3196,
      "##enn (Sch=stl.)\n": 3197,
      "##o'ch": 3198,
      "##ohni\n": 3199,
      "##ehrharrt\n": 3200,
      "##öhr\n": 3201,
      "##ahsch (sch=stl.)\n": 3202,
      "##will\n": 3203,
      "##ässku": 3204,
      "##icha'ill (ch wie ach)\n": 3205,
      "A'r": 3206,
      "##ke": 3207,
      "##Abb": 3208,
      "##A's": 3209,
      "##chenn": 3210,
      "##e S": 3211,
      "## (s=scharf) 'P": 3212,
      "##Dschänn": 3213,
      "## (ch wie ach, sch=stl.)\n": 3214,
      "##akk's": 3215,
      "##ohlu": 3216,
      "##öhrt": 3217,
      "Ba's": 3218,
      "Ga'l": 3219,
      "##o M": 3220,
      "##e (ss=scharf), ": 3221,
      "##wallt": 3222,
      "## 'Ih": 3223,
      "##ollm": 3224,
      "##uss (ss=scharf), ": 3225,
      "## (2xs=scharf, ": 3226,
      "## (s=scharf), D": 3227,
      "##a, T": 3228,
      "##e, S": 3229,
      "##Ällenn\n": 3230,
      "##äsch (sch=stl.)\n": 3231,
      "##onn'sahl": 3232,
      "De'": 3233,
      "Ka't": 3234,
      "Kass't": 3235,
      "##i 'S": 3236,
      "##gl": 3237,
      "## (sch=sth.,": 3238,
      "##ahre\n": 3239,
      "##skih": 3240,
      "##'kässt": 3241,
      "##öhf": 3242,
      "##ähle\n": 3243,
      "## (th=engl., sth.) ": 3244,
      "## 'Riwwe": 3245,
      "##mennt": 3246,
      "##Klohd\n": 3247,
      "Ann't": 3248,
      "##bbra'h": 3249,
      "Fill": 3250,
      "##anndsch": 3251,
      "##annja\n": 3252,
      "'Kamm": 3253,
      "'Hall": 3254,
      "'Hill": 3255,
      "Schi'": 3256,
      "## (s=scharf), B": 3257,
      "##a, 'B": 3258,
      "## 'Hah\n": 3259,
      "##ehni": 3260,
      "## 'Änn": 3261,
      "##ounns (sch=sth., ": 3262,
      "## (sch=stl), ": 3263,
      "##ohriahn\n": 3264,
      "'Däiwwiss": 3265,
      "A't": 3266,
      "Däll": 3267,
      "##ne\n": 3268,
      "##e (S=scharf) ": 3269,
      "##a (S=weich), '": 3270,
      "##e K": 3271,
      "##uhth": 3272,
      "##arr'k": 3273,
      "##iss\n": 3274,
      "##ahn (s=scharf)\n": 3275,
      "'Winnt": 3276,
      "##a, 'P": 3277,
      "##ahli\n": 3278,
      "'Ätt": 3279,
      "## (Ch+": 3280,
      "##e 'D": 3281,
      "## (s+s=scharf)\n": 3282,
      "##utt\n": 3283,
      "##'tschukk": 3284,
      "## (A=nasal) ": 3285,
      "##ounni\n": 3286,
      "##burrg": 3287,
      "##äthjuh": 3288,
      "##Paull\n": 3289,
      "Kasst": 3290,
      "Mass": 3291,
      "Pu'": 3292,
      "##= st": 3293,
      "##n'd": 3294,
      "##rsch": 3295,
      "##ratt": 3296,
      "##Le'": 3297,
      "##ka (sch=stl.)\n": 3298,
      "##Pa't": 3299,
      "##+a=nasal)\n": 3300,
      "##, 'Oh": 3301,
      "##icharrt": 3302,
      "## (s=scharf) d": 3303,
      "'Bärrk": 3304,
      "'Peht": 3305,
      "## (s=scharf), 'P": 3306,
      "##oss (ss=scharf)": 3307,
      "##e 'L": 3308,
      "##ahd\n": 3309,
      "##edde'": 3310,
      "##Klauss (ss=scharf)\n": 3311,
      "##ig": 3312,
      "##ünnd": 3313,
      "##ohst": 3314,
      "##ohf\n": 3315,
      "##arrsch": 3316,
      "##assm": 3317,
      "##jä\n": 3318,
      "'Nihd": 3319,
      "## (s=scharf) M": 3320,
      "##e, 'R": 3321,
      "## Inn": 3322,
      "Ach": 3323,
      "E'm": 3324,
      "Ma'r": 3325,
      "##uww": 3326,
      "##e B": 3327,
      "'Koss": 3328,
      "'Linnd": 3329,
      "## (s=scharf), 'K": 3330,
      "##rahb": 3331,
      "## (ss=scharf), 'L": 3332,
      "##a, Sch": 3333,
      "##a'leh": 3334,
      "##, 'Michaehl (ch wie ich)\n": 3335,
      "##wwell": 3336,
      "##re (ss=scharf)\n": 3337,
      "## (2x ss=scharf)\n": 3338,
      "##ruhno\n": 3339,
      "Bonn": 3340,
      "Po'l": 3341,
      "Sa'b": 3342,
      "## ann dehr": 3343,
      "##ath": 3344,
      "## 's": 3345,
      "##uhtsch": 3346,
      "##onnell": 3347,
      "##immb": 3348,
      "##orrdsch": 3349,
      "##ougg": 3350,
      "##Sch=stl.)\n": 3351,
      "##uss (2xss=scharf)\n": 3352,
      "'Aiss": 3353,
      "##öhtsch": 3354,
      "##urrg": 3355,
      "'Noi": 3356,
      "##e 'F": 3357,
      "##ja (S=scharf)\n": 3358,
      "'Schtainn": 3359,
      "##ännts (s=scharf)\n": 3360,
      "## (Sch=stimmlos), ": 3361,
      "##o (ss=scharf), ": 3362,
      "##n (s=weich)\n": 3363,
      "##'lo": 3364,
      "##bi": 3365,
      "##ahch": 3366,
      "##a G": 3367,
      "## (S=scharf, ss=weich)\n": 3368,
      "##a, F": 3369,
      "##ott (S=scharf)\n": 3370,
      "##e 'P": 3371,
      "'Ill": 3372,
      "##jehwittsch": 3373,
      "##Olliww": 3374,
      "##äwwenn": 3375,
      "##i (S=scharf) ": 3376,
      "##ss=": 3377,
      "##ann's": 3378,
      "##natt": 3379,
      "##rittsch": 3380,
      "'Kosst": 3381,
      "##ikkl": 3382,
      "##ittell": 3383,
      "## (ss=scharf), 'S": 3384,
      "##'mann": 3385,
      "##äffri": 3386,
      "##a'nih": 3387,
      "##e 'R": 3388,
      "##ruhp\n": 3389,
      "##; s=scharf)": 3390,
      "## (sch=sth.), M": 3391,
      "'Ull": 3392,
      "##arrbarra\n": 3393,
      "##äi'": 3394,
      "##s=weich, ": 3395,
      "##arrs (s=scharf)\n": 3396,
      "##all'j": 3397,
      "##aunnd": 3398,
      "##, 'Marrtihn\n": 3399,
      "## (S=scharf), S": 3400,
      "'Ahm": 3401,
      "##2xs=scharf)\n": 3402,
      "##ällmuht\n": 3403,
      "Ro's": 3404,
      "##eimm": 3405,
      "##fedd": 3406,
      "##wätt": 3407,
      "##ihsa (s=weich)\n": 3408,
      "'Köhn": 3409,
      "## (S=scharf, ä=nasal)\n": 3410,
      "##äff (sch=sth.)\n": 3411,
      "##uhtwich (ch wie ich)\n": 3412,
      "Jang": 3413,
      "##dü": 3414,
      "##ru": 3415,
      "## 'Ehr": 3416,
      "##ennb": 3417,
      "## (s=scharf) 'B": 3418,
      "##Dschohdsch": 3419,
      "##a D": 3420,
      "##tschängko": 3421,
      "##'säll": 3422,
      "Schw": 3423,
      "##ulla\n": 3424,
      "##ruht": 3425,
      "## (s=scharf, ss=weich)\n": 3426,
      "##, Pohl\n": 3427,
      "## (sch=scharf": 3428,
      "Sa'm": 3429,
      "## U": 3430,
      "##oikk": 3431,
      "##ojjä": 3432,
      "##do\n": 3433,
      "##ao": 3434,
      "##+2.": 3435,
      "##i'änn": 3436,
      "##i'ahg": 3437,
      "##naidd": 3438,
      "'Sihg": 3439,
      "## (ch wie ach, s=scharf)": 3440,
      "## (Sch=stl.), 'M": 3441,
      "##aggn": 3442,
      "##ss+s=scharf)\n": 3443,
      "##ittscherrd (sch=stl.)\n": 3444,
      "##a (Ch wie ach)\n": 3445,
      "##Raff": 3446,
      "##arr'm": 3447,
      "##ärrikk": 3448,
      "'Kott": 3449,
      "'Winn": 3450,
      "'Gill": 3451,
      "##ingenn": 3452,
      "## (th=engl.st": 3453,
      "##reht": 3454,
      "##ihterr\n": 3455,
      "##ihd\n": 3456,
      "## (S=scharf) 'S": 3457,
      "##Ann'dräh": 3458,
      "##nikkoff": 3459,
      "##äthrinn": 3460,
      "##ütte\n": 3461,
      "## (Sch=stimmhaft, ": 3462,
      "Marr'tihn": 3463,
      "Ka'b": 3464,
      "##i-h": 3465,
      "##i, 'K": 3466,
      "##oill": 3467,
      "##awwi": 3468,
      "##a (sch=stl.) '": 3469,
      "##ohtsch": 3470,
      "'Kammp": 3471,
      "##ikkoff\n": 3472,
      "##gg'n": 3473,
      "## (s=scharf), K": 3474,
      "## (ss=scharf), 'D": 3475,
      "## (sch=stl.), 'K": 3476,
      "##Änn'rih": 3477,
      "## (1.s=weich, 2.s=scharf)": 3478,
      "##juhsikk": 3479,
      "Jo'hann": 3480,
      "Ma'n": 3481,
      "Okk": 3482,
      "## n": 3483,
      "##e (s=scharf) ": 3484,
      "##äill\n": 3485,
      "##a'sa": 3486,
      "##ennh": 3487,
      "##uhra": 3488,
      "##attrikk\n": 3489,
      "## (ss=scharf), 'J": 3490,
      "## 'Pl": 3491,
      "##äng\n": 3492,
      "##Stihwenn (S=scharf)\n": 3493,
      "##Lu'iss (ss=scharf)\n": 3494,
      "##ünnf": 3495,
      "## bai": 3496,
      "U'": 3497,
      "##i 'M": 3498,
      "##acha": 3499,
      "'Rahd": 3500,
      "##'dihn": 3501,
      "'Frih": 3502,
      "##radd": 3503,
      "##a'tisst": 3504,
      "## (sch=stimmhaft) ": 3505,
      "##rai\n": 3506,
      "##, 'Änn": 3507,
      "## Ärr": 3508,
      "Smith": 3509,
      "##chmätt (ch wie ach)\n": 3510,
      "Lokk": 3511,
      "##und": 3512,
      "##oidd": 3513,
      "##a (s=weich) ": 3514,
      "##-ch": 3515,
      "##Winn": 3516,
      "'Äpp": 3517,
      "## (Sch=stl.), M": 3518,
      "##ch wie ich), '": 3519,
      "## (Th=engl., stl.)\n": 3520,
      "##jehjäff": 3521,
      "##Schakk (Sch=sth.)\n": 3522,
      "##om": 3523,
      "##furrt": 3524,
      "##friht\n": 3525,
      "##Äkk": 3526,
      "##A'n": 3527,
      "##Emm": 3528,
      "##i'ehg": 3529,
      "##o'lo": 3530,
      "##onni": 3531,
      "##ripp": 3532,
      "## (ch wie ach, ss=scharf)": 3533,
      "'Rokk": 3534,
      "## (ss=scharf), 'H": 3535,
      "##a, D": 3536,
      "## 'Sk": 3537,
      "'Str": 3538,
      "##, Arr": 3539,
      "##s=stl.)\n": 3540,
      "## (Ch wie ich)\n": 3541,
      "Ka": 3542,
      "##, 'Ahd": 3543,
      "## (s=scharf), 'T": 3544,
      "Schmitt": 3545,
      "##uhra\n": 3546,
      "## (Sch=sth., a=nasal)\n": 3547,
      "##ahniehl\n": 3548,
      "##Marrk\n": 3549,
      "Asch": 3550,
      "Pann": 3551,
      "Simm": 3552,
      "##i (S=scharf), '": 3553,
      "##sürr": 3554,
      "##s (S=scharf, s=weich)\n": 3555,
      "##nb": 3556,
      "##wudd": 3557,
      "##Ass": 3558,
      "## 't": 3559,
      "## 'k": 3560,
      "##ohriss": 3561,
      "##anni\n": 3562,
      "##ann (sch=sth.)\n": 3563,
      "##ärrna": 3564,
      "## (Sch=sth": 3565,
      "##rigg": 3566,
      "'Komm": 3567,
      "##issl": 3568,
      "##uss (s=weich, ss=scharf)\n": 3569,
      "##a 'T": 3570,
      "## 'Krisst": 3571,
      "##umm (s=scharf)\n": 3572,
      "##ahm\n": 3573,
      "'Ahl": 3574,
      "##, 'Ämm": 3575,
      "##, Hanns": 3576,
      "##jängko\n": 3577,
      "##jottr\n": 3578,
      "Garr'sih-": 3579,
      "##i (th=engl., stl.)\n": 3580,
      "##sh": 3581,
      "##üsst": 3582,
      "##, ss=weich)\n": 3583,
      "##o'tsch": 3584,
      "##ittsa (s=scharf)\n": 3585,
      "##omminn": 3586,
      "##äh\n": 3587,
      "##a'rih\n": 3588,
      "## 'Ärr": 3589,
      "Ohb": 3590,
      "E'l": 3591,
      "Mo": 3592,
      "Mai": 3593,
      "Mill": 3594,
      "Ro'm": 3595,
      "##ed": 3596,
      "##O'l": 3597,
      "##ihro": 3598,
      "##u'dsch": 3599,
      "##attr": 3600,
      "'Roht": 3601,
      "##a, L": 3602,
      "##ahdi\n": 3603,
      "##i, 'S": 3604,
      "## (sch=stimmhaft), '": 3605,
      "##ahbi": 3606,
      "##Karrloss (ss=scharf)\n": 3607,
      "## the (th=engl. sth.) '": 3608,
      "##äischenn (sch=stl.)\n": 3609,
      "Eh": 3610,
      "Goll": 3611,
      "##ua\n": 3612,
      "##'weh": 3613,
      "##ehra": 3614,
      "##sass": 3615,
      "##ällf": 3616,
      "##ell (s=scharf)\n": 3617,
      "'Pf": 3618,
      "## (s=scharf), Dsch": 3619,
      "##e'rahr": 3620,
      "The (Th": 3621,
      "##outtihr": 3622,
      "##Hännri\n": 3623,
      "A'w": 3624,
      "Lj": 3625,
      "Ro'drihg": 3626,
      "##scha": 3627,
      "##jäh": 3628,
      "##ähw": 3629,
      "## (Ch wie ach, ss=scharf)": 3630,
      "## 'Fl": 3631,
      "Str": 3632,
      "##ühr\n": 3633,
      "##'ro": 3634,
      "##jehn": 3635,
      "##, Allä'ksannda (s=scharf)\n": 3636,
      "'Särr": 3637,
      "##erre\n": 3638,
      "'Mann": 3639,
      "##jäpp": 3640,
      "##'wihli": 3641,
      "## (ä=nasal": 3642,
      "'Grihn": 3643,
      "Woll": 3644,
      "##männ": 3645,
      "##o (sch=stimmlos)\n": 3646,
      "##e (sch=stl.) ": 3647,
      "##Ell": 3648,
      "##ihra": 3649,
      "##ihf\n": 3650,
      "##a'lo": 3651,
      "##i'ahna": 3652,
      "'Sahl": 3653,
      "## (s=scharf) 'R": 3654,
      "##onn (S=scharf)\n": 3655,
      "##ällj": 3656,
      "##immp": 3657,
      "##ikki\n": 3658,
      "'Märr": 3659,
      "'Mäkk": 3660,
      "##ättl": 3661,
      "'Dann": 3662,
      "##akka\n": 3663,
      "##a, 'F": 3664,
      "## (Ch wie ach), '": 3665,
      "'Jann": 3666,
      "##i, R": 3667,
      "## 'Will": 3668,
      "##Krisstiahn (ss=scharf)\n": 3669,
      "##rih-o\n": 3670,
      "##aurra\n": 3671,
      "Ba'r": 3672,
      "Di": 3673,
      "Monn": 3674,
      "##Eddu'": 3675,
      "##ihse (s=weich)\n": 3676,
      "##wedd": 3677,
      "'Kapp": 3678,
      "'Waitt": 3679,
      "## (s=weich, sch=stl.)\n": 3680,
      "##ussk": 3681,
      "##uss (s=weich, ss=scharf)": 3682,
      "## (s=scharf), T": 3683,
      "##a, 'N": 3684,
      "##ohld": 3685,
      "## (o=nasal, ": 3686,
      "##ihka\n": 3687,
      "## (sch=stimmlos, s=scharf)\n": 3688,
      "##schtainn (sch=stl.)\n": 3689,
      "##Alläkk'sannda (s=scharf)\n": 3690,
      "##o'achihm (ch wie ach)\n": 3691,
      "Pärr": 3692,
      "##i (S=scharf) '": 3693,
      "## //": 3694,
      "##o S": 3695,
      "##o (2.": 3696,
      "##Jann": 3697,
      "##ch (ch wie ich)\n": 3698,
      "##ohsi": 3699,
      "##e d": 3700,
      "##e de ": 3701,
      "##orrn\n": 3702,
      "##ollinn\n": 3703,
      "##err (ss=scharf)\n": 3704,
      "##a=nasal, ": 3705,
      "## (s=scharf), L": 3706,
      "##räff": 3707,
      "##ulld": 3708,
      "##a 'D": 3709,
      "## (s=scharf) K": 3710,
      "##i B": 3711,
      "##i P": 3712,
      "##, Schakk": 3713,
      "##Tommess (ss=scharf)\n": 3714,
      "##o'ra (a=nasal)\n": 3715,
      "Mott": 3716,
      "Opp": 3717,
      "Uh": 3718,
      "## ss=scharf)\n": 3719,
      "##o (s=scharf, ": 3720,
      "##ramm": 3721,
      "##Bärr'n": 3722,
      "##ügg": 3723,
      "##, 'Uh": 3724,
      "##e'ri": 3725,
      "##aisst": 3726,
      "##aienn\n": 3727,
      "'Maht": 3728,
      "'Wallt": 3729,
      "##räi\n": 3730,
      "'Äbb": 3731,
      "## (ss=weich), M": 3732,
      "##üh-": 3733,
      "##i, 'B": 3734,
      "## (Th=engl.,st": 3735,
      "##o D": 3736,
      "## 'Äss": 3737,
      "##uggusst": 3738,
      "##haimm\n": 3739,
      "##anntschäss": 3740,
      "##kisstre (ss=scharf)\n": 3741,
      "Sinn": 3742,
      "##lannt\n": 3743,
      "## äll": 3744,
      "##rau": 3745,
      "##Poll\n": 3746,
      "##Öh": 3747,
      "##cha": 3748,
      "##orrche": 3749,
      "##ih-enn": 3750,
      "## (Ch wie ach) '": 3751,
      "## 'Kammp": 3752,
      "## de S": 3753,
      "##örrk\n": 3754,
      "## (th=engl., stl.), '": 3755,
      "##'Geh\n": 3756,
      "Sätt": 3757,
      "##u d": 3758,
      "## imm": 3759,
      "##o (Ch wie ach)\n": 3760,
      "##e, 'K": 3761,
      "##, Ann": 3762,
      "##ohriss (ss=scharf)\n": 3763,
      "##annfreht\n": 3764,
      "##e P": 3765,
      "## (s=scharf) 'H": 3766,
      "##osslaff (ss=scharf)\n": 3767,
      "##'koff (sch=stl.)\n": 3768,
      "## (S=scharf, sch=stl.), ": 3769,
      "## (1.sch=stl., 2.": 3770,
      "##e 'T": 3771,
      "##, 'Mahr": 3772,
      "##juhb": 3773,
      "## (2x s=scharf)\n": 3774,
      "##Krisstoff (ss=scharf)\n": 3775,
      "##ahblo\n": 3776,
      "##e'basstiann (S=weich, ss=scharf)\n": 3777,
      "##Olliwwa\n": 3778,
      "## 'Ehrst": 3779,
      "##ur": 3780,
      "##o (S=scharf) ": 3781,
      "##I'": 3782,
      "##a'ro": 3783,
      "##ohth": 3784,
      "##o'riss (ss=scharf)\n": 3785,
      "##iss (s=weich, ss=scharf)\n": 3786,
      "##ässikk": 3787,
      "##äisch": 3788,
      "##öhw": 3789,
      "## (ss=scharf), 'B": 3790,
      "##anndo\n": 3791,
      "##üh\n": 3792,
      "'Ohr": 3793,
      "##Fredde'": 3794,
      "##iggn": 3795,
      "##uhnj": 3796,
      "##aimmenn (S=scharf)\n": 3797,
      "##, 'Dschärr": 3798,
      "##äissenn": 3799,
      "Klainn": 3800,
      "##üss't": 3801,
      "##s+ss=scharf)": 3802,
      "##lisch, st": 3803,
      "Imm": 3804,
      "##mann\n": 3805,
      "##e (sch=stimmlos)\n": 3806,
      "##ai'd": 3807,
      "##ä (sch=stl.)\n": 3808,
      "##Ma'rih-a\n": 3809,
      "##, Ann'dreh-ass (ss=scharf)\n": 3810,
      "##wing": 3811,
      "##enn (S=weich)\n": 3812,
      "'Sännt": 3813,
      "##alla\n": 3814,
      "##orrb": 3815,
      "##Dschäimms (sch=sth., s=weich)\n": 3816,
      "##ätti": 3817,
      "'Tsa": 3818,
      "##'bähr": 3819,
      "##'jann": 3820,
      "##i, K": 3821,
      "##änndi\n": 3822,
      "##e'lehna\n": 3823,
      "## A's": 3824,
      "##, I'w": 3825,
      "##o'ann (A=nasal)\n": 3826,
      "## The": 3827,
      "Ross": 3828,
      "Tarr": 3829,
      "Turr": 3830,
      "##äe\n": 3831,
      "## (ö": 3832,
      "'Soll": 3833,
      "'Marrt": 3834,
      "##ässli": 3835,
      "##öhrl": 3836,
      "##ittsch (sch=stl.), '": 3837,
      "##ä'rih": 3838,
      "## 'Arr": 3839,
      "##ükk\n": 3840,
      "Donn": 3841,
      "Laww": 3842,
      "##t (s=scharf)\n": 3843,
      "##dn": 3844,
      "##jann\n": 3845,
      "##Ännt": 3846,
      "##ohts": 3847,
      "##e'dsch": 3848,
      "'Kopp": 3849,
      "'Batt": 3850,
      "'Lohp": 3851,
      "##a R": 3852,
      "'Dih-": 3853,
      "##roitts": 3854,
      "##se (s=weich), '": 3855,
      "## (sch=stl.), K": 3856,
      "##ascha": 3857,
      "##i, D": 3858,
      "##ruhk": 3859,
      "##juhk": 3860,
      "##nnte'n": 3861,
      "## (sch=stimmlos) ": 3862,
      "##s (s=scharf), 'M": 3863,
      "##o'bih-ass (ss=scharf)\n": 3864,
      "##i'gäll\n": 3865,
      "Enn": 3866,
      "Sennt": 3867,
      "##marr\n": 3868,
      "##s-": 3869,
      "##'scht": 3870,
      "##a+": 3871,
      "##jakk": 3872,
      "##schw": 3873,
      "##ah (S=scharf)\n": 3874,
      "##ihja\n": 3875,
      "##ohk\n": 3876,
      "##uhk\n": 3877,
      "##änn (sch=sth.)\n": 3878,
      "'Kann": 3879,
      "'Kohr": 3880,
      "##'täll": 3881,
      "##ikkoff": 3882,
      "##ässl": 3883,
      "##irrt": 3884,
      "##ommi'n": 3885,
      "##a 'F": 3886,
      "##a'sahr": 3887,
      "##i'karrdo\n": 3888,
      "##ohmann\n": 3889,
      "##äiddi": 3890,
      "## (beide ss=scharf)\n": 3891,
      "##, 'Robberrt\n": 3892,
      "Sann (S=scharf) ": 3893,
      "The (Th=engl. sth.) ": 3894,
      "Papp": 3895,
      "Si'": 3896,
      "## +": 3897,
      "##eisch": 3898,
      "'Kärr": 3899,
      "## (Sch=stl.; s=scharf)\n": 3900,
      "##ahnt": 3901,
      "'Wai": 3902,
      "##elli\n": 3903,
      "##a, W": 3904,
      "##ahl (s=scharf)\n": 3905,
      "##unnts": 3906,
      "##jja\n": 3907,
      "##awwäll\n": 3908,
      "## (sch=stl.) 'S": 3909,
      "##ah-ollo\n": 3910,
      "##aimm\n": 3911,
      "##, 'Pätt": 3912,
      "'Klainn": 3913,
      "## (sch+": 3914,
      "##äiddsch": 3915,
      "##juell": 3916,
      "##Willhällm\n": 3917,
      "##Olli'wje\n": 3918,
      "Less": 3919,
      "Miss": 3920,
      "Sa'w": 3921,
      "##ngch": 3922,
      "##ärr'w": 3923,
      "'Sn": 3924,
      "'Sämm": 3925,
      "##räsch": 3926,
      "## (sch=stl.), D": 3927,
      "##ähl": 3928,
      "##ihla\n": 3929,
      "##i, 'J": 3930,
      "##opp\n": 3931,
      "##ehne\n": 3932,
      "##o fonn": 3933,
      "## Arr": 3934,
      "##tsia (s=scharf)\n": 3935,
      "##Klaudd": 3936,
      "##'tsoff": 3937,
      "##'rihna\n": 3938,
      "##Ro'bärrto\n": 3939,
      "'Üh": 3940,
      "##, Särr'geh (S=scharf)\n": 3941,
      "## 'Aillennd\n": 3942,
      "I'": 3943,
      "##uerr": 3944,
      "##fj": 3945,
      "##ä'j": 3946,
      "##Peht": 3947,
      "##Wollfgang\n": 3948,
      "##wedd\n": 3949,
      "## (ss=scharf) 'S": 3950,
      "##allj": 3951,
      "##Schorrsch": 3952,
      "##ihni\n": 3953,
      "##sch=stl.), M": 3954,
      "##liff": 3955,
      "##'sänn": 3956,
      "##öhth": 3957,
      "##, Marr": 3958,
      "##owwo\n": 3959,
      "##ihda\n": 3960,
      "##Dschonn (sch=sth.) '": 3961,
      "##u'sä": 3962,
      "##ouss (ss=weich)\n": 3963,
      "## (S=weich, ch wie ach)\n": 3964,
      "##, 'Ällenn\n": 3965,
      "Ba'l": 3966,
      "##ewwi": 3967,
      "##go\n": 3968,
      "##ü'r": 3969,
      "##ng'k": 3970,
      "'Färr": 3971,
      "## (ss=scharf) M": 3972,
      "## (ss=weich, s=scharf)": 3973,
      "##ä'f": 3974,
      "##, 'Särr": 3975,
      "## (Sch=stl., s=weich)\n": 3976,
      "'Iss": 3977,
      "##ebbeth": 3978,
      "'Allb": 3979,
      "'Ehb": 3980,
      "## (th=st": 3981,
      "##Robberrt\n": 3982,
      "## (sch= st": 3983,
      "##th=engl. stl.)\n": 3984,
      "'Ehr": 3985,
      "Ma'rih-": 3986,
      "Äkk": 3987,
      "##o K": 3988,
      "##'wi": 3989,
      "##ao\n": 3990,
      "##kenn": 3991,
      "##Pjähr": 3992,
      "##Färr'nannd": 3993,
      "##anng": 3994,
      "## (sch=stl.; s=scharf)\n": 3995,
      "'Koull": 3996,
      "##allf\n": 3997,
      "##ollo'g": 3998,
      "##äss'k": 3999,
      "##uss (s+ss=scharf)": 4000,
      "'Fäll": 4001,
      "'Äsch": 4002,
      "##a'sihli": 4003,
      "## (S=scharf), 'D": 4004,
      "##'hohf": 4005,
      "##, 'Luhk": 4006,
      "##sch=stl.), 'M": 4007,
      "##, 'Fillipp\n": 4008,
      "##Krisstiann (ss=scharf)\n": 4009,
      "##äff'gehni\n": 4010,
      "##icharrt (ch wie ich)\n": 4011,
      "Bi'": 4012,
      "So'l": 4013,
      "##lihn": 4014,
      "##o (S=scharf), ": 4015,
      "##ke, '": 4016,
      "##jahn": 4017,
      "##Gl": 4018,
      "##wei": 4019,
      "##inna": 4020,
      "'Kämm": 4021,
      "'Hoff": 4022,
      "'Donn": 4023,
      "Scharr": 4024,
      "'Frai": 4025,
      "##rässt": 4026,
      "##, Ma't": 4027,
      "##a'sihl": 4028,
      "##ummp": 4029,
      "##juh-": 4030,
      "##ä'p": 4031,
      "##Fra's": 4032,
      "Dschang": 4033,
      "'Dschäkk": 4034,
      "##mennd": 4035,
      "## Äff": 4036,
      "##, 'Pihte\n": 4037,
      "##ijja\n": 4038,
      "##Scho'säff": 4039,
      "##Ärrnst (s=scharf)\n": 4040,
      "Bull": 4041,
      "Onn": 4042,
      "Ott": 4043,
      "Po'": 4044,
      "##u (s=weich)\n": 4045,
      "##i (sch=stimmlos)\n": 4046,
      "##sm": 4047,
      "##Ätt": 4048,
      "##ahth": 4049,
      "##eh (S=weich)\n": 4050,
      "##inn't": 4051,
      "## (s=scharf) 'L": 4052,
      "##u'tsch": 4053,
      "##illw": 4054,
      "'Gruh": 4055,
      "##a W": 4056,
      "##öh-": 4057,
      "## 'Sp": 4058,
      "##ahto\n": 4059,
      "##anndra": 4060,
      "## Kah": 4061,
      "##jehjäff\n": 4062,
      "##ling\n": 4063,
      "##Ärr'n": 4064,
      "##ehsarr": 4065,
      "##, Scha (Sch=sth., a=nasal) ": 4066,
      "Gonn'sahl": 4067,
      "Ri'": 4068,
      "Wi'": 4069,
      "##S=scharf": 4070,
      "##liss": 4071,
      "##o de ": 4072,
      "##di\n": 4073,
      "##e (sch=stl.) '": 4074,
      "##aw": 4075,
      "##ahlo": 4076,
      "## 'Ch": 4077,
      "##uhsenn": 4078,
      "##uhs (s=weich)\n": 4079,
      "##ärrbärrt\n": 4080,
      "##orrst (s=scharf)\n": 4081,
      "##ass (2xss=scharf)\n": 4082,
      "##aupp": 4083,
      "##jä'l": 4084,
      "'Wahg": 4085,
      "## (ch wie ach), M": 4086,
      "'Ränn": 4087,
      "'Schn": 4088,
      "## (ss=scharf), 'K": 4089,
      "## (1.a=nasal)\n": 4090,
      "## (s=scharf) B": 4091,
      "##ittsch (sch=stl.)\n": 4092,
      "## (S=scharf), 'S": 4093,
      "##raiss (ss=scharf)\n": 4094,
      "##, Katt": 4095,
      "##, 2. ": 4096,
      "##, Scha": 4097,
      "## (sch=sth.), 'M": 4098,
      "##ä (ä=nasal) ": 4099,
      "##, 'Anna\n": 4100,
      "##Frangk\n": 4101,
      "Ds": 4102,
      "Garr": 4103,
      "Ro": 4104,
      "Ra'm": 4105,
      "Wang": 4106,
      "äll": 4107,
      "##udd\n": 4108,
      "##no\n": 4109,
      "##friht": 4110,
      "##-scht": 4111,
      "##Chr": 4112,
      "##ennbärrk": 4113,
      "##o'na": 4114,
      "'Sahr": 4115,
      "'Harr": 4116,
      "'Lipp": 4117,
      "## (s=scharf), 'Dsch": 4118,
      "##a T": 4119,
      "'Att": 4120,
      "##ommp": 4121,
      "##rainn": 4122,
      "##, Mi'schäll (sch=stl.)\n": 4123,
      "## (s=scharf, a=nasal)\n": 4124,
      "## Deh": 4125,
      "##tsiuss (s+ss=scharf)": 4126,
      "##Ann'dräh-a\n": 4127,
      "Ell": 4128,
      "Ko'm": 4129,
      "##i 'P": 4130,
      "##ei\n": 4131,
      "##e (S=scharf), ": 4132,
      "##renn": 4133,
      "##rihn": 4134,
      "## (ss=scharf; ": 4135,
      "##a'li": 4136,
      "##uh-h": 4137,
      "'Katt": 4138,
      "'Boss": 4139,
      "'Mädd": 4140,
      "##auth": 4141,
      "##tsch (sch=stl.)\n": 4142,
      "##'säll (s=scharf)\n": 4143,
      "##ahle\n": 4144,
      "## (sch=stl.), 'T": 4145,
      "##ohn (Sch=stl.)\n": 4146,
      "##rehm": 4147,
      "'Ou": 4148,
      "## 'Tseh": 4149,
      "## (ss+s=scharf, ": 4150,
      "##u'säinn": 4151,
      "##s (sch=sth., s=weich)\n": 4152,
      "##aull\n": 4153,
      "'Ällenn": 4154,
      "## beh": 4155,
      "##, 'Stihwenn (S=scharf)\n": 4156,
      "I'w": 4157,
      "Ka'w": 4158,
      "Noww": 4159,
      "## Oh": 4160,
      "##sb": 4161,
      "##ihse": 4162,
      "## 'h": 4163,
      "'Kasst": 4164,
      "##äkk (s=scharf)\n": 4165,
      "##oss (2xss=scharf)\n": 4166,
      "Schtsch": 4167,
      "'Noww": 4168,
      "##ahte\n": 4169,
      "##ih-a": 4170,
      "##All'bärrto\n": 4171,
      "##etts": 4172,
      "## (S=scharf), 'R": 4173,
      "##awwi'ärr": 4174,
      "##eddsch": 4175,
      "##, Kriss (ss=scharf)\n": 4176,
      "##uddsch": 4177,
      "##ifft": 4178,
      "##, Tomm\n": 4179,
      "##i'ahno\n": 4180,
      "##uff\n": 4181,
      "##sskarr (ss=scharf)\n": 4182,
      "##assdorrf (ss=scharf)\n": 4183,
      "A'sch": 4184,
      "Farr": 4185,
      "##S=weich)\n": 4186,
      "##lä": 4187,
      "##re'": 4188,
      "##ag": 4189,
      "##a (ss=weich), '": 4190,
      "##ü'm": 4191,
      "##stn (s=scharf)\n": 4192,
      "##ihjäff": 4193,
      "##annü'": 4194,
      "##e L": 4195,
      "##ärr'k": 4196,
      "##allts": 4197,
      "##off (Ch wie ach)\n": 4198,
      "##offska": 4199,
      "'Rohs": 4200,
      "'Ägg": 4201,
      "##irrk\n": 4202,
      "##sett": 4203,
      "##emmann": 4204,
      "## (sch=stl.), R": 4205,
      "##ühg": 4206,
      "##a'sjo": 4207,
      "##ascha (sch=stl.)\n": 4208,
      "##aww\n": 4209,
      "## Teh": 4210,
      "##uhni'w": 4211,
      "##tsio (s=scharf)\n": 4212,
      "##= engl.": 4213,
      "##Änndruh\n": 4214,
      "Mi'": 4215,
      "Monn't": 4216,
      "O'b": 4217,
      "##s/": 4218,
      "##o de\n": 4219,
      "##äscht": 4220,
      "##perr": 4221,
      "##öpp": 4222,
      "##A'ri (A=nasal)\n": 4223,
      "##samm": 4224,
      "##atta\n": 4225,
      "##ahne\n": 4226,
      "'Haidd": 4227,
      "'Wott": 4228,
      "##amm'p": 4229,
      "##äkk (sch=stl.)\n": 4230,
      "## (ss=scharf), 'Dsch": 4231,
      "##rapp": 4232,
      "##unnj": 4233,
      "## (sch=stl.), J": 4234,
      "##a 'Schtrahse (Sch=stl., s=scharf)\n": 4235,
      "##e 'G": 4236,
      "'Opp": 4237,
      "##ahdre": 4238,
      "## (a=nasal, s=scharf)": 4239,
      "##e, 'S": 4240,
      "##e, 'Dsch": 4241,
      "##äppt": 4242,
      "##, A'd": 4243,
      "##ailld": 4244,
      "##, 'Dschänn": 4245,
      "'Bläkk": 4246,
      "Bläkk": 4247,
      "##ann dehr\n": 4248,
      "##a'tallja\n": 4249,
      "##'lissebbeth": 4250,
      "Annd": 4251,
      "Batt": 4252,
      "Färr'nannd": 4253,
      "Mirr": 4254,
      "Me'l": 4255,
      "Sänn": 4256,
      "Sabb": 4257,
      "Si'm": 4258,
      "Te": 4259,
      "##fa\n": 4260,
      "##pr": 4261,
      "##Pihte\n": 4262,
      "##App": 4263,
      "## (Ä": 4264,
      "## (s=scharf,": 4265,
      "##o'ahr\n": 4266,
      "'Sänn": 4267,
      "'Brai": 4268,
      "##isska": 4269,
      "##ollka\n": 4270,
      "'Mahl": 4271,
      "##ätt (s=scharf)\n": 4272,
      "##tsehn": 4273,
      "##äss (s+ss=scharf)\n": 4274,
      "'Leh": 4275,
      "## (s=scharf), 'F": 4276,
      "##a, G": 4277,
      "##i, 'T": 4278,
      "##jäffski": 4279,
      "##, Karrl": 4280,
      "##e, 'D": 4281,
      "##uschkinn (sch=stl.)\n": 4282,
      "## (Sch=stl.), 'J": 4283,
      "## (S=scharf) 'M": 4284,
      "##kowwittsch": 4285,
      "##enndorrf\n": 4286,
      "## (sch=weich)\n": 4287,
      "##Konnst": 4288,
      "##, Karrl\n": 4289,
      "##Fredde'rikk\n": 4290,
      "Ko'r": 4291,
      "Maunnt": 4292,
      "O's": 4293,
      "##n (ch wie ach)\n": 4294,
      "##öff": 4295,
      "##ennbärrk\n": 4296,
      "##o'ro": 4297,
      "'Boll": 4298,
      "'Täill": 4299,
      "##ahrl": 4300,
      "'Hahg": 4301,
      "'Gäll": 4302,
      "##rahsch": 4303,
      "##ahtinn\n": 4304,
      "##rehg": 4305,
      "## (s=scharf) S": 4306,
      "##ännde\n": 4307,
      "##ä'sa": 4308,
      "##aill\n": 4309,
      "##Robbett\n": 4310,
      "##ass'kall (ss=scharf)\n": 4311,
      "Hu'": 4312,
      "Ko": 4313,
      "La'": 4314,
      "Pe'r": 4315,
      "##trahse": 4316,
      "##no": 4317,
      "##jeht": 4318,
      "##ah (s=weich)\n": 4319,
      "## 'w": 4320,
      "##inn (S=weich)\n": 4321,
      "##e'ruh": 4322,
      "## (ss=scharf) 'M": 4323,
      "##off, W": 4324,
      "##issenn (ss=scharf)\n": 4325,
      "##ass\n": 4326,
      "'Lämm": 4327,
      "'Lannd": 4328,
      "'Däll": 4329,
      "## (ss=scharf), 'G": 4330,
      "##ahti\n": 4331,
      "## 'Kaunnti\n": 4332,
      "##i T": 4333,
      "##ihdi": 4334,
      "## (S=scharf), 'K": 4335,
      "## (ss=scharf, a=nasal)\n": 4336,
      "'Urr": 4337,
      "Bass": 4338,
      "De'l": 4339,
      "Ki'": 4340,
      "Ko's": 4341,
      "Obb": 4342,
      "##sell": 4343,
      "##as": 4344,
      "##ahriss": 4345,
      "##innski (s=scharf)\n": 4346,
      "## (s=scharf) 'D": 4347,
      "##äll (ss=scharf)\n": 4348,
      "##ikke\n": 4349,
      "##ouww": 4350,
      "##gg\n": 4351,
      "##äiff": 4352,
      "##a=nasal) '": 4353,
      "Schm": 4354,
      "##ämm beh": 4355,
      "##reh\n": 4356,
      "##ihto\n": 4357,
      "##, 'Marrkuss (ss=scharf)\n": 4358,
      "##All'f": 4359,
      "##abb\n": 4360,
      "'Schtr": 4361,
      "##oh-enn": 4362,
      "##, Hanns (s=scharf)\n": 4363,
      "##Ihwann\n": 4364,
      "##u'hamm": 4365,
      "##Chu'ann (Ch wie ach) ": 4366,
      "##skajja": 4367,
      "A'p": 4368,
      "E'k": 4369,
      "Kopp": 4370,
      "Pi": 4371,
      "Ro'": 4372,
      "##u (sch=sth.)\n": 4373,
      "##e (ch wie ach)\n": 4374,
      "##ah'm": 4375,
      "## 'All": 4376,
      "## (s=scharf) 'J": 4377,
      "'Kokk": 4378,
      "##off (S=scharf), ": 4379,
      "##ihn (S=scharf)\n": 4380,
      "##ahni, ": 4381,
      "##ell (ss=scharf)\n": 4382,
      "##äkk't": 4383,
      "##ohrenn\n": 4384,
      "##angg": 4385,
      "##e 'H": 4386,
      "##ruhs (s=scharf)\n": 4387,
      "##e, K": 4388,
      "'Ohst": 4389,
      "Le K": 4390,
      "##akksi'm": 4391,
      "##äiww\n": 4392,
      "Iww": 4393,
      "Le'w": 4394,
      "##ujj": 4395,
      "## x": 4396,
      "##eg": 4397,
      "##parrk": 4398,
      "##ih (S=weich)\n": 4399,
      "##wisst": 4400,
      "##h., ": 4401,
      "##o'ts": 4402,
      "##uh'": 4403,
      "##e'rä": 4404,
      "##ärrenn\n": 4405,
      "##älle\n": 4406,
      "'Bätt": 4407,
      "'Mätt": 4408,
      "'Harrt": 4409,
      "##rihk": 4410,
      "##oss (s+ss=scharf)\n": 4411,
      "## (ss=scharf), K": 4412,
      "## (ss=weich, sch=stl.)\n": 4413,
      "##e 'N": 4414,
      "##'jahna\n": 4415,
      "##öhrd": 4416,
      "##eh-odd": 4417,
      "##i'miht": 4418,
      "Marr'k": 4419,
      "##äh-o\n": 4420,
      "##=nasal, sch=sth.)\n": 4421,
      "##nnte'näschennell": 4422,
      "Bakk": 4423,
      "Ba't": 4424,
      "Bogg": 4425,
      "Kirr": 4426,
      "Marrk": 4427,
      "##..": 4428,
      "##fenn": 4429,
      "##üss (ss=scharf)\n": 4430,
      "##ö\n": 4431,
      "##x2": 4432,
      "## (sch=stl.)": 4433,
      "##offt": 4434,
      "'Münn": 4435,
      "'Rädd": 4436,
      "##dschäi (sch=sth.)\n": 4437,
      "##; 2.": 4438,
      "##e, R": 4439,
      "## (S=scharf), 'Dsch": 4440,
      "##e, 'H": 4441,
      "##Ehrikk\n": 4442,
      "##oull\n": 4443,
      "##a däll": 4444,
      "##ohnass (ss=scharf)\n": 4445,
      "Sangkt (S=weich) '": 4446,
      "##eh ämm beh": 4447,
      "##Dscho'wanni (sch=sth.)\n": 4448,
      "##Frann'tschässko (sch=stl., ss=scharf)\n": 4449,
      "## 'Tswaitt": 4450,
      "##onnelld\n": 4451,
      "Ahr": 4452,
      "Boll": 4453,
      "Pjärr": 4454,
      "Tu'": 4455,
      "Unn": 4456,
      "##i 'L": 4457,
      "##dehr": 4458,
      "##'lott": 4459,
      "##garrt": 4460,
      "##Wallta\n": 4461,
      "##ch (ch wie ach)\n": 4462,
      "## (sch=stimm": 4463,
      "##ohlo": 4464,
      "##o'äll": 4465,
      "##aim": 4466,
      "##ringk": 4467,
      "'Kahl": 4468,
      "##assimm": 4469,
      "##err (sch=sth.)\n": 4470,
      "##aubb": 4471,
      "'Trih-": 4472,
      "'Horr": 4473,
      "##a L": 4474,
      "##'kirrch": 4475,
      "##öhst": 4476,
      "## (ss=scharf), D": 4477,
      "##a, B": 4478,
      "'Äh": 4479,
      "##'bähr\n": 4480,
      "## (Sch=sth.), '": 4481,
      "##ürrk": 4482,
      "##oiell": 4483,
      "##, 'Annt": 4484,
      "Moll": 4485,
      "Äbb": 4486,
      "##iett": 4487,
      "##sf": 4488,
      "##'rikk\n": 4489,
      "##a (s=weich), '": 4490,
      "##e'ro": 4491,
      "##ällenn\n": 4492,
      "##issn": 4493,
      "##illk": 4494,
      "'Tann": 4495,
      "'Popp": 4496,
      "##uss\n": 4497,
      "##a F": 4498,
      "'Schöhn": 4499,
      "'Dikk": 4500,
      "##omm'b": 4501,
      "##ainnd": 4502,
      "## (ss=scharf) S": 4503,
      "## (sch=stl.), Dsch": 4504,
      "## (Ch wie ach, sch=stl.)\n": 4505,
      "##afft": 4506,
      "##edde'rih": 4507,
      "##odd\n": 4508,
      "##aikkl\n": 4509,
      "## de K": 4510,
      "##äinn (sch=sth.)\n": 4511,
      "##, 'Peht": 4512,
      "## Peh": 4513,
      "##ehdro\n": 4514,
      "##, Pjähr\n": 4515,
      "## (2. ": 4516,
      "##ohgl": 4517,
      "##Marrg": 4518,
      "##iddsch (sch=sth.)\n": 4519,
      "## sürr": 4520,
      "Kull": 4521,
      "Po": 4522,
      "##mihl\n": 4523,
      "## Ih": 4524,
      "##o (sch=stimmhaft)\n": 4525,
      "##-b": 4526,
      "##Äff": 4527,
      "##Änn\n": 4528,
      "##Nihl": 4529,
      "##Oss": 4530,
      "##Akk": 4531,
      "##stihn": 4532,
      "##ohj": 4533,
      "## (sch=stl.,": 4534,
      "##e D": 4535,
      "##onnänn": 4536,
      "##imm (s=scharf)\n": 4537,
      "##orrbärrt\n": 4538,
      "##jä (ä=nasal)\n": 4539,
      "'Schnaidd": 4540,
      "Scha't": 4541,
      "## (ss=scharf), R": 4542,
      "## (sch=stl.), 'G": 4543,
      "## (ss=scharf) K": 4544,
      "##, Ma'tih-ass (ss=scharf)\n": 4545,
      "##a'nissuaff": 4546,
      "##o'lihna\n": 4547,
      "##eh-o": 4548,
      "## (th=engl., stl.) '": 4549,
      "##a Ma'rih-a\n": 4550,
      "'k": 4551,
      "Abbd": 4552,
      "Irr": 4553,
      "Ka'd": 4554,
      "Lang": 4555,
      "Ma": 4556,
      "Sakk": 4557,
      "Sannt": 4558,
      "##u-h": 4559,
      "##ma'": 4560,
      "##rann": 4561,
      "##a (S=weich), ": 4562,
      "##jattsch": 4563,
      "##ütts": 4564,
      "##ihlo": 4565,
      "## 'l": 4566,
      "##ich (ch wie ich), ": 4567,
      "##a'ruh": 4568,
      "##uhdsch": 4569,
      "'Sonn": 4570,
      "##immi\n": 4571,
      "'Kruh": 4572,
      "'Bärrn": 4573,
      "##off (sch=sth.)\n": 4574,
      "##ousst": 4575,
      "##ollo'm": 4576,
      "##ihn (sch=stl.)\n": 4577,
      "'Lihb": 4578,
      "## (ä=nasal) ": 4579,
      "##ängk\n": 4580,
      "##, Re'n": 4581,
      "##, Dschäimms (sch=sth., s=weich)\n": 4582,
      "##sn (s=weich), ": 4583,
      "##jewei": 4584,
      "##burrk (s=scharf)\n": 4585,
      "##laff\n": 4586,
      "##, 'Robbett\n": 4587,
      "##= nasal": 4588,
      "'Dschonnsenn (sch=sth., s=scharf)": 4589,
      "##jeweils": 4590,
      "Minn": 4591,
      "Ni'k": 4592,
      "Wässt": 4593,
      "##u (ss=scharf)\n": 4594,
      "##id": 4595,
      "##i 'K": 4596,
      "##ä (sch=sth.)\n": 4597,
      "##wäll": 4598,
      "##-p": 4599,
      "##I'rihna\n": 4600,
      "##ärr'd": 4601,
      "##onn (ss=scharf)\n": 4602,
      "## (ss=scharf) 'H": 4603,
      "##immitt": 4604,
      "##itti (S=scharf)\n": 4605,
      "##errikk\n": 4606,
      "Schatt": 4607,
      "'Frihd": 4608,
      "## (sch=stl.), 'P": 4609,
      "## (sch=stl.), 'Dsch": 4610,
      "##ainnts (s=scharf)\n": 4611,
      "##ähd": 4612,
      "##i W": 4613,
      "##ihdo\n": 4614,
      "##a'bihn": 4615,
      "##abbl": 4616,
      "##iggenn": 4617,
      "##ritts": 4618,
      "La K": 4619,
      "'Ihs": 4620,
      "## (alle ss=scharf)\n": 4621,
      "'Bärrg": 4622,
      "##Ihw\n": 4623,
      "##ströhm": 4624,
      "'Sillw": 4625,
      "##Hainnrich (ch wie ich)\n": 4626,
      "##I'wann\n": 4627,
      "##, 'Änndruh\n": 4628,
      "## (1.ss=scharf, 2.ss=weich)\n": 4629,
      "##i'ehgo\n": 4630,
      "Gorr": 4631,
      "Lakk": 4632,
      "O'k": 4633,
      "## Lu'": 4634,
      "## und": 4635,
      "##nk": 4636,
      "##n (Sch=stl.)\n": 4637,
      "##ewwe": 4638,
      "##a (sch=sth.) ": 4639,
      "##,2.": 4640,
      "##-'": 4641,
      "##ahse": 4642,
      "##annski": 4643,
      "##uhsa": 4644,
      "##änn (S=scharf)\n": 4645,
      "##u'ah-u": 4646,
      "'Bruh": 4647,
      "##ille\n": 4648,
      "##ouff": 4649,
      "'Mäss": 4650,
      "'Pehr": 4651,
      "## (s=scharf), P": 4652,
      "##öhp": 4653,
      "##ahla\n": 4654,
      "##, 'Mahri": 4655,
      "## (a=nasal) '": 4656,
      "##ehle\n": 4657,
      "##mennt\n": 4658,
      "##, 'Wollfgang\n": 4659,
      "## (th=engl. sth.) ": 4660,
      "##Arr't": 4661,
      "##ahna (S=scharf)\n": 4662,
      "## Iss": 4663,
      "##, 'Krissteff": 4664,
      "##seh (s=weich)\n": 4665,
      "##, Cho'se": 4666,
      "##rahse\n": 4667,
      "##jö\n": 4668,
      "##usstaff (ss=scharf)\n": 4669,
      "##ethenn (sch=sth., ": 4670,
      "Benn": 4671,
      "Dann": 4672,
      "Forr": 4673,
      "Murr": 4674,
      "Rü": 4675,
      "Sa'r": 4676,
      "##lass": 4677,
      "##latt": 4678,
      "##io'n": 4679,
      "##'will": 4680,
      "##-l": 4681,
      "## (jeweils": 4682,
      "##ehsch": 4683,
      "##eh (s=weich)\n": 4684,
      "'Sihk": 4685,
      "## (ss=scharf) 'K": 4686,
      "##aisch": 4687,
      "##äll (ch wie ach)\n": 4688,
      "##orri\n": 4689,
      "##Schill": 4690,
      "'Gall": 4691,
      "##öh (S=scharf) ": 4692,
      "##a, 'Ann": 4693,
      "##, 'Käwwinn\n": 4694,
      "##, 'Dännjell\n": 4695,
      "##, 'Joh-hann": 4696,
      "##, 'Juhri\n": 4697,
      "##äinnt": 4698,
      "##Stihw (S=scharf)\n": 4699,
      "##Arrt": 4700,
      "##juett": 4701,
      "##swai": 4702,
      "##arr'säll (s=scharf)\n": 4703,
      "##, 'Tommess (ss=scharf)\n": 4704,
      "##u'sanne": 4705,
      "De'm": 4706,
      "##l, st": 4707,
      "##i 'B": 4708,
      "##ra'": 4709,
      "##ba\n": 4710,
      "##ahs (s=weich)\n": 4711,
      "## (S=st": 4712,
      "##i'ähr": 4713,
      "##änne\n": 4714,
      "##äll (S=scharf)\n": 4715,
      "##=nasal.), ": 4716,
      "'Bonn": 4717,
      "'Bäikk": 4718,
      "'Tärr": 4719,
      "'Pau": 4720,
      "##oss'k": 4721,
      "'Schr": 4722,
      "## (2xss=scharf, ": 4723,
      "##ings": 4724,
      "## (sch=stl.), 'N": 4725,
      "##a'so": 4726,
      "##arrta\n": 4727,
      "All M": 4728,
      "## (ss=scharf, ch wie ich)\n": 4729,
      "##, 'Rohbärrt\n": 4730,
      "'Dschänn": 4731,
      "##bärrk (ss=scharf)\n": 4732,
      "##innde\n": 4733,
      "##Ann'dreh-a\n": 4734,
      "##Kriss'tihna (ss=scharf)\n": 4735,
      "A'j": 4736,
      "Dehr": 4737,
      "King": 4738,
      "Wi'l": 4739,
      "##tahl": 4740,
      "##o (sch=stl.), ": 4741,
      "##o, S": 4742,
      "##eitt": 4743,
      "##jjäff": 4744,
      "##, 'Schtäffann (Sch=stl.)\n": 4745,
      "##ihse (s=scharf)\n": 4746,
      "##i'ännt": 4747,
      "##arr (s=scharf)\n": 4748,
      "'Beht": 4749,
      "##wwa\n": 4750,
      "##au (ch wie ach)\n": 4751,
      "##ahrallt\n": 4752,
      "'Hass": 4753,
      "##elless (ss=scharf)\n": 4754,
      "##äkka\n": 4755,
      "'Nihl": 4756,
      "##a'tuhr": 4757,
      "##i L": 4758,
      "##ängko (sch=stl.)\n": 4759,
      "Tseh": 4760,
      "##anntsich": 4761,
      "##, Iss": 4762,
      "##, Chu'ann": 4763,
      "##Luhka\n": 4764,
      "Du'": 4765,
      "Mi'l": 4766,
      "Sih": 4767,
      "Wänn": 4768,
      "##i 'W": 4769,
      "##re, ": 4770,
      "##ru\n": 4771,
      "##ramm\n": 4772,
      "##ä (S=scharf, ": 4773,
      "##Willjemm": 4774,
      "##ihwi": 4775,
      "##ohsa (s=weich)\n": 4776,
      "##anniss": 4777,
      "##e G": 4778,
      "##innänn": 4779,
      "##uhst": 4780,
      "## (s=scharf) 'F": 4781,
      "##onnelld": 4782,
      "##ai (S=scharf)\n": 4783,
      "'Bill": 4784,
      "##ill (s=scharf)\n": 4785,
      "##ourr": 4786,
      "'Miss": 4787,
      "##ahroff": 4788,
      "##tsäff": 4789,
      "##ässn": 4790,
      "'Ruhb": 4791,
      "'Goll": 4792,
      "'Gehr": 4793,
      "## (2xs=weich)\n": 4794,
      "## (2xsch=stimmlos)\n": 4795,
      "##rahw": 4796,
      "## (sch=stl.), 'H": 4797,
      "##ra-h": 4798,
      "##ähm": 4799,
      "'Osst": 4800,
      "##ehro\n": 4801,
      "## (S=scharf) M": 4802,
      "## de B": 4803,
      "## de M": 4804,
      "## 'Äss (ss=scharf)\n": 4805,
      "##, 'Willjemm": 4806,
      "## (sch=stl., ss=weich)\n": 4807,
      "##ch wie ich) '": 4808,
      "##Lu'ihdsch": 4809,
      "## (th=engl. sth.)\n": 4810,
      "## (2x sch=stl.)\n": 4811,
      "## (th=engl., stl.) ": 4812,
      "## (Th=engl. sth.) '": 4813,
      "'b": 4814,
      "Be'l": 4815,
      "Chr": 4816,
      "Männ": 4817,
      "O'r": 4818,
      "Ra'd": 4819,
      "Tall": 4820,
      "##i (ch wie ach)\n": 4821,
      "##jo'nall": 4822,
      "##übb": 4823,
      "## 'Th": 4824,
      "##oh'tätt\n": 4825,
      "##o'li": 4826,
      "##uhts": 4827,
      "'Sanntschäss": 4828,
      "##onn'd": 4829,
      "## (ss=scharf) 'B": 4830,
      "##aia\n": 4831,
      "##aierr": 4832,
      "'Bull": 4833,
      "'Bohd": 4834,
      "'Burrk": 4835,
      "'Takk": 4836,
      "'Hahd": 4837,
      "##jä'd": 4838,
      "'Wihd": 4839,
      "'Wihs": 4840,
      "'Piht": 4841,
      "##ossp": 4842,
      "'Doll": 4843,
      "##i D": 4844,
      "##i, 'H": 4845,
      "## Sk": 4846,
      "##eh-orrk": 4847,
      "##angka\n": 4848,
      "##uh-iss (ss=scharf)\n": 4849,
      "##äiwwidd": 4850,
      "##, 'Fl": 4851,
      "'Ehd": 4852,
      "##a'widd\n": 4853,
      "Ja'k": 4854,
      "La": 4855,
      "##sdorrf (s=scharf)\n": 4856,
      "##ew": 4857,
      "##Leo'n": 4858,
      "##fällt\n": 4859,
      "##benn": 4860,
      "##ah (s=scharf)\n": 4861,
      "## (s,ss=scharf)\n": 4862,
      "##a'rä": 4863,
      "##ehsa": 4864,
      "##enn (s=weich)\n": 4865,
      "'Sann": 4866,
      "'Sihm": 4867,
      "## (s=scharf) 'T": 4868,
      "##Dschu'säppe": 4869,
      "'Lohr": 4870,
      "'Rihd": 4871,
      "'Raich": 4872,
      "'Pass": 4873,
      "'Schmitt": 4874,
      "'Dänn": 4875,
      "## (s=scharf), F": 4876,
      "##ing'g": 4877,
      "## 'Sih (S=scharf)\n": 4878,
      "##a'näll": 4879,
      "##juhn": 4880,
      "##Dschonn (sch=stimmhaft)\n": 4881,
      "## (S=scharf) 'K": 4882,
      "## (sch=scharf)\n": 4883,
      "'Allp": 4884,
      "##i'rj": 4885,
      "##, 'Krisstoff (ss=scharf)\n": 4886,
      "##Chu'ann (Ch wie ach)\n": 4887,
      "##ärrelld\n": 4888,
      "'Willjemms (s=weich), '": 4889,
      "##Addri'": 4890,
      "##, Jo'hanness (ss=scharf)\n": 4891,
      "##'lihsabb": 4892,
      "Ba": 4893,
      "Gra": 4894,
      "Kaww": 4895,
      "Rüh": 4896,
      "To'm": 4897,
      "Ässk": 4898,
      "##lass (ss=scharf)\n": 4899,
      "##o, 'M": 4900,
      "##o (sch=sth.) ": 4901,
      "##et": 4902,
      "##rätt": 4903,
      "##wahn": 4904,
      "##wännt": 4905,
      "##wihn\n": 4906,
      "##+3.": 4907,
      "##A'b": 4908,
      "##l., s=scharf)\n": 4909,
      "## (S,": 4910,
      "##enn (sch=sth.)\n": 4911,
      "##inn'd": 4912,
      "'Karrl": 4913,
      "'Barrt": 4914,
      "##iss (ss=weich) ": 4915,
      "##rihsi": 4916,
      "##amma\n": 4917,
      "## (2 x": 4918,
      "'Schäll": 4919,
      "## (ss=scharf) B": 4920,
      "##a 'N": 4921,
      "##ukks": 4922,
      "##a'koff\n": 4923,
      "##ahbri": 4924,
      "##eh-onn": 4925,
      "##ong'k": 4926,
      "##äpp\n": 4927,
      "##angk\n": 4928,
      "##enndorrf": 4929,
      "##o'bähr\n": 4930,
      "##oh-a\n": 4931,
      "Le P": 4932,
      "##Frann'ts": 4933,
      "##sonn (s=scharf), '": 4934,
      "##Cho'se (Ch wie ach, s=scharf)\n": 4935,
      "##Cho'se (Ch wie ach, s=scharf)": 4936,
      "##Kwarr'tätt\n": 4937,
      "##Otto\n": 4938,
      "Gonn'sahläss (s+ss=scharf)": 4939,
      "Kah": 4940,
      "Kabb": 4941,
      "Me'n": 4942,
      "O'd": 4943,
      "Pa't": 4944,
      "##.)\n": 4945,
      "##Lj": 4946,
      "##-f": 4947,
      "##ü'd": 4948,
      "##Timm\n": 4949,
      "##stenn (s=scharf)\n": 4950,
      "## 'Uh": 4951,
      "##eh-h": 4952,
      "##h.), '": 4953,
      "##o'dsch": 4954,
      "'Sakk": 4955,
      "'Sannd": 4956,
      "##ass'm": 4957,
      "## (Sch=stl.; ": 4958,
      "##ahnowwittsch": 4959,
      "'Hohf": 4960,
      "##li (sch=stl.)\n": 4961,
      "'Dj": 4962,
      "'Dahl": 4963,
      "'Fohr": 4964,
      "## däll": 4965,
      "## (ss=scharf), Dsch": 4966,
      "## (S=scharf, s=weich), ": 4967,
      "##'wall": 4968,
      "## (S=scharf) K": 4969,
      "##ihm (s=scharf)\n": 4970,
      "##i, 'N": 4971,
      "##senn (S+s=scharf)": 4972,
      "## (s=weich), S": 4973,
      "##obbi\n": 4974,
      "##Ihgohr\n": 4975,
      "##o, R": 4976,
      "##aitts": 4977,
      "##aggd": 4978,
      "## (sch=sth.), S": 4979,
      "##, Dschohdsch": 4980,
      "##uh-i\n": 4981,
      "'Schwarrts": 4982,
      "O'l": 4983,
      "Su": 4984,
      "## s=scharf)": 4985,
      "##.\n": 4986,
      "##oth": 4987,
      "##ech": 4988,
      "##a (2x": 4989,
      "##Bänn\n": 4990,
      "##, 'Fr": 4991,
      "##wikk\n": 4992,
      "##ennt\n": 4993,
      "##e'tsch": 4994,
      "##ittse": 4995,
      "##ou (S=scharf)\n": 4996,
      "'Mass": 4997,
      "'Pro": 4998,
      "##tschi": 4999,
      "## (s=scharf), N": 5000,
      "## (ch wie ich, s=scharf)": 5001,
      "'Äff": 5002,
      "'Okk": 5003,
      "##a'dä": 5004,
      "##ch wie ach) '": 5005,
      "##e, 'J": 5006,
      "##o'säff": 5007,
      "##ekk\n": 5008,
      "##Stäff": 5009,
      "## (Th=engl., sth.) '": 5010,
      "##o'fih-": 5011,
      "##, 'Krisstiahn (ss=scharf)\n": 5012,
      "'Öhr": 5013,
      "## (ch wie ich) fonn": 5014,
      "##sch=stl)\n": 5015,
      "##uhtwich": 5016,
      "##duarrt\n": 5017,
      "##omminnikk\n": 5018,
      "##annü'äll\n": 5019,
      "Pott": 5020,
      "Po't": 5021,
      "Tärr": 5022,
      "Warr": 5023,
      "##marr": 5024,
      "##ir": 5025,
      "##fann": 5026,
      "##Ka'm": 5027,
      "##-d": 5028,
      "##Wla'dihmihr\n": 5029,
      "##Achmätt (ch wie ach)\n": 5030,
      "##stainn": 5031,
      "##ahtsi": 5032,
      "##uhna\n": 5033,
      "##aiff\n": 5034,
      "##u'f": 5035,
      "'Käss": 5036,
      "'Käpp": 5037,
      "'Bäill": 5038,
      "##off (2xsch=stl.)\n": 5039,
      "'Männd": 5040,
      "##ätts (s=scharf), '": 5041,
      "##jä'r": 5042,
      "'Wudd": 5043,
      "'Wollf": 5044,
      "##rihs": 5045,
      "'Lahg": 5046,
      "Scha'b": 5047,
      "##ämmjuell": 5048,
      "##a 'G": 5049,
      "## (s=scharf) P": 5050,
      "##annte\n": 5051,
      "##o, D": 5052,
      "##, 'Braienn\n": 5053,
      "## Pr": 5054,
      "##ousseff": 5055,
      "## Geh": 5056,
      "##Allä'kseh (s=scharf)\n": 5057,
      "##Ärrikk\n": 5058,
      "'Arrn": 5059,
      "##owwitts": 5060,
      "##ehfann": 5061,
      "##Hainnts (s=scharf)\n": 5062,
      "##anndro (s=scharf)\n": 5063,
      "##riss'tihne (ss=scharf)\n": 5064,
      "##ikk'tohria\n": 5065,
      "##ounns (sch=sth., s=weich), '": 5066,
      "## (Ch+ch wie ach)\n": 5067,
      "##akksi'mihli": 5068,
      "Dj": 5069,
      "Madd": 5070,
      "Saww": 5071,
      "##l)\n": 5072,
      "##iw": 5073,
      "##nbach": 5074,
      "##ek": 5075,
      "##jehr": 5076,
      "##Imm": 5077,
      "##ih (ss=scharf)\n": 5078,
      "##ann'tsch": 5079,
      "##wirr": 5080,
      "##älls": 5081,
      "##itte\n": 5082,
      "'Hjuh": 5083,
      "'Lj": 5084,
      "##akk (sch=stl.)\n": 5085,
      "##öhp\n": 5086,
      "##ra (ss=scharf)\n": 5087,
      "##, 'Kahr": 5088,
      "##rikka\n": 5089,
      "##e'rihn": 5090,
      "## A'l": 5091,
      "## dehr 'Ehrst": 5092,
      "Le Sch": 5093,
      "## (alle s/": 5094,
      "##, 'Ahr": 5095,
      "Bärr'lihn": 5096,
      "'Äddemm": 5097,
      "Be'n": 5098,
      "I'l": 5099,
      "O'": 5100,
      "##lainn": 5101,
      "##i 'D": 5102,
      "##e (Sch=stl.), '": 5103,
      "##rell": 5104,
      "##au'l": 5105,
      "##ä (ss=scharf)\n": 5106,
      "##ja (ss=scharf)\n": 5107,
      "##I'l": 5108,
      "##ihsa (s=scharf)\n": 5109,
      "## 'n": 5110,
      "## 'p": 5111,
      "## (S=Scharf)\n": 5112,
      "##arr'b": 5113,
      "'Mitt": 5114,
      "##lopp": 5115,
      "'Wiht": 5116,
      "'Luhk": 5117,
      "'Porrt": 5118,
      "'Annt": 5119,
      "## (2xsch=stl.": 5120,
      "##urrn": 5121,
      "##räinn": 5122,
      "##ih-u": 5123,
      "##'wihl\n": 5124,
      "## (S=scharf), 'J": 5125,
      "##wwe\n": 5126,
      "##e, 'L": 5127,
      "'Ahg": 5128,
      "##ja (S=weich)\n": 5129,
      "##ung-g": 5130,
      "##uhsikk": 5131,
      "##ijj\n": 5132,
      "##, 'Klaudd": 5133,
      "##sch=stimmlos), '": 5134,
      "##Scharrl (Sch=stl.)\n": 5135,
      "Ba'k": 5136,
      "I's": 5137,
      "Kott": 5138,
      "Ke'l": 5139,
      "Odd": 5140,
      "Äkks": 5141,
      "##l (ss=scharf)\n": 5142,
      "##i d": 5143,
      "##o (Sch=stl.)\n": 5144,
      "##e (ch wie ich)\n": 5145,
      "##a (ss=weich), ": 5146,
      "##koff": 5147,
      "##äk": 5148,
      "##Benn": 5149,
      "##ah'": 5150,
      "##ehk\n": 5151,
      "##o'ahs": 5152,
      "##satt": 5153,
      "## (s=scharf) 'G": 5154,
      "##äll'j": 5155,
      "##=nasal) '": 5156,
      "'Kämmb": 5157,
      "'Böh": 5158,
      "##orra\n": 5159,
      "##assko": 5160,
      "##attn": 5161,
      "##a=nasal, s=scharf)\n": 5162,
      "##, Mahrk\n": 5163,
      "##, 'Karrl": 5164,
      "##i'lj": 5165,
      "##i'mohn": 5166,
      "'Stihwenn": 5167,
      "## de L": 5168,
      "##o'rännts": 5169,
      "'Imm": 5170,
      "##Arr'm": 5171,
      "##ahwäll\n": 5172,
      "## (alle S": 5173,
      "##e'fann (S=scharf)\n": 5174,
      "Me'G": 5175,
      "##Ehrich (ch wie ich)\n": 5176,
      "##anni'äll\n": 5177,
      "Ko't": 5178,
      "Ko'w": 5179,
      "Muss": 5180,
      "Mu's": 5181,
      "##loff": 5182,
      "##i (sch=stl.) ": 5183,
      "##o (S=weich)\n": 5184,
      "##einn": 5185,
      "##a (ch wie ach), '": 5186,
      "##wall": 5187,
      "##wanntsich": 5188,
      "##Bill\n": 5189,
      "##bai": 5190,
      "##Frängk\n": 5191,
      "## (s=scharf": 5192,
      "## 'Inn": 5193,
      "##uhs (s=scharf)\n": 5194,
      "'Kou": 5195,
      "'Hai": 5196,
      "##jä'n": 5197,
      "'Wahl": 5198,
      "'Ruhd": 5199,
      "## (ch wie ich, ss=scharf)\n": 5200,
      "##a, N": 5201,
      "##rath": 5202,
      "## (S=scharf), 'L": 5203,
      "##ong (S=scharf)\n": 5204,
      "##o P": 5205,
      "##'hih (S=scharf)\n": 5206,
      "## (sch=stl.) 'P": 5207,
      "## (Sch=stl.), S": 5208,
      "##Tschahrls": 5209,
      "'Gräi": 5210,
      "##, Timm\n": 5211,
      "##nikkoff\n": 5212,
      "A'sahbl (A+a=nasal": 5213,
      "##Flohriahn\n": 5214,
      "## (s=stl.)\n": 5215,
      "##, 'Ärrikk\n": 5216,
      "##'haussn (ss=weich)\n": 5217,
      "##Re'ne\n": 5218,
      "##A'dre (A=nasal)\n": 5219,
      "##ihmonn (S=weich)\n": 5220,
      "##bbra'hihm\n": 5221,
      "##ommi'nikk\n": 5222,
      "Bu": 5223,
      "Do'm": 5224,
      "Me'd": 5225,
      "Nu'": 5226,
      "Peh": 5227,
      "Tsa": 5228,
      "##mahr\n": 5229,
      "##ai'm": 5230,
      "##äittschell": 5231,
      "##ju'k": 5232,
      "##ü'k": 5233,
      "##schk": 5234,
      "##ann (s=weich)\n": 5235,
      "##i'ann\n": 5236,
      "##innska": 5237,
      "##ärrell\n": 5238,
      "'Sitt": 5239,
      "'Ko": 5240,
      "'Kohl": 5241,
      "'Bahb": 5242,
      "##itti\n": 5243,
      "'Mainn": 5244,
      "'Misst": 5245,
      "## (S=weich), M": 5246,
      "'Pott": 5247,
      "## (S=scharf, s=weich), '": 5248,
      "'Nikk": 5249,
      "## 'Sannt": 5250,
      "##a'lj": 5251,
      "##Ahl": 5252,
      "Tschänn": 5253,
      "## (sch=stl.) 'M": 5254,
      "##Nikkoll": 5255,
      "##e'rih-": 5256,
      "##Ahdamm\n": 5257,
      "##ärrdinn": 5258,
      "##tsiuss (s+ss=scharf)\n": 5259,
      "##oussiff (sch=sth., ss=weich)\n": 5260,
      "## 'Riwwerr\n": 5261,
      "##awwi'ärr (Ch wie ach)\n": 5262,
      "'Chr": 5263,
      "Epp": 5264,
      "Mikk": 5265,
      "##hoff": 5266,
      "##munnt": 5267,
      "##ea't": 5268,
      "##räss (ss=scharf)\n": 5269,
      "##jehl": 5270,
      "##ahwe": 5271,
      "## (ss=st": 5272,
      "##i'äll": 5273,
      "##ehmenn": 5274,
      "##innsk": 5275,
      "'Säkk": 5276,
      "##onna\n": 5277,
      "##äll'm": 5278,
      "##immi (sch=sth.)\n": 5279,
      "'Behr": 5280,
      "##iss (S+ss=scharf)": 5281,
      "'Hännd": 5282,
      "'Wohk": 5283,
      "##uss (2xss=scharf)": 5284,
      "'Ach": 5285,
      "'Fillipp": 5286,
      "##urr'n": 5287,
      "'Njuh": 5288,
      "## (sch=stl.), T": 5289,
      "##i, 'P": 5290,
      "##äinndsch": 5291,
      "'Ohd": 5292,
      "## (sch=stl) ": 5293,
      "## (2x sch=sth.)\n": 5294,
      "##i'johm\n": 5295,
      "##Katta'rihna\n": 5296,
      "##i'chaill": 5297,
      "##, 'Ott": 5298,
      "##o'rihs (s=scharf)\n": 5299,
      "##igg'sahnd": 5300,
      "##igg'sännderr": 5301,
      "##a'lehri\n": 5302,
      "Bärr'n": 5303,
      "Si'ärr": 5304,
      "Wi't": 5305,
      "##sull": 5306,
      "##o (ss=weich)\n": 5307,
      "##o (ss=scharf, ": 5308,
      "##ja (s=scharf)\n": 5309,
      "##Fe'l": 5310,
      "##ärrsch": 5311,
      "##onn (Sch=stl.)\n": 5312,
      "'Kass": 5313,
      "'Kuhp": 5314,
      "##all'k": 5315,
      "'Hinnt": 5316,
      "##tsäff (s=scharf)\n": 5317,
      "##ässm": 5318,
      "##äss (2xss=scharf)": 5319,
      "'Länn": 5320,
      "##a A": 5321,
      "'Autt": 5322,
      "##ohrk": 5323,
      "'Finn": 5324,
      "## (ss=scharf), 'W": 5325,
      "## (S=scharf, 1.": 5326,
      "'Nott": 5327,
      "##i, L": 5328,
      "##i G": 5329,
      "## (sch=stimmhaft) '": 5330,
      "##jäff (sch=stl.)\n": 5331,
      "##, Söh (S=scharf) '": 5332,
      "##ehnj": 5333,
      "## (Sch=stl.), 'D": 5334,
      "##, 'Johsäff (s=weich)\n": 5335,
      "##aiss (ss=scharf)\n": 5336,
      "##'tsoff (s=scharf)\n": 5337,
      "##ingkl": 5338,
      "##ucht": 5339,
      "##äwwerr": 5340,
      "##rahs (a=nasal, s=scharf)\n": 5341,
      "##aschtrahse": 5342,
      "##, Dschonn (sch=stimmhaft)\n": 5343,
      "##ohrdsch (2xsch=sth.)\n": 5344,
      "##wänn (S=scharf)\n": 5345,
      "##, 'Hännri\n": 5346,
      "Ba'b": 5347,
      "Kokk": 5348,
      "Njä": 5349,
      "Perr": 5350,
      "Pakk": 5351,
      "Rass": 5352,
      "Sämm": 5353,
      "Torr": 5354,
      "##iess": 5355,
      "##i (Sch=sth.)\n": 5356,
      "## sch": 5357,
      "## s=weich)\n": 5358,
      "##oa'j": 5359,
      "##nitts": 5360,
      "##ai'n": 5361,
      "##än": 5362,
      "##ä-": 5363,
      "##äikk\n": 5364,
      "##wäi": 5365,
      "##ömm": 5366,
      "##eht\n": 5367,
      "##e F": 5368,
      "##ännli": 5369,
      "##änn'tihn": 5370,
      "##off (ss=scharf), ": 5371,
      "##sstr": 5372,
      "##auenn": 5373,
      "##ätti\n": 5374,
      "##ahnj": 5375,
      "'Hohch": 5376,
      "'Rouss": 5377,
      "'Goulld": 5378,
      "'Aich": 5379,
      "##siff": 5380,
      "##sipp": 5381,
      "##ühl\n": 5382,
      "##ruhp": 5383,
      "##; s=weich)\n": 5384,
      "##, 'Dänniss (ss=scharf)\n": 5385,
      "## 'Ädd": 5386,
      "## (sch=stl.) 'K": 5387,
      "##arr'tihna\n": 5388,
      "##s (s=weich), 'Dsch": 5389,
      "## (Th=engl. stl.)\n": 5390,
      "## 'Ah\n": 5391,
      "##werrd": 5392,
      "##s (S=scharf, s=weich), '": 5393,
      "##attsio'n": 5394,
      "##'lissebbeth (ss=weich, ": 5395,
      "Kuss": 5396,
      "Njuh": 5397,
      "Pa'": 5398,
      "Ri'b": 5399,
      "So'": 5400,
      "##e (ss=scharf) ": 5401,
      "##fri": 5402,
      "##ü'b": 5403,
      "##schischt": 5404,
      "##ih'": 5405,
      "##ihtsi": 5406,
      "##e R": 5407,
      "##e'lo": 5408,
      "##ärrl": 5409,
      "##änni": 5410,
      "##u'j": 5411,
      "'Kurr": 5412,
      "##ounn\n": 5413,
      "##jäng": 5414,
      "'Gudd": 5415,
      "##a de\n": 5416,
      "## (s=scharf), G": 5417,
      "##urrm": 5418,
      "##rowwittsch": 5419,
      "'Näll": 5420,
      "##ainnrich (ch wie ich)\n": 5421,
      "##ähf": 5422,
      "## (s=scharf) T": 5423,
      "## (s=scharf) fonn": 5424,
      "##Alle's": 5425,
      "All'": 5426,
      "## (s=scharf, sch=stl.), '": 5427,
      "## 'Peh\n": 5428,
      "##aikkell": 5429,
      "##, 'Dschuhli": 5430,
      "##Tschahls": 5431,
      "##ägg\n": 5432,
      "Le M": 5433,
      "##uhsäff": 5434,
      "##, 'Krisstiann (ss=scharf)\n": 5435,
      "##berrt\n": 5436,
      "'Härrmann": 5437,
      "Äss (ss=scharf) ": 5438,
      "## Ah'geh\n": 5439,
      "##Frann'sissko (s+ss=scharf)\n": 5440,
      "Bäkk": 5441,
      "Birr": 5442,
      "Dell": 5443,
      "Fann": 5444,
      "Kill": 5445,
      "Me'g": 5446,
      "Uss": 5447,
      "Wann": 5448,
      "##lt": 5449,
      "##sinn": 5450,
      "##äiss (ss=scharf)\n": 5451,
      "##ü't": 5452,
      "## 'f": 5453,
      "##ich)\n": 5454,
      "##ehse": 5455,
      "##arri": 5456,
      "##e'li": 5457,
      "## (s=scharf) 'N": 5458,
      "## (ss=scharf) 'D": 5459,
      "'Böhr": 5460,
      "##att (S=scharf)\n": 5461,
      "'Hauss": 5462,
      "## (s=scharf), Sch": 5463,
      "## (ss=scharf), 'T": 5464,
      "## (S=scharf, sch=stl.) '": 5465,
      "'Äwwenn": 5466,
      "##raww": 5467,
      "##, Maikk\n": 5468,
      "##, Mo'hammätt\n": 5469,
      "## (1.+2.": 5470,
      "##okks (s=scharf)\n": 5471,
      "All'b": 5472,
      "##rissm": 5473,
      "##a'br": 5474,
      "##, 'Wikktohr\n": 5475,
      "##iff\n": 5476,
      "Le B": 5477,
      "Grihn": 5478,
      "##ahsch (sch=sth.)\n": 5479,
      "## (Sch=stimmlos, s=scharf)\n": 5480,
      "Orr'kässt": 5481,
      "##öhld": 5482,
      "##Issa'bäll": 5483,
      "##Gabbri'äll\n": 5484,
      "'Abbu": 5485,
      "##äffri (sch=sth.)\n": 5486,
      "'Köhnich": 5487,
      "##eh ämm beh 'Hah\n": 5488,
      "Marrt": 5489,
      "Porrt": 5490,
      "Wass": 5491,
      "## onn": 5492,
      "##terr": 5493,
      "##nst": 5494,
      "##dorrf\n": 5495,
      "##e (sch=stl.), ": 5496,
      "##e (S=scharf) '": 5497,
      "##e (sch=stimmhaft)\n": 5498,
      "##ra'm": 5499,
      "##ä-h": 5500,
      "##ä (Sch=sth., ": 5501,
      "##wihl": 5502,
      "##Unn": 5503,
      "##, Allä'ksannd": 5504,
      "##l., ss=scharf)\n": 5505,
      "## 'b": 5506,
      "##arrp": 5507,
      "##ai-": 5508,
      "'Kahn": 5509,
      "'Bott": 5510,
      "'Baht": 5511,
      "'Baumm": 5512,
      "##Dschann": 5513,
      "##err (sch=sth.), '": 5514,
      "'Mahk": 5515,
      "##au (ss=scharf)\n": 5516,
      "##ahn (ss=scharf)\n": 5517,
      "'Hopp": 5518,
      "'Horrn": 5519,
      "##jäkk\n": 5520,
      "##äkke\n": 5521,
      "'Lokk": 5522,
      "##äi (sch=stl.)\n": 5523,
      "##a N": 5524,
      "## (ss=scharf), 'P": 5525,
      "## (S=scharf), R": 5526,
      "##oppull": 5527,
      "##ahma\n": 5528,
      "## (sch=stl.) S": 5529,
      "##i'mehn": 5530,
      "##i'sännt": 5531,
      "##ahria\n": 5532,
      "##, 'Wallta\n": 5533,
      "##s (s=scharf), 'R": 5534,
      "##innda\n": 5535,
      "##2xsch=stl.)\n": 5536,
      "##lingenn\n": 5537,
      "##ännjamm": 5538,
      "##rägg\n": 5539,
      "##a'njäll\n": 5540,
      "## (th=englisch, st": 5541,
      "##Bärrnt\n": 5542,
      "E't": 5543,
      "Kasch": 5544,
      "Porr": 5545,
      "Romm": 5546,
      "##oinnt": 5547,
      "##rihn\n": 5548,
      "##ä (S=scharf)\n": 5549,
      "##jurr": 5550,
      "##jänn\n": 5551,
      "## (e": 5552,
      "##ahjäww": 5553,
      "##i'rill": 5554,
      "##e T": 5555,
      "##e E": 5556,
      "##o'reh": 5557,
      "##all'd": 5558,
      "##off (S=weich)\n": 5559,
      "##ass (s+ss=scharf)": 5560,
      "##itta\n": 5561,
      "##ollo'd": 5562,
      "'Roiell": 5563,
      "'Paull": 5564,
      "'Gott": 5565,
      "##'dall": 5566,
      "'Auss": 5567,
      "##a, 'A": 5568,
      "'Norr": 5569,
      "'Ässt": 5570,
      "##rabb": 5571,
      "##, Ma'rih-a\n": 5572,
      "##ihlo\n": 5573,
      "'Jahkopp": 5574,
      "##asch'wihli": 5575,
      "##umm'b": 5576,
      "##; ss=scharf)": 5577,
      "##a'rihn": 5578,
      "##awwa\n": 5579,
      "##de la ": 5580,
      "##ahmu": 5581,
      "## (sch=stl.) K": 5582,
      "##oibb": 5583,
      "##i'gäll": 5584,
      "##Ollä'ks": 5585,
      "##ükke\n": 5586,
      "## (beide s=scharf)\n": 5587,
      "##ahlia\n": 5588,
      "##ännjell": 5589,
      "'Härrts": 5590,
      "##owwitsch": 5591,
      "##werrd\n": 5592,
      "##Bärr'nahr\n": 5593,
      "Bo'n": 5594,
      "Darr": 5595,
      "Sa'd": 5596,
      "Sa'k": 5597,
      "Ta'b": 5598,
      "##lich": 5599,
      "## g": 5600,
      "##su": 5601,
      "##o (s=weich), ": 5602,
      "##Johsäff (s=weich)\n": 5603,
      "##Frädd": 5604,
      "##Ö'sch": 5605,
      "##chi": 5606,
      "##scharf)\n": 5607,
      "##ste": 5608,
      "## (ss=scharf,": 5609,
      "##e k": 5610,
      "##ribb": 5611,
      "##immeth": 5612,
      "'Kannt": 5613,
      "'Bach": 5614,
      "##iss (2xss=scharf)\n": 5615,
      "##assann (ss=scharf)\n": 5616,
      "'Täll": 5617,
      "##ahra (S=weich)\n": 5618,
      "'Höhr": 5619,
      "'Hannt": 5620,
      "'Gahr": 5621,
      "##tschäff": 5622,
      "##ohrdenn": 5623,
      "##ragg": 5624,
      "##a'tolli\n": 5625,
      "##, Makks (s=scharf)\n": 5626,
      "##umm (s=weich)\n": 5627,
      "## (S=scharf), Dsch": 5628,
      "Allb": 5629,
      "##e, D": 5630,
      "##e, 'B": 5631,
      "##äss (ss=scharf), M": 5632,
      "##o'scheh": 5633,
      "##, E'l": 5634,
      "##üht (S=weich)\n": 5635,
      "##rehdo\n": 5636,
      "Sangkt (S=weich) ": 5637,
      "##ch=wie ": 5638,
      "Bu'l": 5639,
      "Deh": 5640,
      "Wollf": 5641,
      "##sa'w": 5642,
      "##a (ch wie ich), '": 5643,
      "##jass": 5644,
      "##ünn\n": 5645,
      "##To'm": 5646,
      "##, ch wie ach)\n": 5647,
      "##ll\n": 5648,
      "##ih (sch=stl.)\n": 5649,
      "##o'a, ": 5650,
      "## (ss=scharf) 'W": 5651,
      "'Bro": 5652,
      "##olli": 5653,
      "'Mühl": 5654,
      "'Tänn": 5655,
      "##ahrt\n": 5656,
      "'Wärr": 5657,
      "##äi (sch=sth.) '": 5658,
      "##oss (S+ss=scharf)\n": 5659,
      "'Dokkt": 5660,
      "## (S=scharf, sch=stimmlos)\n": 5661,
      "##a'tä": 5662,
      "##, Marrk\n": 5663,
      "##ihlann\n": 5664,
      "All'm": 5665,
      "##a'koff": 5666,
      "## (s=scharf, ä=nasal)\n": 5667,
      "##raidd": 5668,
      "##e, 'G": 5669,
      "## de P": 5670,
      "##, Abbd": 5671,
      "##, E'm": 5672,
      "##, 'Annd": 5673,
      "##ähtro\n": 5674,
      "## (S=scharf, th=engl., stl.), '": 5675,
      "## (1.ss=weich, 2.ss=scharf)": 5676,
      "Li'u": 5677,
      "##e'orrgi\n": 5678,
      "##u'sanne (S+s=weich)\n": 5679,
      "Bach": 5680,
      "Dobb": 5681,
      "Go'l": 5682,
      "Itt": 5683,
      "Mahr": 5684,
      "Ma'sch": 5685,
      "Sull": 5686,
      "Tri'": 5687,
      "Ull": 5688,
      "## =": 5689,
      "##a (S=weich) ": 5690,
      "##äitts": 5691,
      "##wärr": 5692,
      "##bi\n": 5693,
      "##ösch": 5694,
      "##Pass'kall (ss=scharf)\n": 5695,
      "##ah'n": 5696,
      "## 'Fr": 5697,
      "## (ss=scharf": 5698,
      "## (ss=scharf) 'R": 5699,
      "##=nasal.) ": 5700,
      "##ikkt\n": 5701,
      "##ssta (ss=scharf)\n": 5702,
      "##err (S=scharf)\n": 5703,
      "##äkkl": 5704,
      "##äith": 5705,
      "## (s=scharf), 'N": 5706,
      "Schl": 5707,
      "## (s=scharf), A": 5708,
      "## (S=scharf, th=engl. st": 5709,
      "##wwitts": 5710,
      "##, 'Marrko\n": 5711,
      "##iddn": 5712,
      "##jäffski (s=scharf)\n": 5713,
      "##uschinn (sch=stl.)\n": 5714,
      "## (sch=stl.) M": 5715,
      "##o'mehn": 5716,
      "##, 'Juhli": 5717,
      "## A'm": 5718,
      "##tsi (s=scharf)\n": 5719,
      "## dehr 'Tswaitt": 5720,
      "## (ss=weich), 'M": 5721,
      "##2x ": 5722,
      "##, Fi'lipp\n": 5723,
      "##u'noff\n": 5724,
      "##riht (S=scharf)\n": 5725,
      "##A'lä (ä=nasal)\n": 5726,
      "##Willi\n": 5727,
      "##oinntsich": 5728,
      "Glänn": 5729,
      "'Robbinn": 5730,
      "##jä'ri\n": 5731,
      "##änndschemm": 5732,
      "## + ": 5733,
      "'Kämmbell": 5734,
      "Doll": 5735,
      "Kosch": 5736,
      "Koht": 5737,
      "Mo'l": 5738,
      "Mi'k": 5739,
      "Me's": 5740,
      "Podd": 5741,
      "Winn": 5742,
      "##lu": 5743,
      "##ok": 5744,
      "##es": 5745,
      "##rahn": 5746,
      "##rohm": 5747,
      "##Lih\n": 5748,
      "##a (ch wie ich)\n": 5749,
      "##a (sch=sth.), ": 5750,
      "##fälld": 5751,
      "##+a=nasal) ": 5752,
      "##ohse (s=weich)\n": 5753,
      "'Kosch": 5754,
      "'Wiss": 5755,
      "'Woht": 5756,
      "'Lou": 5757,
      "'Rahm": 5758,
      "'Gomm": 5759,
      "##Cho's": 5760,
      "'Ainn": 5761,
      "## (2xsch=stimmhaft)\n": 5762,
      "##ess\n": 5763,
      "'Ännt": 5764,
      "##ohnikk": 5765,
      "##äfft": 5766,
      "## (sch=stl.), N": 5767,
      "##ühk": 5768,
      "##i, Sch": 5769,
      "##i Sch": 5770,
      "##e, Dsch": 5771,
      "##Ih-enn\n": 5772,
      "##wwe'n": 5773,
      "##oddorr": 5774,
      "## Ts": 5775,
      "## Br": 5776,
      "## fonn S": 5777,
      "##uhni": 5778,
      "## 'Äff\n": 5779,
      "##, 'Bärrn": 5780,
      "##bach (s=scharf, ch wie ach)\n": 5781,
      "## (sch=weich": 5782,
      "##äiss (ss=weich)\n": 5783,
      "##schenn (sch=stl.)\n": 5784,
      "Bärr't": 5785,
      "## (Sch=stl)\n": 5786,
      "Sä (S=scharf, ä=nasal) ": 5787,
      "'Smith": 5788,
      "Pu'ärrt": 5789,
      "##orrdscho": 5790,
      "## (1.sch=stl., 2.sch=sth.)\n": 5791,
      "##a'bihne (S=weich)\n": 5792,
      "'m": 5793,
      "Ba'd": 5794,
      "Loss": 5795,
      "Te'aht": 5796,
      "##a (s=scharf, ": 5797,
      "##-tsch": 5798,
      "##A'": 5799,
      "##sta (s=scharf)\n": 5800,
      "##ichau (ch wie ach)\n": 5801,
      "##a'ihd": 5802,
      "##e Sch": 5803,
      "##uhj": 5804,
      "'Kull": 5805,
      "'Bou": 5806,
      "'Bahk": 5807,
      "##ass (s+ss=scharf)\n": 5808,
      "## (Sch=stl.,": 5809,
      "##atti\n": 5810,
      "'Linn": 5811,
      "##a fonn\n": 5812,
      "## (2xS=scharf)\n": 5813,
      "##unn'j": 5814,
      "##a'ni\n": 5815,
      "## (s=scharf) D": 5816,
      "## (s=scharf) G": 5817,
      "## (s=scharf) eww": 5818,
      "##a'monn\n": 5819,
      "## (s+s=scharf)": 5820,
      "##e, Sch": 5821,
      "## Sih": 5822,
      "## (ss=scharf, sch=stl.), '": 5823,
      "## (sch=sth.) S": 5824,
      "## 'Ämm": 5825,
      "## (sch=stl., s=weich) '": 5826,
      "##e'suhs": 5827,
      "##s (s=weich), 'M": 5828,
      "## (beide sch=stl.)\n": 5829,
      "##kksl (s=scharf)\n": 5830,
      "## fann": 5831,
      "##sonn (s=scharf)\n": 5832,
      "##berrt": 5833,
      "## 'Kammpenni\n": 5834,
      "##ä'sa (ä": 5835,
      "A'sahbl (A+a=nasal, s=scharf)": 5836,
      "Hah": 5837,
      "Kahn": 5838,
      "Teh": 5839,
      "Te'": 5840,
      "Ätt": 5841,
      "##s't": 5842,
      "##s'h": 5843,
      "##ai'k": 5844,
      "##a (s=weich), ": 5845,
      "##-m": 5846,
      "##anni": 5847,
      "##ann (Sch=stl.)\n": 5848,
      "##ann (S=scharf) ": 5849,
      "##ehs (s=scharf)\n": 5850,
      "##e W": 5851,
      "##inne\n": 5852,
      "##innju": 5853,
      "##onnt\n": 5854,
      "'Burr": 5855,
      "##orrp": 5856,
      "'Möhr": 5857,
      "##ahro\n": 5858,
      "'Läng": 5859,
      "##a Sch": 5860,
      "##s=scharf, ch wie ich)\n": 5861,
      "##ess (ss=weich) ": 5862,
      "##räbb": 5863,
      "##ski (S+s=scharf)\n": 5864,
      "## (Sch=sth., s=scharf)\n": 5865,
      "##ainnharrt\n": 5866,
      "## (1.s=weich": 5867,
      "##ühm": 5868,
      "##a'noffski": 5869,
      "##ihrenn\n": 5870,
      "##etti": 5871,
      "##arrtollo'm": 5872,
      "##i, 'G": 5873,
      "## (S=scharf), 'H": 5874,
      "##o B": 5875,
      "##, 'Dahwitt\n": 5876,
      "##asstinn": 5877,
      "## de la '": 5878,
      "##ohde\n": 5879,
      "##, Att": 5880,
      "##, A'n": 5881,
      "##regg": 5882,
      "##, Ro'": 5883,
      "## (Sch=stl., sch=sth.)\n": 5884,
      "##'rihke\n": 5885,
      "##äirru": 5886,
      "##Alläkk'sannd": 5887,
      "Nikko'l": 5888,
      "'Frangkfurrt": 5889,
      "Karr't": 5890,
      "Patt": 5891,
      "##lh": 5892,
      "##dell": 5893,
      "##gn": 5894,
      "##Ing-g": 5895,
      "##Fa'b": 5896,
      "##, Ann'dreh\n": 5897,
      "##ahja": 5898,
      "##ennts": 5899,
      "##arri'": 5900,
      "##), S": 5901,
      "'Seh": 5902,
      "## (ss=scharf) 'P": 5903,
      "'Kimm": 5904,
      "'Bokk": 5905,
      "##errell": 5906,
      "'Makk": 5907,
      "'Möh": 5908,
      "##autt\n": 5909,
      "##ahn (S=weich)\n": 5910,
      "##jä'm": 5911,
      "##uss (S+ss=scharf)": 5912,
      "'Schill": 5913,
      "##skjä": 5914,
      "Scha'p": 5915,
      "##ing (s=scharf)\n": 5916,
      "##a, 'All": 5917,
      "##räpp": 5918,
      "## (S=scharf, a=nasal)\n": 5919,
      "##, 'Marr": 5920,
      "## (s+ss=scharf, ": 5921,
      "##Äll\n": 5922,
      "##e'ronn": 5923,
      "##, Bill\n": 5924,
      "'Grännts": 5925,
      "The (Th=engl.,st": 5926,
      "## (2x ss=scharf)": 5927,
      "##äilli\n": 5928,
      "##wehk": 5929,
      "## (1. s=weich, 2.": 5930,
      "##ehlia\n": 5931,
      "##Scha (Sch=sth.": 5932,
      "##irrge\n": 5933,
      "##aiww\n": 5934,
      "##Ärrnst": 5935,
      "A'ch": 5936,
      "Innt": 5937,
      "Ramm": 5938,
      "Re'n": 5939,
      "Si": 5940,
      "tu ": 5941,
      "##ld": 5942,
      "##o 'M": 5943,
      "##e (Ch wie ach)\n": 5944,
      "##atsch": 5945,
      "##jättsch": 5946,
      "##Färr": 5947,
      "##ahsche": 5948,
      "##ih, M": 5949,
      "## 'Schtrahse": 5950,
      "##ichl": 5951,
      "##s=weich), M": 5952,
      "##arr'n": 5953,
      "##änn (sch=stl.)\n": 5954,
      "##ällo\n": 5955,
      "##all'm": 5956,
      "##issa (ss=scharf)\n": 5957,
      "##itt (s=scharf)\n": 5958,
      "'Till": 5959,
      "'Hohl": 5960,
      "##jä'lj": 5961,
      "'Schäpp": 5962,
      "##urrk\n": 5963,
      "##a'tohr": 5964,
      "##isch (sch=stl.), ": 5965,
      "##a'dorr": 5966,
      "##asch'k": 5967,
      "Tschärrn": 5968,
      "## Ma'rih-a\n": 5969,
      "##ahsloh": 5970,
      "##e'rohm": 5971,
      "##uhl (S=scharf)\n": 5972,
      "'Tsimm": 5973,
      "##, Br": 5974,
      "##, Wla'dihmihr\n": 5975,
      "## Juh": 5976,
      "##e'rih\n": 5977,
      "##jörrn\n": 5978,
      "##, Klauss (ss=scharf)\n": 5979,
      "##wätt'l": 5980,
      "'Wahgna": 5981,
      "Isch": 5982,
      "Nihd": 5983,
      "Pe'l": 5984,
      "Si'n": 5985,
      "Sapp": 5986,
      "Tuh": 5987,
      "Timm": 5988,
      "##rall": 5989,
      "##remm": 5990,
      "##Rohbärrt\n": 5991,
      "##jorr": 5992,
      "##Kriss (ss=scharf)\n": 5993,
      "##ü'sch": 5994,
      "##öjj": 5995,
      "##enn's": 5996,
      "##enn, 'M": 5997,
      "##enn, 'K": 5998,
      "##inns (s=scharf)\n": 5999,
      "##arr (S=scharf)\n": 6000,
      "##arr'g": 6001,
      "'Saidd": 6002,
      "## (ss=scharf) 'L": 6003,
      "'Kämmp": 6004,
      "##att'jahna\n": 6005,
      "##ihn (s=weich)\n": 6006,
      "##ahr (sch=stl.)\n": 6007,
      "'Wihl": 6008,
      "##uss (S=weich, ss=scharf)\n": 6009,
      "##Chorrche": 6010,
      "##s=scharf, sch=stl.)\n": 6011,
      "##ing (sch=stl.)\n": 6012,
      "##a, 'Sch": 6013,
      "##rang": 6014,
      "## (Sch=sth.) '": 6015,
      "## (Sch=sth., ss=scharf)\n": 6016,
      "## (Sch=sth., s=scharf)": 6017,
      "## (ss=scharf) fonn": 6018,
      "##ih-o\n": 6019,
      "'Jäll": 6020,
      "## (o+": 6021,
      "##ong'g": 6022,
      "## fonn 'K": 6023,
      "##, A'm": 6024,
      "## dehr 'F": 6025,
      "##, 'Frädd": 6026,
      "'Skott": 6027,
      "##ass'tjä": 6028,
      "##iwwerr": 6029,
      "##jängkoff\n": 6030,
      "##Uhwe\n": 6031,
      "##Alläkk'sahdre": 6032,
      "##ü'ljä": 6033,
      "## (S=scharf, th=engl., stl.)\n": 6034,
      "##, Scha (Sch=sth., a=nasal)\n": 6035,
      "'p": 6036,
      "Domm": 6037,
      "La'm": 6038,
      "Labb": 6039,
      "Mar": 6040,
      "Mo'n": 6041,
      "Nass": 6042,
      "Pätt": 6043,
      "Pi'k": 6044,
      "Po'p": 6045,
      "Tann": 6046,
      "Toll": 6047,
      "Ta'm": 6048,
      "We'l": 6049,
      "Ässt": 6050,
      "##lännd": 6051,
      "##siss": 6052,
      "##o 'K": 6053,
      "##ge\n": 6054,
      "##ki\n": 6055,
      "##wä": 6056,
      "##be\n": 6057,
      "##-schtrahse": 6058,
      "##Ing": 6059,
      "##Agg": 6060,
      "##cho": 6061,
      "##ann (S=weich)\n": 6062,
      "##ärrikk\n": 6063,
      "'Satt": 6064,
      "'Sännd": 6065,
      "## (Sch=": 6066,
      "##onnoff\n": 6067,
      "##ai (sch=stl.)\n": 6068,
      "'Kirrch": 6069,
      "##issi": 6070,
      "##oudd\n": 6071,
      "'Mannd": 6072,
      "##ahr (ss=scharf)\n": 6073,
      "##ahräkk\n": 6074,
      "##jässt": 6075,
      "'Lai": 6076,
      "'Pänn": 6077,
      "'Päll": 6078,
      "##tschinn": 6079,
      "##'lahm": 6080,
      "'Forr": 6081,
      "##rong": 6082,
      "##ra (a=nasal)\n": 6083,
      "##semm": 6084,
      "##ih-e\n": 6085,
      "## (s=weich), 'D": 6086,
      "##ihmihr\n": 6087,
      "##Ah'geh\n": 6088,
      "##, S=scharf)\n": 6089,
      "##oppf": 6090,
      "##i'täht": 6091,
      "##'pl": 6092,
      "##eh-u": 6093,
      "## (S=scharf) 'L": 6094,
      "##ipp\n": 6095,
      "##aikke\n": 6096,
      "##ittsä (s=scharf)\n": 6097,
      "## (Sch=sth., s=weich) ": 6098,
      "'Irr": 6099,
      "'Unn": 6100,
      "##'tswanntsich": 6101,
      "## (Sch+sch=stl.), '": 6102,
      "##uhm\n": 6103,
      "##laff (s=scharf)\n": 6104,
      "Ärr'n": 6105,
      "## Kwarr'tätt\n": 6106,
      "##Frann'tsisska": 6107,
      "Be'": 6108,
      "Lass": 6109,
      "Rokk": 6110,
      "Radd": 6111,
      "Waitt": 6112,
      "##lj": 6113,
      "## Ü": 6114,
      "##),": 6115,
      "##o 'S": 6116,
      "##e (sch=sth.), ": 6117,
      "##a (": 6118,
      "##ä'tsch": 6119,
      "##waill": 6120,
      "##Ba'tisst": 6121,
      "##-st": 6122,
      "##Juh": 6123,
      "##ö (ö": 6124,
      "##sch (sch=stl.), ": 6125,
      "##a'riss": 6126,
      "## (S=Scharf": 6127,
      "##arr'lott": 6128,
      "##ärrp": 6129,
      "##änn's": 6130,
      "'Kaiss": 6131,
      "##'th": 6132,
      "##thi": 6133,
      "'Tohr": 6134,
      "'Wehb": 6135,
      "'Rott": 6136,
      "'Gorr": 6137,
      "'Fill": 6138,
      "'Fahr": 6139,
      "##a, H": 6140,
      "##ahle": 6141,
      "##ühp": 6142,
      "##ahde\n": 6143,
      "##ittsch (2xsch=stl.), '": 6144,
      "##i R": 6145,
      "## (sch=stimmhaft, ": 6146,
      "##e, 'T": 6147,
      "##de L": 6148,
      "##'tschäll": 6149,
      "##'hauss": 6150,
      "##ri'sch": 6151,
      "'Brukk": 6152,
      "##äng'g": 6153,
      "##kinn (ss=scharf)\n": 6154,
      "## (A=nasal), ": 6155,
      "Arr't": 6156,
      "'Grohs": 6157,
      "##, Paull\n": 6158,
      "## (sch=sth.) 'M": 6159,
      "##ihp\n": 6160,
      "##'wihl (ss=scharf)\n": 6161,
      "##schtatt (sch=stl.)\n": 6162,
      "##'tjänn\n": 6163,
      "##Raffa'äll\n": 6164,
      "##ollo'gih\n": 6165,
      "##a'sihli (s=scharf)\n": 6166,
      "Bi": 6167,
      "Berr": 6168,
      "E'p": 6169,
      "Ka'sch": 6170,
      "Le'b": 6171,
      "Magg": 6172,
      "Mi'r": 6173,
      "Paww": 6174,
      "U'l": 6175,
      "##lou": 6176,
      "##ui\n": 6177,
      "##i (s=weich), ": 6178,
      "## r": 6179,
      "##ou't": 6180,
      "##eikk": 6181,
      "##rinn\n": 6182,
      "##a (sch=sth.), '": 6183,
      "##ä (ss=scharf, ": 6184,
      "##wässt": 6185,
      "##stitt": 6186,
      "##ih (s=weich)\n": 6187,
      "## 'Ann": 6188,
      "##annänn": 6189,
      "##i'ahni": 6190,
      "##ehring": 6191,
      "##e N": 6192,
      "##e A": 6193,
      "##inns (s=weich)\n": 6194,
      "##o'witts": 6195,
      "##e'raht": 6196,
      "## (ss=scharf) de\n": 6197,
      "'King": 6198,
      "'Bäss": 6199,
      "'Bodd": 6200,
      "'Braitt": 6201,
      "'Murr": 6202,
      "##attsa": 6203,
      "'Wikk": 6204,
      "##äss\n": 6205,
      "'Limm": 6206,
      "'Pill": 6207,
      "##'dull": 6208,
      "##äithenn": 6209,
      "##ossäff": 6210,
      "'Schullts": 6211,
      "Schloss": 6212,
      "## (ss=scharf), W": 6213,
      "## 'Sännt": 6214,
      "##1.a=nasal)\n": 6215,
      "##ittschäff (sch=stl.)\n": 6216,
      "##Ahb": 6217,
      "## (S=scharf), 'B": 6218,
      "##e'ni\n": 6219,
      "##raibb": 6220,
      "##o R": 6221,
      "## Bl": 6222,
      "##, Sch=st": 6223,
      "## 'Ämm\n": 6224,
      "## (Sch+sch=stl.), ": 6225,
      "## (2.a=nasal), ": 6226,
      "## (ch wie ach), 'M": 6227,
      "##i'ahne\n": 6228,
      "## (o=nasal, s=scharf)\n": 6229,
      "## (3xs=scharf)\n": 6230,
      "Mekk'D": 6231,
      "##aggless (ss=scharf)\n": 6232,
      "##ngchäll (ch wie ach)\n": 6233,
      "##uhsenn (S=scharf, s=weich)\n": 6234,
      "##immittidd\n": 6235,
      "##äittschell (sch=stl.)\n": 6236,
      "Hamm": 6237,
      "Koww": 6238,
      "Ke'n": 6239,
      "Ko'k": 6240,
      "La'g": 6241,
      "Ma'm": 6242,
      "Tj": 6243,
      "Wu": 6244,
      "Witt": 6245,
      "##sdorrf": 6246,
      "##),'": 6247,
      "##Wikktohr\n": 6248,
      "##schinn": 6249,
      "##statt": 6250,
      "##, 'Ill": 6251,
      "## 'g": 6252,
      "##enns (s=scharf), '": 6253,
      "'Sinn": 6254,
      "##onnoff": 6255,
      "##riww": 6256,
      "##ach'mahn": 6257,
      "'Buhch": 6258,
      "##ill (sch=sth.)\n": 6259,
      "##Dschuhli": 6260,
      "##jäch": 6261,
      "##jä't": 6262,
      "##ässa (ss=scharf)\n": 6263,
      "##elle\n": 6264,
      "'Raitt": 6265,
      "'Raiss": 6266,
      "'Au": 6267,
      "##tschinn (sch=stl.)\n": 6268,
      "'Diht": 6269,
      "Schinn": 6270,
      "## (s=scharf), H": 6271,
      "##'männ": 6272,
      "## (S=scharf, a=nasal) ": 6273,
      "##a, E": 6274,
      "##ämm'b": 6275,
      "## (1.o=nasal)\n": 6276,
      "##sch=sth., ": 6277,
      "## (s=scharf) L": 6278,
      "## (s=scharf) R": 6279,
      "## (s=scharf) F": 6280,
      "'Off": 6281,
      "'Jang": 6282,
      "##ittschi": 6283,
      "##i F": 6284,
      "##i Dsch": 6285,
      "##ruhs": 6286,
      "##schteht": 6287,
      "##, Sk": 6288,
      "##ahsoff (s=scharf)\n": 6289,
      "##osch (1.sch=sth., 2.sch=stl.)\n": 6290,
      "##ohte\n": 6291,
      "'Tschäpp": 6292,
      "## (sch=stl.) 'B": 6293,
      "##ohds (s=weich)\n": 6294,
      "## (A=nasal": 6295,
      "La R": 6296,
      "##ahna (s=scharf)\n": 6297,
      "## (sch=sth) ": 6298,
      "##innski (sch=stl., s=scharf)": 6299,
      "##Karrlo\n": 6300,
      "##ä'rihna\n": 6301,
      "Fe'r": 6302,
      "Mett": 6303,
      "Sonn": 6304,
      "Sirr": 6305,
      "##mihn\n": 6306,
      "##'rä": 6307,
      "##eidd": 6308,
      "##e (s=weich) ": 6309,
      "##rakk": 6310,
      "##af": 6311,
      "##ap": 6312,
      "##a (Sch=sth.)\n": 6313,
      "##a (S+s=scharf)\n": 6314,
      "##a (ch wie ach), ": 6315,
      "##wallt\n": 6316,
      "##Ma'ri\n": 6317,
      "##-ühb": 6318,
      "##Joh-hann": 6319,
      "##ss't": 6320,
      "##ennk": 6321,
      "##inn (Ch wie ach)\n": 6322,
      "##arr'l": 6323,
      "##ärrmann": 6324,
      "## (ss=scharf) 'F": 6325,
      "'Britt": 6326,
      "##ass (S+ss=scharf)": 6327,
      "##ills (s=weich)\n": 6328,
      "##att (sch=stl.)\n": 6329,
      "'Wänn": 6330,
      "## (S=weich; ": 6331,
      "##amms": 6332,
      "'Linnt": 6333,
      "'Rämm": 6334,
      "'Gaiss": 6335,
      "##uss'tihn": 6336,
      "##uss (S=weich, ss=scharf)": 6337,
      "##lipp": 6338,
      "'Fänn": 6339,
      "'Fohk": 6340,
      "##ingemm": 6341,
      "##ski (S+s=scharf)": 6342,
      "##, Micha'ill (ch wie ach)\n": 6343,
      "##a'nihn": 6344,
      "##a'deh": 6345,
      "## (s=weich), 'S": 6346,
      "## (S=scharf), D": 6347,
      "##e, B": 6348,
      "## (s=scharf, sch=sth.)\n": 6349,
      "## (Sch=stl.), 'R": 6350,
      "##aggang": 6351,
      "##ängko, ": 6352,
      "## (sch=stl., s=weich), '": 6353,
      "##ch wie ich), ": 6354,
      "##ü'änn": 6355,
      "##aidde\n": 6356,
      "##ihgl": 6357,
      "##ahwa\n": 6358,
      "##, Gabbri'": 6359,
      "##Ann'tonni": 6360,
      "##, Ni'k": 6361,
      "## E'm": 6362,
      "##iwwe\n": 6363,
      "Äss't": 6364,
      "## (1.a=nasal, ": 6365,
      "##=nas.) ": 6366,
      "##Pättrikk\n": 6367,
      "##ännjammihn\n": 6368,
      "Bih": 6369,
      "Ha'm": 6370,
      "Ko'p": 6371,
      "Mah": 6372,
      "Mo't": 6373,
      "Ro'b": 6374,
      "Se'l": 6375,
      "inn": 6376,
      "##hollts": 6377,
      "##ow": 6378,
      "##rupp": 6379,
      "##f)\n": 6380,
      "##jall": 6381,
      "##-ts": 6382,
      "##Jo'achihm (ch wie ach)\n": 6383,
      "##Nikk\n": 6384,
      "##ah (sch=stl.)\n": 6385,
      "##enn'": 6386,
      "##o'rah": 6387,
      "##o'rä": 6388,
      "##ärr'b": 6389,
      "##ärrelld": 6390,
      "##aie\n": 6391,
      "'Modd": 6392,
      "'Hatt": 6393,
      "'Hahn": 6394,
      "'Hakk": 6395,
      "'Wass": 6396,
      "##ässka": 6397,
      "##rihs (s=scharf)\n": 6398,
      "'Lätt": 6399,
      "'Gibb": 6400,
      "##ingg": 6401,
      "##roddsch": 6402,
      "##'noinntsich": 6403,
      "##ainns (s=weich)\n": 6404,
      "##, 'Mäthjuh": 6405,
      "##ohlannt\n": 6406,
      "'Juhn": 6407,
      "##i, B": 6408,
      "##i, W": 6409,
      "##änndenn\n": 6410,
      "##Ahli\n": 6411,
      "##ihke\n": 6412,
      "##i'tohri": 6413,
      "## (Sch=stl.), 'H": 6414,
      "##o T": 6415,
      "##, 'Dmittri\n": 6416,
      "## (sch=sth.) M": 6417,
      "## fonn 'M": 6418,
      "'Aht": 6419,
      "##, Scharrl": 6420,
      "##ekkatt": 6421,
      "##, 'Br": 6422,
      "##uhdi\n": 6423,
      "## 'Ahr": 6424,
      "## (Sch=stl., a=nasal)\n": 6425,
      "Arrt": 6426,
      "## (sch=stl) '": 6427,
      "Braunn": 6428,
      "##äikkebb": 6429,
      "##Robbinn\n": 6430,
      "## Äss (ss=scharf) ": 6431,
      "##Luhkass (ss=scharf)\n": 6432,
      "##Skott (S=scharf)\n": 6433,
      "##'lihsabbätt (s=weich)\n": 6434,
      "Dorr": 6435,
      "Damm": 6436,
      "Hann": 6437,
      "Kammp": 6438,
      "Ka'f": 6439,
      "Linn": 6440,
      "Mädd": 6441,
      "Pass": 6442,
      "Wäll": 6443,
      "##Sp": 6444,
      "##lahd": 6445,
      "##oirr": 6446,
      "##n (S=scharf)\n": 6447,
      "##n'h": 6448,
      "##a (s=weich) '": 6449,
      "##foh": 6450,
      "##Ohr": 6451,
      "## (t": 6452,
      "##sterr": 6453,
      "##ohwi": 6454,
      "##ohsa (s=scharf)\n": 6455,
      "##i'si": 6456,
      "##enn, Dsch": 6457,
      "##u'reh": 6458,
      "'Kahm": 6459,
      "##ittski (s=scharf)\n": 6460,
      "##ollts (s=scharf)\n": 6461,
      "##erring": 6462,
      "'Tohm": 6463,
      "'Haill": 6464,
      "'Worr": 6465,
      "'Paww": 6466,
      "##uss'l": 6467,
      "##ligg": 6468,
      "##oss\n": 6469,
      "'Ang": 6470,
      "##ohro\n": 6471,
      "Schu'": 6472,
      "##a'lihna\n": 6473,
      "##a 'Scht": 6474,
      "## (s=scharf) W": 6475,
      "## (S=scharf) B": 6476,
      "##ihma\n": 6477,
      "## 'Trih-o\n": 6478,
      "##ässterr": 6479,
      "## 'Hänn": 6480,
      "##e, 'F": 6481,
      "##de B": 6482,
      "## (ss=scharf, sch=stl.), ": 6483,
      "##osch (sch=stimmlos)\n": 6484,
      "##, 'Ruhdollf\n": 6485,
      "##ahgr": 6486,
      "##assta's": 6487,
      "##, Bobb\n": 6488,
      "##ohko\n": 6489,
      "La B": 6490,
      "## (Sch=stimmlos) ": 6491,
      "'Willsenn (s=scharf), '": 6492,
      "Korr'n": 6493,
      "##ill'järrm": 6494,
      "## 'Tseh (s=scharf)\n": 6495,
      "'Grännts-ühb": 6496,
      "Cha": 6497,
      "Ku'r": 6498,
      "La'k": 6499,
      "Mi'n": 6500,
      "Ou": 6501,
      "O't": 6502,
      "Päll": 6503,
      "Pro": 6504,
      "Pa's": 6505,
      "Pri'": 6506,
      "Parr't": 6507,
      "Sä'": 6508,
      "Watt": 6509,
      "Wirr": 6510,
      "##haussn": 6511,
      "## oww": 6512,
      "##so (s=scharf)\n": 6513,
      "##oimm": 6514,
      "##o (ss=scharf) ": 6515,
      "##o (sch=stl.) ": 6516,
      "##a (Sch=stl.) '": 6517,
      "##ä ": 6518,
      "##jätts": 6519,
      "##warrt\n": 6520,
      "##wärrk": 6521,
      "##üng": 6522,
      "##E'w": 6523,
      "##sch (sch=sth.)\n": 6524,
      "## (ch": 6525,
      "##s=weich, ss=scharf)\n": 6526,
      "##ehts": 6527,
      "##inni\n": 6528,
      "##uhro": 6529,
      "##änn'j": 6530,
      "'Sirr": 6531,
      "'Söhr": 6532,
      "##onnts": 6533,
      "'Köhr": 6534,
      "##allb": 6535,
      "##offa (ss=scharf)\n": 6536,
      "##iss (ss=weich) '": 6537,
      "##ou (ss=scharf)\n": 6538,
      "##th=eng": 6539,
      "'Möll": 6540,
      "'Winnd": 6541,
      "##ellt": 6542,
      "##ell (sch=sth.)\n": 6543,
      "'Laitt": 6544,
      "'Rass": 6545,
      "'Paht": 6546,
      "'Parrk": 6547,
      "'Ponnt": 6548,
      "'Schk": 6549,
      "##'kl": 6550,
      "'Duh-": 6551,
      "Schirr": 6552,
      "Schi'k": 6553,
      "'Frängk": 6554,
      "## (ss=scharf), B": 6555,
      "## (S+ss=weich)\n": 6556,
      "##räikk": 6557,
      "##a, P": 6558,
      "##ull't": 6559,
      "## (sch=stl.), G": 6560,
      "##a 'Sch": 6561,
      "##ische": 6562,
      "##isch (sch=stl.) '": 6563,
      "##okki\n": 6564,
      "##ohle\n": 6565,
      "##ittschi (sch=stl.)\n": 6566,
      "##owwa\n": 6567,
      "##owwa, '": 6568,
      "##ruhn\n": 6569,
      "## (S=scharf) D": 6570,
      "## (S=scharf) eww": 6571,
      "## (th=engl., stimmlos": 6572,
      "##e, G": 6573,
      "##utts (s=scharf)\n": 6574,
      "'Tschärrn": 6575,
      "##, 'Dahniäll\n": 6576,
      "## (ss+S=scharf)\n": 6577,
      "## (sch=stimmlos, ss=scharf)\n": 6578,
      "'Schtäff": 6579,
      "##a-ehl": 6580,
      "## (Th=engl., sth.) ": 6581,
      "Le S": 6582,
      "##uchinn": 6583,
      "##Krissteff": 6584,
      "##s (s=weich), Dsch": 6585,
      "##iwwell": 6586,
      "Barrb": 6587,
      "##räiemm\n": 6588,
      "##, Tschahrls": 6589,
      "##sdouttihr": 6590,
      "##irrschih (sch=sth.)\n": 6591,
      "##attsi'ohn (s=scharf)\n": 6592,
      "##ä'channdro": 6593,
      "##a'nissuaff (S+ss=scharf)\n": 6594,
      "##akksi'mihliahn (s=scharf)\n": 6595,
      "##ollo'dihmihr\n": 6596,
      "##ahsloh (s=scharf)\n": 6597,
      "'app": 6598,
      "Bä'l": 6599,
      "Ett": 6600,
      "Gass": 6601,
      "Grahf": 6602,
      "Hohch": 6603,
      "Jann": 6604,
      "Moss": 6605,
      "Ma'j": 6606,
      "Na'w": 6607,
      "Omm": 6608,
      "Pj": 6609,
      "Surr": 6610,
      "##le'": 6611,
      "##i 'T": 6612,
      "## h": 6613,
      "##s (sch=stl., s=weich)\n": 6614,
      "##oiss (ss=scharf)\n": 6615,
      "##nbärrk\n": 6616,
      "##'fonn": 6617,
      "##ettsch": 6618,
      "##eo'd": 6619,
      "##ri'k": 6620,
      "##ro't": 6621,
      "##aj": 6622,
      "##a (S=weich) '": 6623,
      "##jarr": 6624,
      "##jo, ": 6625,
      "##wann": 6626,
      "##Wärrna\n": 6627,
      "## (i": 6628,
      "##ah (ss=scharf)\n": 6629,
      "##i'aht": 6630,
      "##ehlo": 6631,
      "##enn, 'Dsch": 6632,
      "##achm": 6633,
      "##ällf\n": 6634,
      "'Kill": 6635,
      "'Konnt": 6636,
      "'Bih-": 6637,
      "'Bädd": 6638,
      "'Bärrt": 6639,
      "##alli\n": 6640,
      "##orriss (ss=scharf)\n": 6641,
      "##ass (S+ss=scharf)\n": 6642,
      "'Moll": 6643,
      "##loch": 6644,
      "'Trih": 6645,
      "'Waidd": 6646,
      "'Rehg": 6647,
      "Schü": 6648,
      "'Foll": 6649,
      "## (ss=scharf), 'N": 6650,
      "## (ss=scharf), L": 6651,
      "##'mätt": 6652,
      "##ahloff\n": 6653,
      "'Äkks": 6654,
      "##wwitt": 6655,
      "##'gl": 6656,
      "##ischenn": 6657,
      "##a'mihr": 6658,
      "##ruhd": 6659,
      "## (S=scharf), 'T": 6660,
      "##ihkfriht": 6661,
      "##i'tahli\n": 6662,
      "##ohma\n": 6663,
      "##, 'Rittschedd (sch=stl.)\n": 6664,
      "## (S=scharf) 'D": 6665,
      "## (S=scharf) 'B": 6666,
      "## Tih": 6667,
      "##ürrst": 6668,
      "##, 'Jann": 6669,
      "'Ahn": 6670,
      "'Ahk": 6671,
      "## 'Gl": 6672,
      "##, 'Wikkt": 6673,
      "'Bränn": 6674,
      "##e'sill": 6675,
      "## Pl": 6676,
      "##rich (ch wie ich), '": 6677,
      "## (th=engl. stl.) '": 6678,
      "##ü'li": 6679,
      "##ihbn": 6680,
      "## (sch=sth.) 'K": 6681,
      "##ännsiss": 6682,
      "##ihwa\n": 6683,
      "##nikkoff (sch=stl.)\n": 6684,
      "##äitti\n": 6685,
      "##Marr'säll (s=scharf)\n": 6686,
      "'Öss": 6687,
      "##äwwinn": 6688,
      "Ohl": 6689,
      "## (Sch=stl, s=scharf)\n": 6690,
      "##i, Dscho'wann": 6691,
      "##Frasso'a (1.a=nasal, ss=scharf)": 6692,
      "##riddsch (sch=sth.)\n": 6693,
      "## (th=engl.,stl.)\n": 6694,
      "##Bärrnharrt\n": 6695,
      "##'lihsab": 6696,
      "##Pi'ähtro\n": 6697,
      "Iwwa'n": 6698,
      "##eh-oddohr\n": 6699,
      "##edde'rihko\n": 6700,
      "Busch": 6701,
      "Burrk": 6702,
      "Fu'": 6703,
      "Fi'l": 6704,
      "Ku'l": 6705,
      "Märr": 6706,
      "Mäss": 6707,
      "Nuh": 6708,
      "Pi'n": 6709,
      "Sn": 6710,
      "Tamm": 6711,
      "Umm": 6712,
      "##sg": 6713,
      "##ss=scharf; ": 6714,
      "##t (ss=scharf)\n": 6715,
      "##); ": 6716,
      "##dänn": 6717,
      "##e (sch=sth., ss=scharf)\n": 6718,
      "##ra'f": 6719,
      "##ä (2x": 6720,
      "##bahn": 6721,
      "##--": 6722,
      "##-äkk": 6723,
      "## (s,ss=scharf)": 6724,
      "##ichall": 6725,
      "##i'rih": 6726,
      "## (sch=stl.; ": 6727,
      "##enn't": 6728,
      "##enn (ch wie ich)\n": 6729,
      "##inndschell": 6730,
      "'Kukk": 6731,
      "'Kuhn": 6732,
      "'Bahn": 6733,
      "##orri": 6734,
      "##illo\n": 6735,
      "##ikk (ss=scharf)\n": 6736,
      "##ollga\n": 6737,
      "'Turr": 6738,
      "##ahroff\n": 6739,
      "'Häss": 6740,
      "'Hahs": 6741,
      "'Haimm": 6742,
      "'Häiss": 6743,
      "##jäbb": 6744,
      "##ässe (ss=scharf)\n": 6745,
      "'Lännd": 6746,
      "##oss (S+ss=scharf)": 6747,
      "Scha'": 6748,
      "##a, 'Tohmass (ss=scharf)\n": 6749,
      "##roitt": 6750,
      "'Norrt": 6751,
      "##se (s=weich), ": 6752,
      "##a'lehna\n": 6753,
      "##, Mahk\n": 6754,
      "##ischäff (sch=stl.)\n": 6755,
      "##ukka\n": 6756,
      "## (sch=stimmhaft, s=scharf)\n": 6757,
      "##a'ks": 6758,
      "##o'naht": 6759,
      "##, Konnst": 6760,
      "##, 'Rittscherrd (sch=stl.)\n": 6761,
      "##asst (ss=scharf)\n": 6762,
      "##ah-o\n": 6763,
      "##ja (ss=scharf, a=nasal)\n": 6764,
      "##kinns (s=weich), '": 6765,
      "##sn (s=scharf)\n": 6766,
      "##a-u'": 6767,
      "## (sch=stls": 6768,
      "##ihna (S=scharf)\n": 6769,
      "##the (th=engl., sth.) '": 6770,
      "##ätherr": 6771,
      "## (th=engl., stl.), ": 6772,
      "##jättski": 6773,
      "##äh-a\n": 6774,
      "## (Sch=stl), '": 6775,
      "##Alläkk'seh (s=scharf)\n": 6776,
      "##uaff (ss=scharf)\n": 6777,
      "##, Stihw (S=scharf)\n": 6778,
      "##rafft": 6779,
      "##o-ha'm": 6780,
      "##E'mihli": 6781,
      "##ämmjuell (S=scharf)\n": 6782,
      "Ba'j": 6783,
      "E'": 6784,
      "Käll": 6785,
      "Kahr": 6786,
      "Lamm": 6787,
      "La'b": 6788,
      "Mäll": 6789,
      "Na'": 6790,
      "Pe'": 6791,
      "Poss": 6792,
      "Pa'p": 6793,
      "Sa'p": 6794,
      "Wo": 6795,
      "Wi'd": 6796,
      "tu": 6797,
      "## /": 6798,
      "##oa'k": 6799,
      "##n't": 6800,
      "##n (ch wie ich)\n": 6801,
      "##rkl": 6802,
      "##ai's": 6803,
      "##Dahwitt\n": 6804,
      "##bau": 6805,
      "##baumm": 6806,
      "##Kr": 6807,
      "##Okk": 6808,
      "##sch (sch=stl.), '": 6809,
      "##ah (Sch=stl.)\n": 6810,
      "##winnt": 6811,
      "##e fonn": 6812,
      "##e de\n": 6813,
      "##enn'd": 6814,
      "##enns (s=weich)\n": 6815,
      "##o'st": 6816,
      "##o'sa": 6817,
      "##uhsi (s=scharf)\n": 6818,
      "##saidd": 6819,
      "## (s=scharf) de ": 6820,
      "##immjäsch": 6821,
      "'Bann": 6822,
      "'Bahl": 6823,
      "##ounnt": 6824,
      "##err, 'Dsch": 6825,
      "##ww\n": 6826,
      "'Mihk": 6827,
      "##äkkt\n": 6828,
      "##äkk'n": 6829,
      "'Grih": 6830,
      "Schapp": 6831,
      "##akk't": 6832,
      "##a, 'Eh": 6833,
      "##th=engl.,st": 6834,
      "##ainnh": 6835,
      "##ühth": 6836,
      "##iddri": 6837,
      "##i, A": 6838,
      "##ihmo\n": 6839,
      "##Ah 'Geh\n": 6840,
      "##senns": 6841,
      "## stl.)\n": 6842,
      "## (s=scharf, sch=stimmlos)\n": 6843,
      "##a'räll": 6844,
      "##uschkinn": 6845,
      "##de S": 6846,
      "## Bih": 6847,
      "##ihsn": 6848,
      "##, 'Joh-hann\n": 6849,
      "##, 'Tounni\n": 6850,
      "## Att": 6851,
      "##, Jann": 6852,
      "##annsonn": 6853,
      "La S": 6854,
      "La F": 6855,
      "## (ss=weich), S": 6856,
      "##je (s=weich)\n": 6857,
      "##ohnatt": 6858,
      "##Äddemm\n": 6859,
      "##äimms (sch=sth., s=weich) '": 6860,
      "##u'gusst": 6861,
      "'Ängl": 6862,
      "##juhsikk (s=weich)\n": 6863,
      "Al": 6864,
      "Babb": 6865,
      "Demm": 6866,
      "E'd": 6867,
      "Pä'": 6868,
      "Se'": 6869,
      "##u (Sch=stl.)\n": 6870,
      "## weich": 6871,
      "##säll": 6872,
      "##denn\n": 6873,
      "##e (Sch=stl.), ": 6874,
      "##g\n": 6875,
      "##Wikkt": 6876,
      "##Na'tallja\n": 6877,
      "##art": 6878,
      "##l., s=scharf)": 6879,
      "## (S,s=scharf)\n": 6880,
      "##i'ahd": 6881,
      "##nadd": 6882,
      "##uhmenn": 6883,
      "##sach": 6884,
      "'Sobb": 6885,
      "##u'rih": 6886,
      "##u'ann\n": 6887,
      "'Kroitts": 6888,
      "'Bisch": 6889,
      "'Bännd": 6890,
      "'Butt": 6891,
      "'Böhn": 6892,
      "'Böhrn": 6893,
      "##iss (sch=sth., ": 6894,
      "##ahr (s=scharf)\n": 6895,
      "##ts\n": 6896,
      "'Wih-": 6897,
      "'Ritt": 6898,
      "'Ramm": 6899,
      "'Raht": 6900,
      "'Pall": 6901,
      "##äi (sch=sth.) ": 6902,
      "'Aidd": 6903,
      "'Ds": 6904,
      "##'sih-": 6905,
      "Scha'l": 6906,
      "##a, 'Dsch": 6907,
      "##ra (a=nasal), ": 6908,
      "##a'li\n": 6909,
      "##ahto": 6910,
      "## (sch=stl.), B": 6911,
      "##ih-ass": 6912,
      "##Allfreht\n": 6913,
      "##, 'Konn": 6914,
      "##i H": 6915,
      "##Ah'Geh\n": 6916,
      "## (s=scharf, sch=stl.), ": 6917,
      "Tschang": 6918,
      "##ännte\n": 6919,
      "## (S=scharf) 'H": 6920,
      "## (S=scharf) 'P": 6921,
      "## 'Äkk": 6922,
      "##ängg": 6923,
      "##sn (s=scharf), '": 6924,
      "##ounns": 6925,
      "##ounne\n": 6926,
      "'Innd": 6927,
      "## (schx2": 6928,
      "La M": 6929,
      "##jehs": 6930,
      "##ohbl": 6931,
      "##iwwenn": 6932,
      "## Orr": 6933,
      "##+a=nasal, s=scharf)\n": 6934,
      "## Ämm Beh": 6935,
      "##riss'tihn (ss=scharf)\n": 6936,
      "##uggusst (ss=scharf)\n": 6937,
      "## (alle s/ss=scharf)\n": 6938,
      "##rklär": 6939,
      "Bagg": 6940,
      "Fi'": 6941,
      "Krisst": 6942,
      "Karrl": 6943,
      "Kriss't": 6944,
      "Le'm": 6945,
      "Le'k": 6946,
      "Lu'k": 6947,
      "Ma'g": 6948,
      "Osst": 6949,
      "Rädd": 6950,
      "##ij": 6951,
      "##i 'R": 6952,
      "##i 'N": 6953,
      "##tu": 6954,
      "##. ": 6955,
      "##ot": 6956,
      "##od": 6957,
      "##nburrk": 6958,
      "##renn\n": 6959,
      "##rohn": 6960,
      "##fäll": 6961,
      "##fohr": 6962,
      "##juss": 6963,
      "##Mi'schäll (sch=stl.)\n": 6964,
      "##-akk": 6965,
      "##Na'd": 6966,
      "##Fill": 6967,
      "##Fehlikks (s=scharf)\n": 6968,
      "##Osskarr (ss=scharf)\n": 6969,
      "##chio": 6970,
      "##ah (a=nasal)\n": 6971,
      "##ih (Sch=stl.)\n": 6972,
      "##ärre\n": 6973,
      "'Somm": 6974,
      "'Sohsa": 6975,
      "##immfenn": 6976,
      "##orrj": 6977,
      "##orr'g": 6978,
      "##err, Dsch": 6979,
      "##errsenn (s=scharf), '": 6980,
      "##ätto\n": 6981,
      "'Tahl": 6982,
      "'Wull": 6983,
      "'Long": 6984,
      "##a H": 6985,
      "##a, 'Pehta\n": 6986,
      "##irri": 6987,
      "##omm'p": 6988,
      "##rasst": 6989,
      "##anndl": 6990,
      "##Ann\n": 6991,
      "##ih-ou\n": 6992,
      "##ähk": 6993,
      "##'walld": 6994,
      "##okko\n": 6995,
      "##ohlo\n": 6996,
      "##aschk": 6997,
      "## 'Tr": 6998,
      "##juhm": 6999,
      "##a'rihna": 7000,
      "##wwenn\n": 7001,
      "##o, L": 7002,
      "##ürrt": 7003,
      "##, 'Pihterr\n": 7004,
      "##ch wie ich) ": 7005,
      "##uhka\n": 7006,
      "'Uhr": 7007,
      "## (th=engl. sth.": 7008,
      "## (sch ": 7009,
      "##järr\n": 7010,
      "##ochn (ch wie ach)\n": 7011,
      "##juch": 7012,
      "## (Th=engl. sth.) ": 7013,
      "##iwwerr\n": 7014,
      "##Äddwedd\n": 7015,
      "##a (S=scharf) M": 7016,
      "##'ri (A=nasal) ": 7017,
      "##Hanna\n": 7018,
      "'Annschl": 7019,
      "##jörrt": 7020,
      "##orrstn (s=scharf)\n": 7021,
      "Olli'w": 7022,
      "##ahbl (A+a=nasal, s=scharf)\n": 7023,
      "##bbra'hihm": 7024,
      "##Klauddia\n": 7025,
      "'s": 7026,
      "Bu'd": 7027,
      "Err": 7028,
      "Kn": 7029,
      "Ku'b": 7030,
      "Ku't": 7031,
      "Lukk": 7032,
      "Mätt": 7033,
      "Me't": 7034,
      "Sing": 7035,
      "Snt": 7036,
      "##marrk": 7037,
      "##iou": 7038,
      "##o (s=weich, ": 7039,
      "##nsch": 7040,
      "##rannt": 7041,
      "##pe'r": 7042,
      "##w\n": 7043,
      "##bett": 7044,
      "##Juhlia\n": 7045,
      "##ihst": 7046,
      "##ohs (s=weich)\n": 7047,
      "##o'ann\n": 7048,
      "##arr'w": 7049,
      "##ärr'sch": 7050,
      "## (ss=scharf) de ": 7051,
      "##immihr\n": 7052,
      "'Bihb": 7053,
      "##bbn": 7054,
      "'Muhr": 7055,
      "'Mohs": 7056,
      "##augg": 7057,
      "##ättenn": 7058,
      "'Hohr": 7059,
      "##jä'tsch": 7060,
      "'Wahr": 7061,
      "##äss (ss=weich)\n": 7062,
      "##äss (S+ss=scharf)": 7063,
      "##ells (s=weich)\n": 7064,
      "##ossi": 7065,
      "'Dihdsch": 7066,
      "##urr'g": 7067,
      "##'maht": 7068,
      "##irra\n": 7069,
      "##Anna'tolli\n": 7070,
      "## (sch=stl.), L": 7071,
      "##'wässt": 7072,
      "##ihld\n": 7073,
      "##ruh-": 7074,
      "## (S=scharf) S": 7075,
      "Allm": 7076,
      "##ahkomm": 7077,
      "##jäff (S=weich)\n": 7078,
      "##e'lihn": 7079,
      "##i'karrd": 7080,
      "##ahsell (s=scharf)\n": 7081,
      "##eh-opp": 7082,
      "##de M": 7083,
      "##de K": 7084,
      "## (sch=stl.) B": 7085,
      "##i'männt": 7086,
      "## Tswai": 7087,
      "##kinn (S=scharf)\n": 7088,
      "##äimmi (sch=sth.)\n": 7089,
      "##Ohkisstre (ss=scharf)\n": 7090,
      "##, Pa't": 7091,
      "##, 'Gärri\n": 7092,
      "##, Nikk\n": 7093,
      "## (s=weich, ch wie ach)\n": 7094,
      "##a'tschoff": 7095,
      "##Ahdollf\n": 7096,
      "##räigg\n": 7097,
      "##orsch": 7098,
      "##rihdrich (ch wie ich) '": 7099,
      "##ü'no\n": 7100,
      "##th (th=engl., stl.) '": 7101,
      "##ach'muht": 7102,
      "##Dschänniff": 7103,
      "##Änn'rihke\n": 7104,
      "##, Schakk (Sch=sth.)\n": 7105,
      "##ässli (ss=weich)\n": 7106,
      "'Hoffmann": 7107,
      "##Lu'ihdschi (sch=sth.)\n": 7108,
      "'Grännts-ühbaggang": 7109,
      "Buss": 7110,
      "Bo'l": 7111,
      "Dall": 7112,
      "Da'w": 7113,
      "De'w": 7114,
      "Ke'": 7115,
      "Kukk": 7116,
      "Mell": 7117,
      "Nott": 7118,
      "Off": 7119,
      "Prä": 7120,
      "Sokk": 7121,
      "Se'n": 7122,
      "Ta'l": 7123,
      "sch": 7124,
      "Äpp": 7125,
      "##länn\n": 7126,
      "##me\n": 7127,
      "##iumm": 7128,
      "##i (sch=sth.), ": 7129,
      "##iumm\n": 7130,
      "## wi": 7131,
      "##))\n": 7132,
      "##de": 7133,
      "##'D": 7134,
      "##adsch": 7135,
      "##ferr": 7136,
      "##fann dehr\n": 7137,
      "##Innt": 7138,
      "##üff": 7139,
      "##, 'Schtäffann": 7140,
      "## (S,s=scharf)": 7141,
      "##a'weh": 7142,
      "##enn'b": 7143,
      "##inn (ss=weich)\n": 7144,
      "##nau\n": 7145,
      "##ännsi (s=scharf)\n": 7146,
      "##ai (s=scharf)\n": 7147,
      "##u'äll": 7148,
      "'Kaht": 7149,
      "'Birr": 7150,
      "##issp": 7151,
      "##olliss (ss=scharf)\n": 7152,
      "'Mittschell": 7153,
      "##auch": 7154,
      "##au (s=scharf)\n": 7155,
      "##aue\n": 7156,
      "##ahr (s=weich)\n": 7157,
      "'Häi": 7158,
      "##äss (2xss=scharf)\n": 7159,
      "##rihtsio (s=scharf)\n": 7160,
      "'Rohd": 7161,
      "'Parr": 7162,
      "'Pikk": 7163,
      "'Grah": 7164,
      "##lingk": 7165,
      "'Aff": 7166,
      "##tsche": 7167,
      "'Dreh": 7168,
      "##'sp": 7169,
      "Schakk": 7170,
      "Scha'k": 7171,
      "## (ss=scharf), G": 7172,
      "##wwitsch": 7173,
      "##, Mo'hammätt": 7174,
      "##a'sarr": 7175,
      "##Allb": 7176,
      "## 'Koll": 7177,
      "##änndell": 7178,
      "##Thih-": 7179,
      "All'k": 7180,
      "##schtain": 7181,
      "##äddi\n": 7182,
      "##ähr (s=scharf)\n": 7183,
      "##o, Sch": 7184,
      "##isstemm": 7185,
      "##äschi (sch=sth.)\n": 7186,
      "##ohso": 7187,
      "##ihsell": 7188,
      "## fonn 'B": 7189,
      "## (sch=stl.) 'H": 7190,
      "##attsch (sch=stl.)\n": 7191,
      "##, 'Gehrharrt\n": 7192,
      "##äissi": 7193,
      "##uttschi": 7194,
      "##ndorrf\n": 7195,
      "##, 'Ehrikk\n": 7196,
      "##rehne\n": 7197,
      "##Wallänn't": 7198,
      "##Änn'rihko\n": 7199,
      "##assta'sihja": 7200,
      "Bä": 7201,
      "Kadd": 7202,
      "Kobb": 7203,
      "Lo": 7204,
      "Ma'ts": 7205,
      "Song": 7206,
      "##ul": 7207,
      "##ne": 7208,
      "##dahl": 7209,
      "##a (Sch=stl., ": 7210,
      "##aehl\n": 7211,
      "##ä'dsch": 7212,
      "##bett\n": 7213,
      "##Käwwinn\n": 7214,
      "##Irr": 7215,
      "##üsch": 7216,
      "##Juhli": 7217,
      "##, 'Öhr": 7218,
      "##, 'Ullrich (ch wie ich)\n": 7219,
      "##oh (s=scharf)\n": 7220,
      "##i'ätt": 7221,
      "##uhd\n": 7222,
      "'Kahs": 7223,
      "'Bihl": 7224,
      "##assonn": 7225,
      "##illde\n": 7226,
      "##itt (sch=sth.)\n": 7227,
      "##errs (s=weich), '": 7228,
      "'Midd": 7229,
      "##att (ss=scharf)\n": 7230,
      "##ahne": 7231,
      "'Hah": 7232,
      "'Häkk": 7233,
      "'Houll": 7234,
      "##jä'w": 7235,
      "'Wehr": 7236,
      "'Wosch": 7237,
      "'Waill": 7238,
      "##hrih": 7239,
      "'Lingk": 7240,
      "'Richt": 7241,
      "##Chawwi'ärr (Ch wie ach)\n": 7242,
      "##ohrenns (s=scharf)\n": 7243,
      "'Dobb": 7244,
      "## (S=scharf, ch wie ach), ": 7245,
      "##a, Dsch": 7246,
      "##unn'd": 7247,
      "## (ss=scharf) R": 7248,
      "## (ss=scharf) eww": 7249,
      "##ih-a (s=scharf)\n": 7250,
      "##, Ma'rih": 7251,
      "##iht (S=scharf)\n": 7252,
      "##e 'Sch": 7253,
      "##ehre\n": 7254,
      "##o'lohg": 7255,
      "'Jänn": 7256,
      "##i, G": 7257,
      "##, 'Känn": 7258,
      "##änndrikk\n": 7259,
      "Allk": 7260,
      "##ahko\n": 7261,
      "Tschinn": 7262,
      "Tschärr": 7263,
      "##a'ra\n": 7264,
      "##änntsa": 7265,
      "##, Kurrt\n": 7266,
      "## (Th=engl.st": 7267,
      "##o L": 7268,
      "##'fälld": 7269,
      "##äinn (s=scharf)\n": 7270,
      "## (sch=stl.) 'R": 7271,
      "##a'sche": 7272,
      "##Stehfann": 7273,
      "'Innt": 7274,
      "## (th=engl. stl.) ": 7275,
      "## (sch=sth.), 'S": 7276,
      "Äll M": 7277,
      "##änntso": 7278,
      "##owwittsch (sch=stl.), '": 7279,
      "##ss=scharf, s=weich)\n": 7280,
      "##s (sch=sth., s=weich), '": 7281,
      "##aunnd\n": 7282,
      "##ihw\n": 7283,
      "##ihpe\n": 7284,
      "##ahwitt": 7285,
      "## (Sch=stimmlos, ": 7286,
      "##rangk\n": 7287,
      "Orr't": 7288,
      "## (th= engl.": 7289,
      "## de 'M": 7290,
      "##Ahdri": 7291,
      "##'sall": 7292,
      "##Ull'rihke\n": 7293,
      "## (a=nasal, sch=sth.)\n": 7294,
      "## (ss=scharf) däll": 7295,
      "##anni'ehla\n": 7296,
      "## (sch=2x": 7297,
      "##'wihl (s=scharf)\n": 7298,
      "##Atto'ann (A=nasal)\n": 7299,
      "##i'mehnäss": 7300,
      "Bill": 7301,
      "Bäss": 7302,
      "Barrt": 7303,
      "Mann'd": 7304,
      "O'm": 7305,
      "Ra'b": 7306,
      "Satt": 7307,
      "Tabb": 7308,
      "##mi't": 7309,
      "##s (S+s=scharf)": 7310,
      "##s (ss+s=scharf)\n": 7311,
      "##ai't": 7312,
      "##äerri\n": 7313,
      "##jehd": 7314,
      "##Innd": 7315,
      "##üch": 7316,
      "##i'sa": 7317,
      "##wisch": 7318,
      "##ärrst": 7319,
      "'Suhp": 7320,
      "##onntsch": 7321,
      "'Kisch": 7322,
      "'Breh": 7323,
      "'Bahd": 7324,
      "'Buhr": 7325,
      "'Boull": 7326,
      "##ikkst": 7327,
      "'Mach": 7328,
      "##auerrd\n": 7329,
      "'Hoh": 7330,
      "'Schahr": 7331,
      "'Schäff": 7332,
      "'Damm": 7333,
      "## (2xsch=sth.) '": 7334,
      "##ing (ss=scharf)\n": 7335,
      "'Nakk": 7336,
      "'Näschennell": 7337,
      "##ski (sch=stl., s=scharf)": 7338,
      "## (sch=stl.), Sch": 7339,
      "##ähb": 7340,
      "##'wahn": 7341,
      "##ehlikks": 7342,
      "Allä'ks": 7343,
      "##ahkinn\n": 7344,
      "## (s=scharf, 2.": 7345,
      "## Karr": 7346,
      "##oschi": 7347,
      "## (Sch=stl.), 'S": 7348,
      "## (ss+s=weich)\n": 7349,
      "##agg\n": 7350,
      "##ahgn": 7351,
      "##e'mi\n": 7352,
      "##jangk": 7353,
      "##, 'Ännt": 7354,
      "##uhla\n": 7355,
      "##Ste'fann (S=scharf)\n": 7356,
      "##Lu'tsch": 7357,
      "'Allwarr": 7358,
      "Karr'p": 7359,
      "##äirra\n": 7360,
      "##äh-uss (ss=scharf)\n": 7361,
      "##, 'Stäff": 7362,
      "##, 'Karrloss (ss=scharf)\n": 7363,
      "##ahnsiss (s+ss=scharf)\n": 7364,
      "##äerre (S=scharf)\n": 7365,
      "##ärrikkenn": 7366,
      "##e'rahr (Sch=sth.)\n": 7367,
      "##Schorrsch (Sch+sch=sth.)\n": 7368,
      "##Scho'säff (Sch=sth., s=weich)\n": 7369,
      "## und ": 7370,
      "##, 'Flohriahn\n": 7371,
      "##Dschu'säppe (sch=sth., s=weich)\n": 7372,
      "##ärrdinnannt\n": 7373,
      "Ai ": 7374,
      "Bahr": 7375,
      "Be's": 7376,
      "Innd": 7377,
      "Koss't": 7378,
      "La'p": 7379,
      "Menn": 7380,
      "Masch": 7381,
      "Säll": 7382,
      "Serr": 7383,
      "Si'd": 7384,
      "Wisch": 7385,
      "##hunndatt": 7386,
      "##is": 7387,
      "##idsch": 7388,
      "##i 'F": 7389,
      "## all\n": 7390,
      "##o (sch=sth.), ": 7391,
      "##a (ss=scharf, ": 7392,
      "##äi'm": 7393,
      "##ä'ts": 7394,
      "##jasch": 7395,
      "##jukk": 7396,
      "##öi\n": 7397,
      "##sch (S=scharf, sch=sth.)\n": 7398,
      "##, Frannts (s=scharf)\n": 7399,
      "##icha-ehl": 7400,
      "##ann (Sch=sth.)\n": 7401,
      "##e l": 7402,
      "##e'weh": 7403,
      "## wie ach)\n": 7404,
      "'Kusch": 7405,
      "'Bjäll": 7406,
      "##orr'm": 7407,
      "##off (ch wie ach), ": 7408,
      "##illtenn": 7409,
      "##errinn": 7410,
      "##errikk": 7411,
      "'Tämmp": 7412,
      "'Hahb": 7413,
      "'Hilld": 7414,
      "##äss'laff": 7415,
      "## (s=weich; ": 7416,
      "'Luh": 7417,
      "'Rahb": 7418,
      "'Pohl": 7419,
      "'Griff": 7420,
      "## (ss=scharf), J": 7421,
      "## (S=scharf, sch=stl.) ": 7422,
      "##anndr": 7423,
      "## (sch=stl.), H": 7424,
      "'Jahn": 7425,
      "##, 'Käthrinn": 7426,
      "## (S=scharf), K": 7427,
      "All't": 7428,
      "##i, 'F": 7429,
      "##ihde\n": 7430,
      "##utta\n": 7431,
      "##oschu": 7432,
      "## (Sch=stl.), 'L": 7433,
      "## (S=scharf) 'R": 7434,
      "## 'Dritt": 7435,
      "##mennd\n": 7436,
      "##, 'Härrmann\n": 7437,
      "Cha'l": 7438,
      "##äch (ch wie ach)\n": 7439,
      "##üll\n": 7440,
      "##, 'Fehlikks (s=scharf)\n": 7441,
      "'Bluhm": 7442,
      "##ahp\n": 7443,
      "##Tommahsch (sch=stl.)\n": 7444,
      "##'nall": 7445,
      "##Särr'hih (S=scharf)\n": 7446,
      "##in ": 7447,
      "##ntahl": 7448,
      "##annu'äll": 7449,
      "##, Dschonn (sch=sth.) '": 7450,
      "##issmuss (2xss=scharf)\n": 7451,
      "##gg'nahsi": 7452,
      "##Änntenni\n": 7453,
      "##juett (S=scharf)\n": 7454,
      "##attsio'nahl": 7455,
      "Ba'sch": 7456,
      "Jäff": 7457,
      "Ks": 7458,
      "Kro": 7459,
      "Ko'n": 7460,
      "Me'r": 7461,
      "Sahr": 7462,
      "Sagg": 7463,
      "Supp": 7464,
      "##lmann": 7465,
      "##um": 7466,
      "##o=nasal, ": 7467,
      "##n'b": 7468,
      "##dann": 7469,
      "##a (s=scharf) '": 7470,
      "##a (ss=scharf) '": 7471,
      "##ä (s=weich)\n": 7472,
      "##schinn (sch=stl.)\n": 7473,
      "## 'U": 7474,
      "##oh (S=scharf)\n": 7475,
      "##e m": 7476,
      "##innsenn": 7477,
      "##o'riss": 7478,
      "'Sihd": 7479,
      "##onnikk": 7480,
      "## (ss=scharf) 'G": 7481,
      "##ach (ch wie ach), '": 7482,
      "## (sch=sth.,s=scharf)": 7483,
      "'Kännt": 7484,
      "'Kuhb": 7485,
      "'Bitt": 7486,
      "'Bohr": 7487,
      "## (Sch=stl.,s=scharf)\n": 7488,
      "##ou (s=scharf)\n": 7489,
      "##errs (s=weich)\n": 7490,
      "##erre'm": 7491,
      "##ihnoff\n": 7492,
      "'Hällm": 7493,
      "##jä'p": 7494,
      "##tsi'ohn": 7495,
      "##rihk\n": 7496,
      "'Lahr": 7497,
      "'Roh": 7498,
      "'Russ": 7499,
      "##ske": 7500,
      "'Asch": 7501,
      "'Drai": 7502,
      "'Däill": 7503,
      "Schimm": 7504,
      "##öhl\n": 7505,
      "##ess (ss=weich) '": 7506,
      "## (ch wie ich, sch=stl.)\n": 7507,
      "##räiss (ss=scharf)\n": 7508,
      "'Naitt": 7509,
      "##ainnänn": 7510,
      "## (sch=stl.), A": 7511,
      "##, Marr'säll (s=scharf)\n": 7512,
      "##-hunndatt": 7513,
      "##ischess": 7514,
      "##ahdo\n": 7515,
      "##o'linn\n": 7516,
      "## 'Karr": 7517,
      "##i, I": 7518,
      "All 'M": 7519,
      "## (sch=stimmhaft, s=weich)\n": 7520,
      "##senn (s=weich)\n": 7521,
      "## (s=weich), R": 7522,
      "##ässtiwwell": 7523,
      "##ahsoff": 7524,
      "##ohtenn": 7525,
      "## (s=weich) fonn": 7526,
      "##uh-errt": 7527,
      "##ehdro": 7528,
      "##örrk": 7529,
      "##ahnia\n": 7530,
      "##, 'Geh-orrk\n": 7531,
      "##ollfo\n": 7532,
      "##innski (sch=stl., s=scharf)\n": 7533,
      "## (sch=stimmlos), 'M": 7534,
      "## (th=stl.)\n": 7535,
      "Barr'b": 7536,
      "Frannts": 7537,
      "##jäss (ss=scharf), ": 7538,
      "A'sahbl": 7539,
      "##Ihwo\n": 7540,
      "Me'kl": 7541,
      "##'mahnu": 7542,
      "##Kwoh'tätt\n": 7543,
      "##Abbdäll": 7544,
      "##Urrsull": 7545,
      "##rächt (ch wie ich)\n": 7546,
      "##Pa'trikk\n": 7547,
      "##aggnuss (ss=scharf)\n": 7548,
      "##a'däusch (sch=stl.)\n": 7549,
      "##Alle'sanndro (s=scharf)\n": 7550,
      "Autt": 7551,
      "Bigg": 7552,
      "E'r": 7553,
      "Kosst": 7554,
      "Litt": 7555,
      "La't": 7556,
      "Ri'w": 7557,
      "Sa'g": 7558,
      "Worr": 7559,
      "##loff\n": 7560,
      "##mith": 7561,
      "##muht\n": 7562,
      "##ia ": 7563,
      "##iuss (ss=scharf)\n": 7564,
      "##te": 7565,
      "##e (ss=scharf), '": 7566,
      "##e (ss=weich), '": 7567,
      "##watt": 7568,
      "##warrt": 7569,
      "##To'bih-ass (ss=scharf)\n": 7570,
      "##Fi'lipp": 7571,
      "##ah'd": 7572,
      "##ichinn": 7573,
      "##a'uhl\n": 7574,
      "##ehe E": 7575,
      "##ennschtainn": 7576,
      "##innt\n": 7577,
      "##inns (s=weich), '": 7578,
      "##na (S=scharf)\n": 7579,
      "##e'ri\n": 7580,
      "##outtsch": 7581,
      "##err'n": 7582,
      "'Maiss": 7583,
      "##ahno, ": 7584,
      "'Topp": 7585,
      "'Huhb": 7586,
      "##jä'sch": 7587,
      "##äkk (sch=stl.), '": 7588,
      "'Lannt": 7589,
      "##sch=stl., s=scharf)": 7590,
      "'Patt": 7591,
      "##äidd\n": 7592,
      "##oss (s+ss=scharf)": 7593,
      "##akki\n": 7594,
      "##rah-": 7595,
      "##robb": 7596,
      "'Nj": 7597,
      "##emm (S=scharf)\n": 7598,
      "##Annassta'sihja": 7599,
      "## (s=scharf) fonn\n": 7600,
      "##, 'Marrk": 7601,
      "##umm (ss=scharf)\n": 7602,
      "## (S=scharf) P": 7603,
      "## (s=weich), 'B": 7604,
      "## (s=weich), 'H": 7605,
      "## (S=scharf), B": 7606,
      "##schtwahn": 7607,
      "## (S=scharf), 'P": 7608,
      "## 'Wässt": 7609,
      "##e'rohnikka\n": 7610,
      "'Tschäll": 7611,
      "##, 'Dihta\n": 7612,
      "##äpp't": 7613,
      "##i'säll": 7614,
      "## fonn K": 7615,
      "##, 'Jahkopp\n": 7616,
      "##, 'Wärrna\n": 7617,
      "##, 'Pattrikk\n": 7618,
      "##, Dschimm (sch=sth.)\n": 7619,
      "##uh-a\n": 7620,
      "Arr'k": 7621,
      "'Ing": 7622,
      "##, Bänn\n": 7623,
      "## 'Norrt\n": 7624,
      "## (th=engl. stl.), '": 7625,
      "##Ann'drih\n": 7626,
      "## Hah": 7627,
      "##uchinn (ch wie ach)\n": 7628,
      "## (beide sch=sth.)\n": 7629,
      "##uhgo\n": 7630,
      "##ahjäff (sch=stl.)\n": 7631,
      "##platts": 7632,
      "##anntschtrahse": 7633,
      "##'brunn": 7634,
      "##ä'mo (o=nasal)\n": 7635,
      "##s (s=weich) eww": 7636,
      "##ss+s=scharf)": 7637,
      "##sch=stimmlos), ": 7638,
      "##Dschohdsch (2xsch=sth.)\n": 7639,
      "##äissenn (sch=sth., ss=scharf)\n": 7640,
      "##, I'wann\n": 7641,
      "##uhni'wöhr": 7642,
      "##= nasal)\n": 7643,
      "## (2 x ": 7644,
      "##ä'channdro (ch wie ach)\n": 7645,
      "Butt": 7646,
      "Fohr": 7647,
      "I'm": 7648,
      "La's": 7649,
      "La'w": 7650,
      "Mitt": 7651,
      "Mü's": 7652,
      "Nj": 7653,
      "Pett": 7654,
      "Poht": 7655,
      "Sorr": 7656,
      "Se'g": 7657,
      "Ta'": 7658,
      "Waiss": 7659,
      "Willj": 7660,
      "Ä'r": 7661,
      "## j": 7662,
      "##njäff": 7663,
      "##'B": 7664,
      "##ef": 7665,
      "##genn\n": 7666,
      "##ä=nasal, ": 7667,
      "##Te'reh": 7668,
      "##Wa'l": 7669,
      "##Aill": 7670,
      "##, U": 7671,
      "##, Frasso'a (1.a=nasal, ss=scharf)\n": 7672,
      "##, Nikko'lai\n": 7673,
      "##oh (o=nasal)\n": 7674,
      "##eh (ss=weich)\n": 7675,
      "##ennbach": 7676,
      "##nakk": 7677,
      "##uh (s=scharf)\n": 7678,
      "##änn (s=scharf)\n": 7679,
      "##onn (sch=stl.)\n": 7680,
      "'Kätt": 7681,
      "'Kohn": 7682,
      "'Bass": 7683,
      "'Bannd": 7684,
      "##offsk": 7685,
      "##off, S": 7686,
      "##illt\n": 7687,
      "##errts": 7688,
      "'Monn": 7689,
      "##ihno, ": 7690,
      "'Tall": 7691,
      "##ahra (S=scharf)\n": 7692,
      "'Hadd": 7693,
      "'Hädd": 7694,
      "'Wann": 7695,
      "'Wingkl": 7696,
      "'Romm": 7697,
      "'Rodd": 7698,
      "'Pirr": 7699,
      "'Schärr": 7700,
      "'Schloss": 7701,
      "'Add": 7702,
      "'Doittsch": 7703,
      "'Fall": 7704,
      "## (ss=scharf), Sch": 7705,
      "'Nikkell": 7706,
      "##ottfriht\n": 7707,
      "## (ss=scharf) D": 7708,
      "##isch (sch=stl.), '": 7709,
      "##, 'Mannfreht\n": 7710,
      "##ahdu": 7711,
      "##a'mahl": 7712,
      "##anntisch": 7713,
      "## 'Mainn": 7714,
      "##ruht\n": 7715,
      "## (S=scharf), Sch": 7716,
      "## 'Bäi\n": 7717,
      "##e, L": 7718,
      "##a'bätt": 7719,
      "##raienn": 7720,
      "##ahs (a=nasal, s=scharf)\n": 7721,
      "## (Sch=stl.), 'G": 7722,
      "## 'Räkk": 7723,
      "##ürr\n": 7724,
      "## (sch=sth.) B": 7725,
      "## fonn 'T": 7726,
      "## (sch=stl.) 'F": 7727,
      "##, Dschäkk (sch=sth.)\n": 7728,
      "## (Sch=stl., ch wie ach), '": 7729,
      "## (sch=sth.), 'R": 7730,
      "## (2x s=scharf)": 7731,
      "##2xss=scharf)": 7732,
      "Karr'd": 7733,
      "##ohpe'r": 7734,
      "## 'Dschuhnj": 7735,
      "## (beide s=scharf)": 7736,
      "## (s=scharf), 'Marrtihn\n": 7737,
      "##haimm (ss=scharf)\n": 7738,
      "##Äddi\n": 7739,
      "##Kriss'toff (ss=scharf)\n": 7740,
      "##, 'Willhällm\n": 7741,
      "##, Kriss'tihna (ss=scharf)\n": 7742,
      "##ann'tihn (s=scharf)\n": 7743,
      "##sch=sth)\n": 7744,
      "Hu'ang": 7745,
      "##o'mehnikko\n": 7746,
      "##wätt'lahna (S=scharf)\n": 7747,
      "##ehe Erklär": 7748,
      "Ar": 7749,
      "Bädd": 7750,
      "Harr": 7751,
      "Hall": 7752,
      "Kärr": 7753,
      "Ke'm": 7754,
      "Le": 7755,
      "No'w": 7756,
      "Su'b": 7757,
      "Ti'": 7758,
      "Tomm": 7759,
      "Ta'k": 7760,
      "Wott": 7761,
      "##hamm": 7762,
      "##lenn\n": 7763,
      "## la ": 7764,
      "##ob": 7765,
      "##oa's": 7766,
      "##'M": 7767,
      "##eiss": 7768,
      "##an\n": 7769,
      "##ferrd": 7770,
      "##kr": 7771,
      "##äj": 7772,
      "##jull": 7773,
      "##ja'n": 7774,
      "##worr": 7775,
      "##ü'f": 7776,
      "##Jahn": 7777,
      "##Jürrgn\n": 7778,
      "## ( ": 7779,
      "##, Frannts": 7780,
      "##, 'Oll": 7781,
      "##ahriss (ss=scharf)\n": 7782,
      "##ihch": 7783,
      "##enn-": 7784,
      "##innja\n": 7785,
      "##na (s=scharf)\n": 7786,
      "'Sau": 7787,
      "##onn (S=weich)\n": 7788,
      "##ällwinn\n": 7789,
      "##imma\n": 7790,
      "##imm'b": 7791,
      "'Kohd": 7792,
      "##oun": 7793,
      "##ouwwe": 7794,
      "##ausst": 7795,
      "##ihnuss (ss=scharf)\n": 7796,
      "##ahn (S=scharf)\n": 7797,
      "'Wällk": 7798,
      "##amma'd": 7799,
      "'Läss": 7800,
      "'Lakk": 7801,
      "'Godd": 7802,
      "'Grahf": 7803,
      "##äi (S=scharf)\n": 7804,
      "'Dill": 7805,
      "'Full": 7806,
      "## (2xsch=sth.) ": 7807,
      "## (S+s=weich), '": 7808,
      "##räch": 7809,
      "##ohne": 7810,
      "##sen": 7811,
      "##ahtoff\n": 7812,
      "##ähsch": 7813,
      "##i, N": 7814,
      "##ittschäff": 7815,
      "##, 'Kollinn\n": 7816,
      "##jj\n": 7817,
      "## (s=weich), 'L": 7818,
      "##; sch=sth.)\n": 7819,
      "##i'kolla\n": 7820,
      "##i'näll": 7821,
      "## (s=weich), K": 7822,
      "##ahba\n": 7823,
      "##ahbio\n": 7824,
      "##Ehmihl\n": 7825,
      "##igga\n": 7826,
      "## (S=scharf) 'T": 7827,
      "##, 2.a=nasal)\n": 7828,
      "## fonn 'R": 7829,
      "##, 'Häll": 7830,
      "'Brau": 7831,
      "##s (s=scharf), 'D": 7832,
      "##e'tr": 7833,
      "##e'tri": 7834,
      "'Ing-g": 7835,
      "##ü'i": 7836,
      "##, 'Günnta\n": 7837,
      "##äbbäll": 7838,
      "## (2.a=nasal": 7839,
      "## (2.o=nasal)\n": 7840,
      "##'rihk": 7841,
      "## (alle s=scharf)": 7842,
      "##Ann'tonn\n": 7843,
      "##jängko": 7844,
      "## the (th=engl., sth.) ": 7845,
      "##bbdäll": 7846,
      "##'naitt": 7847,
      "##Frasso'ahs": 7848,
      "##ohwa\n": 7849,
      "##raissich": 7850,
      "## (1. sch=sth.": 7851,
      "##eld\n": 7852,
      "## (ss=Scharf)\n": 7853,
      "##Äss't": 7854,
      "##, Tschahls": 7855,
      "##uss'tahw": 7856,
      "##, 'Arrt": 7857,
      "## (Sch=sth, ": 7858,
      "##Färr'nanndo\n": 7859,
      "Ärr'nannd": 7860,
      "##äkk'noll": 7861,
      "'Annschluss": 7862,
      "Da'n": 7863,
      "Ekk": 7864,
      "E's": 7865,
      "Fokk": 7866,
      "Geh": 7867,
      "Ga's": 7868,
      "Go'd": 7869,
      "Hu": 7870,
      "Ha'l": 7871,
      "I'n": 7872,
      "Jakk": 7873,
      "Ki'r": 7874,
      "Ko'sch": 7875,
      "Liss": 7876,
      "Mäkk": 7877,
      "Rihd": 7878,
      "U's": 7879,
      "Unnt": 7880,
      "Ägg": 7881,
      "##hau": 7882,
      "##ua'd": 7883,
      "##iu": 7884,
      "##=\n": 7885,
      "##sikk": 7886,
      "##o 'B": 7887,
      "##o (Sch=stl.) ": 7888,
      "##'S": 7889,
      "##ress": 7890,
      "##russ (ss=scharf)\n": 7891,
      "##a (Sch=stl.) ": 7892,
      "##grehn": 7893,
      "##järrn": 7894,
      "##wainn": 7895,
      "##binn": 7896,
      "##biggn": 7897,
      "##Poll": 7898,
      "##Wladd": 7899,
      "## (sch=st.": 7900,
      "##ann'ts": 7901,
      "##ehjäff": 7902,
      "##ehsa (s=weich)\n": 7903,
      "##enn (ss=weich)\n": 7904,
      "##e'sai": 7905,
      "##ärra\n": 7906,
      "##ännski": 7907,
      "##änntsi": 7908,
      "'Sahm": 7909,
      "## (ss=scharf) 'T": 7910,
      "##aittsch": 7911,
      "'Bukk": 7912,
      "'Brädd": 7913,
      "##ass (2xss=scharf)": 7914,
      "##itti": 7915,
      "'Mehd": 7916,
      "##au (sch=stl.)\n": 7917,
      "##jä's": 7918,
      "##jä'b": 7919,
      "'Wätt": 7920,
      "'Wännd": 7921,
      "'Lih-": 7922,
      "'Roddsch": 7923,
      "'Pahr": 7924,
      "'Gräh": 7925,
      "## (s=scharf), 'A": 7926,
      "'Däkk": 7927,
      "Sche": 7928,
      "Schall": 7929,
      "'Frihdrich": 7930,
      "'Follk": 7931,
      "## di\n": 7932,
      "##urrd": 7933,
      "##ess (S=scharf, ": 7934,
      "##rosst": 7935,
      "## (S=scharf, sch=sth.), ": 7936,
      "##ähli": 7937,
      "##-haimm": 7938,
      "'Oull": 7939,
      "##o'litt\n": 7940,
      "## (a=nasal, ss=scharf)\n": 7941,
      "## (a=nasal), M": 7942,
      "## (a=nasal, sch=stl.)\n": 7943,
      "##öhrtsch": 7944,
      "##ch wie ach, ": 7945,
      "##Ahm": 7946,
      "##uhr (s=scharf)\n": 7947,
      "## (s=weich), D": 7948,
      "##e, 'N": 7949,
      "Dschi'": 7950,
      "## (ss=scharf, s=weich), '": 7951,
      "## (ss=scharf, sch=stimmlos)\n": 7952,
      "##äscha'm": 7953,
      "##äsch (sch=stimmlos)\n": 7954,
      "##a'wih": 7955,
      "## (sch=stimmlos, ": 7956,
      "##, 'Jürrgn\n": 7957,
      "##, 'Hann": 7958,
      "##, 'Hällmuht\n": 7959,
      "##, 'Willi\n": 7960,
      "'Brannd": 7961,
      "##, 'Pawwäll\n": 7962,
      "##, Bärrn": 7963,
      "##, Di'miht": 7964,
      "## Geh\n": 7965,
      "## (ss=weich), 'D": 7966,
      "##jehm": 7967,
      "##uhba\n": 7968,
      "## (S=weich), 'M": 7969,
      "##ölln\n": 7970,
      "##räh-": 7971,
      "##ä'tihna\n": 7972,
      "Bluh": 7973,
      "##oiss (ss=weich)\n": 7974,
      "##orrgoss (ss=scharf)\n": 7975,
      "##äkkt (sch=sth.)\n": 7976,
      "## (o=nasal, s=scharf)": 7977,
      "##ihth (th=engl., stl.)\n": 7978,
      "## (th=engl, st": 7979,
      "##Frangko\n": 7980,
      "##ill'wässt": 7981,
      "'Noimm": 7982,
      "##akk'sihm (s=scharf)\n": 7983,
      "## (sch=scharf), '": 7984,
      "##Fra'siss": 7985,
      "##fridd\n": 7986,
      "##Ollä'ksannda (s=scharf)\n": 7987,
      "##änndschemminn (sch=sth.)\n": 7988,
      "'t": 7989,
      "A'f": 7990,
      "Bo'd": 7991,
      "Bo'r": 7992,
      "Gurr": 7993,
      "Igg": 7994,
      "I'k": 7995,
      "Kottsch": 7996,
      "Mu": 7997,
      "Mä's": 7998,
      "Ogg": 7999,
      "Pikk": 8000,
      "Pirr": 8001,
      "Porr't": 8002,
      "Rodd": 8003,
      "Sann't": 8004,
      "Tscharr": 8005,
      "##lau": 8006,
      "##ia (ss=scharf)\n": 8007,
      "##s (S+s=scharf)\n": 8008,
      "##s (2xs=scharf)\n": 8009,
      "##o, K": 8010,
      "##n (S=weich)\n": 8011,
      "##ndorrf": 8012,
      "##a (sch=sth., ": 8013,
      "##äittsch": 8014,
      "##äthe": 8015,
      "##jusch": 8016,
      "##jung": 8017,
      "##waikk": 8018,
      "##Ba't": 8019,
      "##ötts": 8020,
      "##Pjottr\n": 8021,
[...]
