{
  "version": "1.0",
  "truncation": null,
  "padding": null,
  "added_tokens": [
    {
      "id": 0,
      "content": "<sos>",
      "single_word": false,
      "lstrip": false,
      "rstrip": false,
      "normalized": false,
      "special": true
    },
    {
      "id": 1,
      "content": "<eos>",
      "single_word": false,
      "lstrip": false,
      "rstrip": false,
      "normalized": false,
      "special": true
    },
    {
      "id": 2,
      "content": "<pad>",
      "single_word": false,
      "lstrip": false,
      "rstrip": false,
      "normalized": false,
      "special": true
    },
    {
      "id": 3,
      "content": "<unk>",
      "single_word": false,
      "lstrip": false,
      "rstrip": false,
      "normalized": false,
      "special": true
    }
  ],
  "normalizer": null,
  "pre_tokenizer": null,
  "post_processor": null,
  "decoder": null,
  "model": {
    "type": "WordPiece",
    "unk_token": "<unk>",
    "continuing_subword_prefix": "##",
    "max_input_chars_per_word": 100,
    "vocab": {
      "<sos>": 0,
      "<eos>": 1,
      "<pad>": 2,
      "<unk>": 3,
      "\n": 4,
      " ": 5,
      "!": 6,
      "\"": 7,
      "#": 8,
      "$": 9,
      "%": 10,
      "&": 11,
      "'": 12,
      "(": 13,
      ")": 14,
      "*": 15,
      "+": 16,
      ",": 17,
      "-": 18,
      ".": 19,
      "/": 20,
      "0": 21,
      "1": 22,
      "2": 23,
      "3": 24,
      "4": 25,
      "5": 26,
      "6": 27,
      "7": 28,
      "8": 29,
      "9": 30,
      ":": 31,
      ";": 32,
      "<": 33,
      "=": 34,
      ">": 35,
      "?": 36,
      "@": 37,
      "A": 38,
      "B": 39,
      "C": 40,
      "D": 41,
      "E": 42,
      "F": 43,
      "G": 44,
      "H": 45,
      "I": 46,
      "J": 47,
      "K": 48,
      "L": 49,
      "M": 50,
      "N": 51,
      "O": 52,
      "P": 53,
      "Q": 54,
      "R": 55,
      "S": 56,
      "T": 57,
      "U": 58,
      "V": 59,
      "W": 60,
      "X": 61,
      "Y": 62,
      "Z": 63,
      "[": 64,
      "]": 65,
      "_": 66,
      "a": 67,
      "b": 68,
      "c": 69,
      "d": 70,
      "e": 71,
      "f": 72,
      "g": 73,
      "h": 74,
      "i": 75,
      "j": 76,
      "k": 77,
      "l": 78,
      "m": 79,
      "n": 80,
      "o": 81,
      "p": 82,
      "q": 83,
      "r": 84,
      "s": 85,
      "t": 86,
      "u": 87,
      "v": 88,
      "w": 89,
      "x": 90,
      "y": 91,
      "z": 92,
      "|": 93,
      " ": 94,
      "®": 95,
      "°": 96,
      "²": 97,
      "´": 98,
      "½": 99,
      "Ä": 100,
      "É": 101,
      "Ö": 102,
      "Ø": 103,
      "Ü": 104,
      "ß": 105,
      "à": 106,
      "á": 107,
      "â": 108,
      "ã": 109,
      "ä": 110,
      "æ": 111,
      "ç": 112,
      "è": 113,
      "é": 114,
      "ê": 115,
      "ë": 116,
      "í": 117,
      "î": 118,
      "ï": 119,
      "ð": 120,
      "ñ": 121,
      "ò": 122,
      "ó": 123,
      "ö": 124,
      "ø": 125,
      "ù": 126,
      "ú": 127,
      "û": 128,
      "ü": 129,
      "ā": 130,
      "ą": 131,
      "ė": 132,
      "ħ": 133,
      "ī": 134,
      "İ": 135,
      "ı": 136,
      "ł": 137,
      "Ő": 138,
      "ő": 139,
      "œ": 140,
      "ş": 141,
      "š": 142,
      "ů": 143,
      "ǂ": 144,
      "ș": 145,
      "ʻ": 146,
      "́": 147,
      "Λ": 148,
      "Σ": 149,
      "Ћ": 150,
      "З": 151,
      "С": 152,
      "а": 153,
      "в": 154,
      "о": 155,
      "р": 156,
      "х": 157,
      "ị": 158,
      "​": 159,
      "‎": 160,
      "‏": 161,
      "‐": 162,
      "–": 163,
      "‘": 164,
      "’": 165,
      "†": 166,
      "…": 167,
      " ": 168,
      "‽": 169,
      "−": 170,
      "##t": 171,
      "##x": 172,
      "##a": 173,
      "##k": 174,
      "##o": 175,
      "##\n": 176,
      "##n": 177,
      "##d": 178,
      "##j": 179,
      "##e": 180,
      "##r": 181,
      "##y": 182,
      "##,": 183,
      "## ": 184,
      "##N": 185,
      "##i": 186,
      "##c": 187,
      "##l": 188,
      "##u": 189,
      "##s": 190,
      "##v": 191,
      "##p": 192,
      "##h": 193,
      "##W": 194,
      "##g": 195,
      "##O": 196,
      "##T": 197,
      "##f": 198,
      "##.": 199,
      "##E": 200,
      "##C": 201,
      "##A": 202,
      "##w": 203,
      "##B": 204,
      "##S": 205,
      "##m": 206,
      "##F": 207,
      "##b": 208,
      "##I": 209,
      "##J": 210,
      "##Z": 211,
      "##H": 212,
      "##z": 213,
      "##G": 214,
      "##(": 215,
      "##=": 216,
      "##D": 217,
      "##)": 218,
      "##R": 219,
      "##P": 220,
      "##ö": 221,
      "##M": 222,
      "##-": 223,
      "##L": 224,
      "##K": 225,
      "##ü": 226,
      "##q": 227,
      "##1": 228,
      "##0": 229,
      "##ï": 230,
      "##ß": 231,
      "##5": 232,
      "##6": 233,
      "##Y": 234,
      "##V": 235,
      "##'": 236,
      "##X": 237,
      "##Q": 238,
      "##&": 239,
      "##Ö": 240,
      "##U": 241,
      "##ä": 242,
      "##7": 243,
      "##2": 244,
      "##à": 245,
      "##+": 246,
      "##’": 247,
      "##?": 248,
      "##ç": 249,
      "##4": 250,
      "##3": 251,
      "##/": 252,
      "##Ü": 253,
      "##_": 254,
      "##:": 255,
      "##ů": 256,
      "##\"": 257,
      "##9": 258,
      "##ø": 259,
      "##Ä": 260,
      "##8": 261,
      "##–": 262,
      "##!": 263,
      "##ą": 264,
      "##]": 265,
      "##ë": 266,
      "##í": 267,
      "##ʻ": 268,
      "##ǂ": 269,
      "##û": 270,
      "##ð": 271,
      "##´": 272,
      "##é": 273,
      "##è": 274,
      "##œ": 275,
      "##*": 276,
      "##ı": 277,
      "##‏": 278,
      "##ş": 279,
      "##|": 280,
      "##Λ": 281,
      "##á": 282,
      "##;": 283,
      "###": 284,
      "##ł": 285,
      "##ò": 286,
      "##@": 287,
      "##†": 288,
      "##ị": 289,
      "##ā": 290,
      "##°": 291,
      "##‘": 292,
      "##ħ": 293,
      "##â": 294,
      "##š": 295,
      "##ė": 296,
      "##$": 297,
      "## ": 298,
      "##®": 299,
      "##ī": 300,
      "##[": 301,
      "##ó": 302,
      "##%": 303,
      "##З": 304,
      "##а": 305,
      "##х": 306,
      "##́": 307,
      "##р": 308,
      "##о": 309,
      "##в": 310,
      "##æ": 311,
      "##С": 312,
      "##É": 313,
      "##Σ": 314,
      "##ő": 315,
      "##ú": 316,
      "##ñ": 317,
      "##î": 318,
      "##−": 319,
      "##Ø": 320,
      "## ": 321,
      "##ê": 322,
      "##‐": 323,
      "##½": 324,
      "##ș": 325,
      "##²": 326,
      "##…": 327,
      "##​": 328,
      "##‎": 329,
      "##>": 330,
      "##ù": 331,
      "##ã": 332,
      "##<": 333,
      "##, ": 334,
      "##er": 335,
      "##an": 336,
      "##ar": 337,
      "##en": 338,
      "##in": 339,
      "##ch": 340,
      "##e\n": 341,
      "##on": 342,
      "##a\n": 343,
      "##el": 344,
      "##al": 345,
      "##or": 346,
      "##s\n": 347,
      "##st": 348,
      "##e ": 349,
      "##at": 350,
      "##il": 351,
      "##ri": 352,
      "##o\n": 353,
      "##ol": 354,
      "##am": 355,
      "##sch": 356,
      "##et": 357,
      "##es": 358,
      "##a ": 359,
      "##, A": 360,
      "##as": 361,
      "##it": 362,
      "##ow": 363,
      "##, M": 364,
      "##)\n": 365,
      "##, J": 366,
      "##ur": 367,
      "##is": 368,
      "##ad": 369,
      "##i\n": 370,
      "##..": 371,
      "##au": 372,
      "##ic": 373,
      "##re": 374,
      "##ro": 375,
      "## (": 376,
      "##an\n": 377,
      "##y\n": 378,
      "##d\n": 379,
      "##un": 380,
      "##in\n": 381,
      "##le": 382,
      "##en\n": 383,
      "##os": 384,
      "##im": 385,
      "##om": 386,
      "##er\n": 387,
      "##, S": 388,
      "##ir": 389,
      "##us": 390,
      "##. ": 391,
      "##ra": 392,
      "##and": 393,
      "##li": 394,
      "##er, ": 395,
      "##ou": 396,
      "##t\n": 397,
      "##a, ": 398,
      "##ak": 399,
      "##g\n": 400,
      "##ber": 401,
      "##ik": 402,
      "##on\n": 403,
      "##ed": 404,
      "##ot": 405,
      "##e, ": 406,
      "##o ": 407,
      "##ow\n": 408,
      "##ab": 409,
      "##em": 410,
      "##ac": 411,
      "##i, ": 412,
      "##sk": 413,
      "##ag": 414,
      "##el\n": 415,
      "##av": 416,
      "##ew": 417,
      "##ov": 418,
      "##.)\n": 419,
      "##id": 420,
      "## S": 421,
      "##...)\n": 422,
      "##ann": 423,
      "##ig": 424,
      "##ich": 425,
      "##th": 426,
      "##Dr": 427,
      "##ing": 428,
      "##k\n": 429,
      "##ul": 430,
      "##. ...)\n": 431,
      "##, R": 432,
      "Sch": 433,
      "## (=": 434,
      "##Dr. ...)\n": 435,
      "##, Mar": 436,
      "##oh": 437,
      "##ah": 438,
      "##ran": 439,
      "##ell": 440,
      "##, An": 441,
      "##es\n": 442,
      "##, C": 443,
      "Ch": 444,
      "##um": 445,
      "##od": 446,
      "## d": 447,
      "##ill": 448,
      "##, D": 449,
      "##, L": 450,
      "## A": 451,
      "##ach": 452,
      "##ev": 453,
      "##ia\n": 454,
      "St": 455,
      "##ut": 456,
      "## M": 457,
      "##ay": 458,
      "##op": 459,
      "##, P": 460,
      "##, E": 461,
      "## C": 462,
      "##, G": 463,
      "##ap": 464,
      "##as\n": 465,
      "##ard": 466,
      "##eg": 467,
      "Al": 468,
      "##, H": 469,
      "## B": 470,
      "##ern": 471,
      "##is\n": 472,
      "##ij": 473,
      "##ant": 474,
      "##ec": 475,
      "##, B": 476,
      "##z\n": 477,
      "##ep": 478,
      "##, T": 479,
      "##ent": 480,
      "##ob": 481,
      "##eb": 482,
      "## v": 483,
      "##ud": 484,
      "##of": 485,
      "##og": 486,
      "##us\n": 487,
      "##art": 488,
      "##, K": 489,
      "##n\n": 490,
      "##aw": 491,
      "##ang": 492,
      "##isch": 493,
      "##qu": 494,
      "##est": 495,
      "##h\n": 496,
      "##, F": 497,
      "##all": 498,
      "## P": 499,
      "##ie\n": 500,
      "##az": 501,
      "Th": 502,
      "##ier": 503,
      "##ass": 504,
      "##ek": 505,
      "##ers": 506,
      "##ez": 507,
      "## H": 508,
      "##ub": 509,
      "##ar\n": 510,
      "##ian": 511,
      "##ey": 512,
      "##ef": 513,
      "##ett": 514,
      "## T": 515,
      "##aj": 516,
      "##ck": 517,
      "##ip": 518,
      "##, N": 519,
      "##rof": 520,
      "An": 521,
      "##al\n": 522,
      "##ug": 523,
      "## L": 524,
      "##ast": 525,
      "##ew\n": 526,
      "##uk": 527,
      "##ein": 528,
      "##u\n": 529,
      "##rist": 530,
      "## R": 531,
      "## G": 532,
      "##os\n": 533,
      "##iv": 534,
      "##son": 535,
      "##ok": 536,
      "##af": 537,
      "##Prof": 538,
      "##arl": 539,
      "##, Al": 540,
      "##ei": 541,
      "##. Dr. ...)\n": 542,
      "## D": 543,
      "##ont": 544,
      "##end": 545,
      "##, W": 546,
      "## F": 547,
      "##ion": 548,
      "##ina\n": 549,
      "##io\n": 550,
      "##man": 551,
      "##or\n": 552,
      "##am\n": 553,
      "##, Joh": 554,
      "##ain": 555,
      "##ib": 556,
      "##Prof. Dr. ...)\n": 557,
      "##ard\n": 558,
      "##he": 559,
      "Mar": 560,
      "##uc": 561,
      "##org": 562,
      "##f\n": 563,
      "Ar": 564,
      "##ess": 565,
      "##enn": 566,
      "##, Ch": 567,
      "## (=Dr. ...)\n": 568,
      "##, I": 569,
      "##im\n": 570,
      "##ath": 571,
      "##ert": 572,
      "##our": 573,
      "## von": 574,
      "Br": 575,
      "##, St": 576,
      "##eh": 577,
      "##ij\n": 578,
      "##ust": 579,
      "##de ": 580,
      "##aul": 581,
      "##, V": 582,
      "##enk": 583,
      "##, And": 584,
      "##sh": 585,
      "##a (": 586,
      "##ine\n": 587,
      "##ist": 588,
      "## (=Prof. Dr. ...)\n": 589,
      "##lex": 590,
      "##ton": 591,
      "##oc": 592,
      "##, Mich": 593,
      "## J": 594,
      "##ric": 595,
      "Sh": 596,
      "##ranc": 597,
      "## K": 598,
      "##up": 599,
      "##ord": 600,
      "##ss": 601,
      "##il\n": 602,
      "## I": 603,
      "##mann": 604,
      "##ort": 605,
      "## de ": 606,
      "##e-": 607,
      "## E": 608,
      "## W": 609,
      "##skij\n": 610,
      "##iz": 611,
      "##yn": 612,
      "##ing\n": 613,
      "##et\n": 614,
      "##ens": 615,
      "##bert": 616,
      "##tt": 617,
      "##ost": 618,
      "##erg": 619,
      "##ari": 620,
      "##eng": 621,
      "## N": 622,
      "##ani": 623,
      "##Ch": 624,
      "##berg": 625,
      "##uss": 626,
      "##och": 627,
      "##-S": 628,
      "##ald": 629,
      "##ott": 630,
      "##raß": 631,
      "##id\n": 632,
      "##ind": 633,
      "##ian\n": 634,
      "##ej": 635,
      "##oy": 636,
      "##lan": 637,
      "##ong": 638,
      "##ter": 639,
      "##ry": 640,
      "##e (": 641,
      "##und": 642,
      "##raße\n": 643,
      "Ab": 644,
      "##re\n": 645,
      "##, O": 646,
      "The ": 647,
      "##oll": 648,
      "## St": 649,
      "Bar": 650,
      "##iss": 651,
      "##isch)\n": 652,
      "##, Jos": 653,
      "##att": 654,
      "##bert\n": 655,
      "##ad\n": 656,
      "##ia ": 657,
      "##, Ju": 658,
      "##amm": 659,
      "##ir\n": 660,
      "##x\n": 661,
      "##, Alex": 662,
      "##uch": 663,
      "##orn": 664,
      "##de\n": 665,
      "##if": 666,
      "##ll": 667,
      "##rich": 668,
      "##ech": 669,
      "##illi": 670,
      "##ra\n": 671,
      "##nd": 672,
      "##.\n": 673,
      "Am": 674,
      "##-M": 675,
      "##itsch": 676,
      "##ans": 677,
      "##ael\n": 678,
      "##bur": 679,
      "##oz": 680,
      "##ond": 681,
      "##ng": 682,
      "Gr": 683,
      "##at\n": 684,
      "##ean": 685,
      "##asch": 686,
      "##ion\n": 687,
      "##ör": 688,
      "##amp": 689,
      "##ai": 690,
      "##tsch": 691,
      "##ung": 692,
      "##aus": 693,
      "##ka\n": 694,
      "El": 695,
      "## O": 696,
      "##oss": 697,
      "##ed\n": 698,
      "##eu": 699,
      "##um\n": 700,
      "##itt": 701,
      "##ph": 702,
      "##ick": 703,
      "## V": 704,
      "##eter\n": 705,
      "##, Andre": 706,
      "##ri\n": 707,
      "##ach\n": 708,
      "Bl": 709,
      "Sp": 710,
      "##kin\n": 711,
      "##ur\n": 712,
      "##ack": 713,
      "##ah\n": 714,
      "##eorg": 715,
      "##na\n": 716,
      "##e)\n": 717,
      "##anc": 718,
      "##m\n": 719,
      "##enc": 720,
      "##ee\n": 721,
      "##ana\n": 722,
      "##old": 723,
      "##hil": 724,
      "##, Ar": 725,
      "##au\n": 726,
      "##uz": 727,
      "##aur": 728,
      "##onn": 729,
      "##hom": 730,
      "##-B": 731,
      "##ark": 732,
      "##it\n": 733,
      "##yl": 734,
      "##eph": 735,
      "##oj": 736,
      "Le": 737,
      "La ": 738,
      "##ara\n": 739,
      "Ad": 740,
      "##ff": 741,
      "##ank": 742,
      "##ai\n": 743,
      "##ay\n": 744,
      "## Ch": 745,
      "##arr": 746,
      "##ien": 747,
      "##eck": 748,
      "##, Marc": 749,
      "##, Alexand": 750,
      "##alt": 751,
      "##erm": 752,
      "##ür": 753,
      "##erl": 754,
      "##err": 755,
      "##iel": 756,
      "##oun": 757,
      "## of": 758,
      "##berg\n": 759,
      "##ash": 760,
      "##lau": 761,
      "##nt": 762,
      "##, Christ": 763,
      "##ius": 764,
      "##amb": 765,
      "##red": 766,
      "##sp": 767,
      "##avid\n": 768,
      "##sch)\n": 769,
      "##rig": 770,
      "##ik\n": 771,
      "##itz": 772,
      "##ipp": 773,
      "##int": 774,
      "##eut": 775,
      "##, Michael\n": 776,
      "##, Ro": 777,
      "##orf\n": 778,
      "##olf": 779,
      "##ys": 780,
      "##ja\n": 781,
      "##usch": 782,
      "##ski, ": 783,
      "Qu": 784,
      "Kar": 785,
      "Di": 786,
      "##, John\n": 787,
      "##yr": 788,
      "##, Jo": 789,
      "Tsch": 790,
      "##oul": 791,
      "Kr": 792,
      "##enz": 793,
      "##-P": 794,
      "##ena\n": 795,
      "##e S": 796,
      "##ski": 797,
      "##enb": 798,
      "##oph": 799,
      "##les\n": 800,
      "##ey\n": 801,
      "##, Ad": 802,
      "##ns": 803,
      "##ation": 804,
      "##ne\n": 805,
      "Gu": 806,
      "##e M": 807,
      "##, Mart": 808,
      "##-A": 809,
      "##erd": 810,
      "##ith": 811,
      "Mor": 812,
      "## de\n": 813,
      "##land": 814,
      "##ek\n": 815,
      "##ang\n": 816,
      "##aul\n": 817,
      "##e d": 818,
      "##arm": 819,
      "##rit": 820,
      "##, Jean": 821,
      "##-H": 822,
      "##ish": 823,
      "##ent\n": 824,
      "##, Juli": 825,
      "##io ": 826,
      "##hl": 827,
      "##, Y": 828,
      "##ym": 829,
      "##a M": 830,
      "##lad": 831,
      "##lor": 832,
      "##ax": 833,
      "##ock": 834,
      "##von": 835,
      "##erb": 836,
      "##ovic": 837,
      "##, Johann": 838,
      "Mc": 839,
      "##inc": 840,
      "Sal": 841,
      "##ons": 842,
      "##eld": 843,
      "##itsch\n": 844,
      "##e de ": 845,
      "##ull": 846,
      "##sen": 847,
      "##ica\n": 848,
      "Pr": 849,
      "##ied": 850,
      "##iet": 851,
      "Car": 852,
      "Sk": 853,
      "Pl": 854,
      "##, Ab": 855,
      "Mont": 856,
      "Or": 857,
      "##i ": 858,
      "##ies": 859,
      "##aint": 860,
      "##ins": 861,
      "##ley": 862,
      "Per": 863,
      "Bur": 864,
      "##agn": 865,
      "##, Ed": 866,
      "##a, M": 867,
      "##le\n": 868,
      "Ag": 869,
      "##ro\n": 870,
      "##lav": 871,
      "##e B": 872,
      "##eau": 873,
      "##esc": 874,
      "##eid": 875,
      "##un\n": 876,
      "##ink": 877,
      "##ol\n": 878,
      "Mal": 879,
      "And": 880,
      "##ene\n": 881,
      "Ak": 882,
      "##e C": 883,
      "##er, H": 884,
      "##igh": 885,
      "##uh": 886,
      "##-L": 887,
      "##nik": 888,
      "Par": 889,
      "##esch": 890,
      "##om\n": 891,
      "Pet": 892,
      "##ino\n": 893,
      "##a, S": 894,
      "##ier\n": 895,
      "##elm": 896,
      "##ail": 897,
      "##er, R": 898,
      "## (S": 899,
      "##e A": 900,
      "##a d": 901,
      "In": 902,
      "##, Jam": 903,
      "##mer": 904,
      "##homas\n": 905,
      "##ci": 906,
      "##enh": 907,
      "##ris": 908,
      "##a (=": 909,
      "Tr": 910,
      "##ais": 911,
      "##and\n": 912,
      "##, Jac": 913,
      "##oth": 914,
      "Gro": 915,
      "##iy": 916,
      "Kl": 917,
      "##ried": 918,
      "##i, G": 919,
      "##rich\n": 920,
      "##els": 921,
      "##r\n": 922,
      "##erh": 923,
      "##a S": 924,
      "##arb": 925,
      "##straße\n": 926,
      "##i, M": 927,
      "##gh": 928,
      "##-K": 929,
      "##Qu": 930,
      "Er": 931,
      "## von\n": 932,
      "##e, L": 933,
      "##, Franc": 934,
      "##ih": 935,
      "##osch": 936,
      "##ts": 937,
      "##ou\n": 938,
      "##uel\n": 939,
      "##air": 940,
      "##Franc": 941,
      "## th": 942,
      "##ild": 943,
      "##, Peter\n": 944,
      "##a, L": 945,
      "##e, R": 946,
      "##ranz": 947,
      "Cl": 948,
      "##yk": 949,
      "##, David\n": 950,
      "##, Georg": 951,
      "##ois": 952,
      "##ner": 953,
      "##la ": 954,
      "##eil": 955,
      "##icol": 956,
      "##o d": 957,
      "##em\n": 958,
      "##liv": 959,
      "##eth": 960,
      "##-D": 961,
      "##off": 962,
      "##e (=": 963,
      "Bal": 964,
      "##law": 965,
      "##ign": 966,
      "##hm": 967,
      "##ous": 968,
      "##aniel\n": 969,
      "Gre": 970,
      "##ros": 971,
      "##ien\n": 972,
      "##es ": 973,
      "##, Alexander\n": 974,
      "##ane\n": 975,
      "##-G": 976,
      "##erv": 977,
      "##ön": 978,
      "##er St": 979,
      "##ak\n": 980,
      "Col": 981,
      "##omb": 982,
      "##e P": 983,
      "##kow\n": 984,
      "## Y": 985,
      "Kal": 986,
      "##a, E": 987,
      "##sky": 988,
      "##ster": 989,
      "##-R": 990,
      "##lu": 991,
      "##ron": 992,
      "San": 993,
      "##ood": 994,
      "##arn": 995,
      "##ela\n": 996,
      "##, Mat": 997,
      "##ei\n": 998,
      "##er, L": 999,
      "##rad": 1000,
      "##ler": 1001,
      "##a, J": 1002,
      "##per": 1003,
      "##inn": 1004,
      "##emb": 1005,
      "##engli": 1006,
      "##er, E": 1007,
      "##eir": 1008,
      "##chw": 1009,
      "Pol": 1010,
      "##ün": 1011,
      "##burg": 1012,
      "Sm": 1013,
      "##ean\n": 1014,
      "##eli": 1015,
      "Schw": 1016,
      "##, Z": 1017,
      "##rah": 1018,
      "##, Sh": 1019,
      "##rom": 1020,
      "##a, R": 1021,
      "##ers\n": 1022,
      "##ingen\n": 1023,
      "##ald\n": 1024,
      "##lem": 1025,
      "## Al": 1026,
      "##io": 1027,
      "##er, G": 1028,
      "Mat": 1029,
      "##rid": 1030,
      "##erk": 1031,
      "Un": 1032,
      "Mart": 1033,
      "##ice\n": 1034,
      "##'s": 1035,
      "##omp": 1036,
      "##ille\n": 1037,
      "##englisch)\n": 1038,
      "##rn": 1039,
      "##, Stef": 1040,
      "##aud": 1041,
      "Pal": 1042,
      "Re": 1043,
      "##ks": 1044,
      "##eon": 1045,
      "##, Anton": 1046,
      "##'A": 1047,
      "##pp": 1048,
      "##st\n": 1049,
      "##lin": 1050,
      "##ic\n": 1051,
      "##er, B": 1052,
      "##, U": 1053,
      "##ie": 1054,
      "## der": 1055,
      "Har": 1056,
      "##tor": 1057,
      "##G\n": 1058,
      "##ias\n": 1059,
      "##run": 1060,
      "##, El": 1061,
      "##kow": 1062,
      "Ros": 1063,
      "al": 1064,
      "##, Am": 1065,
      "Kh": 1066,
      "##iqu": 1067,
      "Gl": 1068,
      "##er, D": 1069,
      "##res": 1070,
      "##ikol": 1071,
      "##rat": 1072,
      "##-J": 1073,
      "##asc": 1074,
      "##er, P": 1075,
      "##ein\n": 1076,
      "##-T": 1077,
      "##ain\n": 1078,
      "## b": 1079,
      "##er Straße\n": 1080,
      "Ne": 1081,
      "Ben": 1082,
      "##omm": 1083,
      "## m": 1084,
      "##iri": 1085,
      "##er, K": 1086,
      "##ia": 1087,
      "As": 1088,
      "##ko\n": 1089,
      "##uri": 1090,
      "##, Robert\n": 1091,
      "##e L": 1092,
      "##ichard\n": 1093,
      "Man": 1094,
      "##a, D": 1095,
      "##a de ": 1096,
      "##ick\n": 1097,
      "Sc": 1098,
      "##uf": 1099,
      "##a, G": 1100,
      "##, John": 1101,
      "##, Martin\n": 1102,
      "Bel": 1103,
      "##, Steph": 1104,
      "##uli": 1105,
      "##iw": 1106,
      "##stein": 1107,
      "##rag": 1108,
      "##e, D": 1109,
      "##enko": 1110,
      "##Christ": 1111,
      "##ano\n": 1112,
      "##atsch": 1113,
      "##ette\n": 1114,
      "##land\n": 1115,
      "##hilipp": 1116,
      "Is": 1117,
      "##atric": 1118,
      "##ya\n": 1119,
      "##for": 1120,
      "Bo": 1121,
      "##ita\n": 1122,
      "##eiz": 1123,
      "Val": 1124,
      "##dorf\n": 1125,
      "##rem": 1126,
      "Be": 1127,
      "##ef\n": 1128,
      "##a, K": 1129,
      "##ry\n": 1130,
      "##elle\n": 1131,
      "## Th": 1132,
      "##arc": 1133,
      "##ton\n": 1134,
      "##uj": 1135,
      "##orf": 1136,
      "##a C": 1137,
      "##e, P": 1138,
      "Pro": 1139,
      "##lat": 1140,
      "##e R": 1141,
      "##gen": 1142,
      "Saint": 1143,
      "##ot\n": 1144,
      "##, Serg": 1145,
      "Bor": 1146,
      "##arg": 1147,
      "##e, G": 1148,
      "Sim": 1149,
      "##ös": 1150,
      "##ieg": 1151,
      "##uth": 1152,
      "##er, T": 1153,
      "##, Em": 1154,
      "##yd": 1155,
      "##e, J": 1156,
      "##ams": 1157,
      "##aum": 1158,
      "##rz": 1159,
      "##, Willi": 1160,
      "##ore\n": 1161,
      "##ius\n": 1162,
      "##anow\n": 1163,
      "##ilh": 1164,
      "Bro": 1165,
      "Ol": 1166,
      "Ro": 1167,
      "##a, T": 1168,
      "##ount": 1169,
      "## t": 1170,
      "##abri": 1171,
      "##l\n": 1172,
      "##elli": 1173,
      "##e, E": 1174,
      "Ph": 1175,
      "##ars": 1176,
      "##reg": 1177,
      "Ber": 1178,
      "##van\n": 1179,
      "Her": 1180,
      "##eth\n": 1181,
      "##rank": 1182,
      "##ill\n": 1183,
      "##tz": 1184,
      "##uck": 1185,
      "##ans\n": 1186,
      "##p\n": 1187,
      "##isc": 1188,
      "Joh": 1189,
      "##a, P": 1190,
      "##i, R": 1191,
      "##, Thomas\n": 1192,
      "##aria\n": 1193,
      "##isch\n": 1194,
      "##-C": 1195,
      "Fl": 1196,
      "Alt": 1197,
      "##row": 1198,
      "##j\n": 1199,
      "##ge\n": 1200,
      "Ober": 1201,
      "##ig\n": 1202,
      "##er, F": 1203,
      "##ris\n": 1204,
      "##ierre\n": 1205,
      "##i, L": 1206,
      "##fre": 1207,
      "##, Paul\n": 1208,
      "##, Carl": 1209,
      "##-W": 1210,
      "##e, M": 1211,
      "##a B": 1212,
      "##e, H": 1213,
      "##ohamm": 1214,
      "Mo": 1215,
      "##ois\n": 1216,
      "Li": 1217,
      "##uel": 1218,
      "##ut\n": 1219,
      "##rac": 1220,
      "Sz": 1221,
      "##e T": 1222,
      "##ley\n": 1223,
      "##, Ann": 1224,
      "##ej\n": 1225,
      "##e G": 1226,
      "Sol": 1227,
      "##rab": 1228,
      "##app": 1229,
      "Bad": 1230,
      "##tor\n": 1231,
      "##one\n": 1232,
      "##ation\n": 1233,
      "##itz\n": 1234,
      "Cor": 1235,
      "Sw": 1236,
      "##ata\n": 1237,
      "##aid": 1238,
      "##ell\n": 1239,
      "Kol": 1240,
      "##är": 1241,
      "##rim": 1242,
      "##enko\n": 1243,
      "##aut": 1244,
      "##anz": 1245,
      "##out": 1246,
      "##onc": 1247,
      "##e, B": 1248,
      "##rav": 1249,
      "##ob\n": 1250,
      "##burg\n": 1251,
      "##, Hen": 1252,
      "##, Abd": 1253,
      "##ino": 1254,
      "Kor": 1255,
      "##e, S": 1256,
      "##-N": 1257,
      "##onst": 1258,
      "Se": 1259,
      "##eph\n": 1260,
      "##a, N": 1261,
      "Gal": 1262,
      "##ma\n": 1263,
      "## Sh": 1264,
      "##ea\n": 1265,
      "##yt": 1266,
      "## p": 1267,
      "## U": 1268,
      "##gn": 1269,
      "##ilv": 1270,
      "##ao\n": 1271,
      "##ch\n": 1272,
      "##ael": 1273,
      "##e D": 1274,
      "##arol": 1275,
      "Rad": 1276,
      "##kin": 1277,
      "##ütt": 1278,
      "##a P": 1279,
      "## s": 1280,
      "Mur": 1281,
      "##aff": 1282,
      "##chweiz": 1283,
      "##ano": 1284,
      "##emp": 1285,
      "##chweiz)\n": 1286,
      "##azz": 1287,
      "## (V": 1288,
      "##ariant": 1289,
      "##gel": 1290,
      "##era\n": 1291,
      "##ong\n": 1292,
      "##-E": 1293,
      "##ait": 1294,
      "##i, S": 1295,
      "##a, Mar": 1296,
      "##ras": 1297,
      "##ale\n": 1298,
      "##la\n": 1299,
      "##unt": 1300,
      "Sant": 1301,
      "##eit": 1302,
      "##uis": 1303,
      "##-F": 1304,
      "Ed": 1305,
      "##arles\n": 1306,
      "##ens\n": 1307,
      "##a A": 1308,
      "##er, W": 1309,
      "##ariante)\n": 1310,
      "Les": 1311,
      "##man\n": 1312,
      "##les": 1313,
      "##bach\n": 1314,
      "##ark\n": 1315,
      "##e, T": 1316,
      "##ern\n": 1317,
      "Co": 1318,
      "Wal": 1319,
      "Schm": 1320,
      "Bre": 1321,
      "## Z": 1322,
      "##olf\n": 1323,
      "Wh": 1324,
      "##ora\n": 1325,
      "##, Pet": 1326,
      "##heim\n": 1327,
      "##reich": 1328,
      "## &": 1329,
      "##iro": 1330,
      "##mb": 1331,
      "##ernand": 1332,
      "##yn\n": 1333,
      "##etz": 1334,
      "Hol": 1335,
      "##deut": 1336,
      "## ...)\n": 1337,
      "##ari\n": 1338,
      "##Sir": 1339,
      "## (englisch)\n": 1340,
      "##e, K": 1341,
      "##er, J": 1342,
      "##enberg": 1343,
      "##osh": 1344,
      "All": 1345,
      "Cal": 1346,
      "##jan": 1347,
      "##rü": 1348,
      "##uy": 1349,
      "##ika\n": 1350,
      "##ladim": 1351,
      "At": 1352,
      "##A\n": 1353,
      "##aew\n": 1354,
      "##i, P": 1355,
      "En": 1356,
      "##eo\n": 1357,
      "##w\n": 1358,
      "##unn": 1359,
      "Av": 1360,
      "##lav\n": 1361,
      "Mer": 1362,
      "##ija\n": 1363,
      "##berto\n": 1364,
      "Ac": 1365,
      "Mel": 1366,
      "##ram": 1367,
      "## al": 1368,
      "##, Daniel\n": 1369,
      "##ardo\n": 1370,
      "Ru": 1371,
      "##ele\n": 1372,
      "##ism": 1373,
      "##ebast": 1374,
      "Kn": 1375,
      "Sam": 1376,
      "Ts": 1377,
      "##anne\n": 1378,
      "##ational": 1379,
      "##ire": 1380,
      "##aim": 1381,
      "##ugust": 1382,
      "##, James\n": 1383,
      "##i, E": 1384,
      "## Ar": 1385,
      "##utt": 1386,
      "Cap": 1387,
      "##ke\n": 1388,
      "##haus": 1389,
      "##, Anna\n": 1390,
      "Fre": 1391,
      "##oo": 1392,
      "##a, I": 1393,
      "##, Fran": 1394,
      "Gar": 1395,
      "##iov": 1396,
      "##owitsch\n": 1397,
      "##ren": 1398,
      "##ico\n": 1399,
      "##ung\n": 1400,
      "##er, C": 1401,
      "##cz": 1402,
      "##atal": 1403,
      "##ex": 1404,
      "Il": 1405,
      "Lang": 1406,
      "##irch": 1407,
      "##ani\n": 1408,
      "##epp": 1409,
      "##deutsch)\n": 1410,
      "##are\n": 1411,
      "##ouis": 1412,
      "##-d": 1413,
      "## (Schweiz)\n": 1414,
      "##umb": 1415,
      "Mad": 1416,
      "##fel": 1417,
      "##e F": 1418,
      "##raf": 1419,
      "##öl": 1420,
      "##own": 1421,
      "##ac\n": 1422,
      "Cast": 1423,
      "Kle": 1424,
      "##gar": 1425,
      "##urt": 1426,
      "##olog": 1427,
      "##owskij\n": 1428,
      "Mil": 1429,
      "Mac": 1430,
      "We": 1431,
      "##, Bern": 1432,
      "## van\n": 1433,
      "##, Man": 1434,
      "##omin": 1435,
      "##o M": 1436,
      "##a (=Dr. ...)\n": 1437,
      "For": 1438,
      "Sar": 1439,
      "##ona\n": 1440,
      "##sk\n": 1441,
      "##eutsch": 1442,
      "##az\n": 1443,
      "##chest": 1444,
      "##ola\n": 1445,
      "##of\n": 1446,
      "##ger": 1447,
      "## AG\n": 1448,
      "Dav": 1449,
      "##-St": 1450,
      "Del": 1451,
      "##us von": 1452,
      "##ax\n": 1453,
      "##ate\n": 1454,
      "##, Stev": 1455,
      "##law\n": 1456,
      "Tor": 1457,
      "##e H": 1458,
      "##a, H": 1459,
      "## (Variante)\n": 1460,
      "##rand": 1461,
      "##mon": 1462,
      "##arz": 1463,
      "##ret": 1464,
      "##ask": 1465,
      "##, Jan": 1466,
      "##ush": 1467,
      "He": 1468,
      "Ma": 1469,
      "##ony\n": 1470,
      "## (=Sir": 1471,
      "##est\n": 1472,
      "##, Matth": 1473,
      "##ix": 1474,
      "##ille": 1475,
      "##isa\n": 1476,
      "##sc": 1477,
      "##enst": 1478,
      "##ence\n": 1479,
      "Tur": 1480,
      "##yp": 1481,
      "##, Jan\n": 1482,
      "##a, C": 1483,
      "##onz": 1484,
      "##o de ": 1485,
      "Em": 1486,
      "##icz": 1487,
      "##, Sim": 1488,
      "##uv": 1489,
      "##a L": 1490,
      "##akow\n": 1491,
      "##ike\n": 1492,
      "##i, N": 1493,
      "##, Richard\n": 1494,
      "##, Andreas\n": 1495,
      "Bou": 1496,
      "##bach": 1497,
      "##rin": 1498,
      "##nikow\n": 1499,
      "Berg": 1500,
      "##leks": 1501,
      "New": 1502,
      "##ikow\n": 1503,
      "Rom": 1504,
      "##o S": 1505,
      "## c": 1506,
      "##ater": 1507,
      "##a R": 1508,
      "##asp": 1509,
      "##a, V": 1510,
      "##ala\n": 1511,
      "##org\n": 1512,
      "De": 1513,
      "##gl": 1514,
      "Hal": 1515,
      "##orth": 1516,
      "##i, K": 1517,
      "Mak": 1518,
      "##gen\n": 1519,
      "##lexand": 1520,
      "##art\n": 1521,
      "##enj": 1522,
      "##ella\n": 1523,
      "Ach": 1524,
      "Ham": 1525,
      "##i, B": 1526,
      "Ap": 1527,
      "##rop": 1528,
      "##, Nicol": 1529,
      "##arl\n": 1530,
      "Rod": 1531,
      "##inh": 1532,
      "##ord\n": 1533,
      "Sa": 1534,
      "##i, D": 1535,
      "Ger": 1536,
      "##anna\n": 1537,
      "##ric\n": 1538,
      "Ev": 1539,
      "Port": 1540,
      "Wil": 1541,
      "##a von": 1542,
      "## Qu": 1543,
      "##e, C": 1544,
      "##i, F": 1545,
      "##, Mari": 1546,
      "##, Luc": 1547,
      "##all\n": 1548,
      "Ha": 1549,
      "##e W": 1550,
      "##e E": 1551,
      "##ul\n": 1552,
      "Gh": 1553,
      "Tri": 1554,
      "##-s": 1555,
      "Zh": 1556,
      "##ru": 1557,
      "##a, F": 1558,
      "##eri": 1559,
      "##o C": 1560,
      "##olfg": 1561,
      "##e N": 1562,
      "##a, B": 1563,
      "## Sch": 1564,
      "Mü": 1565,
      "Bab": 1566,
      "## n": 1567,
      "Mon": 1568,
      "Os": 1569,
      "##den": 1570,
      "## in": 1571,
      "##i, H": 1572,
      "##nsemb": 1573,
      "Martin": 1574,
      "##feld": 1575,
      "##ero": 1576,
      "Don": 1577,
      "Bern": 1578,
      "##e de\n": 1579,
      "##o A": 1580,
      "## Ab": 1581,
      "##-O": 1582,
      "##-V": 1583,
      "##its": 1584,
      "Kur": 1585,
      "##la": 1586,
      "##ling": 1587,
      "##ue\n": 1588,
      "##, Mark\n": 1589,
      "##rö": 1590,
      "##, Jacqu": 1591,
      "##ladimir\n": 1592,
      "Camp": 1593,
      "##rau": 1594,
      "##ila\n": 1595,
      "Hu": 1596,
      "##a G": 1597,
      "##, Laur": 1598,
      "##erson": 1599,
      "##reder": 1600,
      "##ranzös": 1601,
      "##hol": 1602,
      "## Or": 1603,
      "##, Stefan\n": 1604,
      "##e, N": 1605,
      "##wil\n": 1606,
      "##reich)\n": 1607,
      "##mit": 1608,
      "##raz": 1609,
      "##iovann": 1610,
      "##hard": 1611,
      "##we": 1612,
      "Mus": 1613,
      "##ail\n": 1614,
      "##o, G": 1615,
      "##ary": 1616,
      "Gor": 1617,
      "##a, A": 1618,
      "##ny": 1619,
      "##ez\n": 1620,
      "##ouis\n": 1621,
      "##ult": 1622,
      "##li\n": 1623,
      "##ett\n": 1624,
      "##oud": 1625,
      "Ur": 1626,
      "##lo\n": 1627,
      "##mar": 1628,
      "## In": 1629,
      "Lev": 1630,
      "##er)\n": 1631,
      "##aus\n": 1632,
      "## Is": 1633,
      "##isk": 1634,
      "## am": 1635,
      "##S\n": 1636,
      "##olk": 1637,
      "##age\n": 1638,
      "##fred\n": 1639,
      "##ranzösisch)\n": 1640,
      "##va\n": 1641,
      "##ada\n": 1642,
      "Mag": 1643,
      "##ox": 1644,
      "##ring": 1645,
      "##ermann": 1646,
      "##ile\n": 1647,
      "##a D": 1648,
      "##arry\n": 1649,
      "##ini": 1650,
      "##ilm": 1651,
      "##rik\n": 1652,
      "##, Jean\n": 1653,
      "##i, T": 1654,
      "##heim": 1655,
      "##ankt": 1656,
      "Vill": 1657,
      "##ats": 1658,
      "##land)\n": 1659,
      "##ham": 1660,
      "##iana\n": 1661,
      "##arles": 1662,
      "Ram": 1663,
      "##französisch)\n": 1664,
      "##rov": 1665,
      "##und\n": 1666,
      "## (=Sir ...)\n": 1667,
      "##ua\n": 1668,
      "##eres": 1669,
      "##rik": 1670,
      "##, Jon": 1671,
      "##ira\n": 1672,
      "##any": 1673,
      "##e, F": 1674,
      "##atrick\n": 1675,
      "Kap": 1676,
      "##leg": 1677,
      "Bak": 1678,
      "##aqu": 1679,
      "##ial": 1680,
      "##olo\n": 1681,
      "##ital": 1682,
      "##imm": 1683,
      "##, Joseph\n": 1684,
      "##er, M": 1685,
      "##aun": 1686,
      "##ga\n": 1687,
      "##elt": 1688,
      "##laud": 1689,
      "Med": 1690,
      "West": 1691,
      "Ant": 1692,
      "##opp": 1693,
      "##, Johannes\n": 1694,
      "##ae\n": 1695,
      "## l": 1696,
      "## and": 1697,
      "##er, N": 1698,
      "##alter\n": 1699,
      "##erz": 1700,
      "##eh\n": 1701,
      "##omas": 1702,
      "##ip\n": 1703,
      "##onstant": 1704,
      "##rian\n": 1705,
      "##o B": 1706,
      "##, Christian\n": 1707,
      "Az": 1708,
      "##er, S": 1709,
      "Ser": 1710,
      "##yb": 1711,
      "##esp": 1712,
      "##irg": 1713,
      "##aph": 1714,
      "Can": 1715,
      "##atz": 1716,
      "Mich": 1717,
      "##ity\n": 1718,
      "Bon": 1719,
      "##ni": 1720,
      "##Is": 1721,
      "##alk": 1722,
      "Kam": 1723,
      "##, Paul": 1724,
      "##e (=Dr. ...)\n": 1725,
      "##, William\n": 1726,
      "Gol": 1727,
      "Sab": 1728,
      "##a, O": 1729,
      "##enkow\n": 1730,
      "##lo": 1731,
      "##Öster": 1732,
      "##e V": 1733,
      "##ets": 1734,
      "##, Nikol": 1735,
      "##ight": 1736,
      "##low": 1737,
      "##hard\n": 1738,
      "##ary\n": 1739,
      "##rak": 1740,
      "##up\n": 1741,
      "Ba": 1742,
      "Sankt": 1743,
      "##ium\n": 1744,
      "##, Is": 1745,
      "Kim": 1746,
      "##uk\n": 1747,
      "##a T": 1748,
      "##ag\n": 1749,
      "##i, A": 1750,
      "##än": 1751,
      "##i, C": 1752,
      "##ique\n": 1753,
      "##da\n": 1754,
      "##C\n": 1755,
      "Alb": 1756,
      "Me": 1757,
      "## f": 1758,
      "##ose\n": 1759,
      "##esh": 1760,
      "##ich\n": 1761,
      "Gi": 1762,
      "## (D": 1763,
      "##ide\n": 1764,
      "##, Philipp": 1765,
      "##, Th": 1766,
      "##udw": 1767,
      "Mas": 1768,
      "##yg": 1769,
      "##en)\n": 1770,
      "##ire\n": 1771,
      "Kir": 1772,
      "##ienn": 1773,
      "##mar\n": 1774,
      "##anow": 1775,
      "##iol": 1776,
      "##, Les\n": 1777,
      "## An": 1778,
      "##eron": 1779,
      "##eff": 1780,
      "##Österreich)\n": 1781,
      "##ko": 1782,
      "##ward": 1783,
      "Dem": 1784,
      "##erc": 1785,
      "##kov": 1786,
      "##anov": 1787,
      "##stad": 1788,
      "Pat": 1789,
      "##anis": 1790,
      "##athan\n": 1791,
      "##ischer": 1792,
      "Bas": 1793,
      "##eon\n": 1794,
      "##e, W": 1795,
      "##, Ger": 1796,
      "Su": 1797,
      "##a, Al": 1798,
      "##ant\n": 1799,
      "##e K": 1800,
      "## (deutsch)\n": 1801,
      "Sel": 1802,
      "##ahn": 1803,
      "##, Kar": 1804,
      "##dal": 1805,
      "##ias": 1806,
      "##ly": 1807,
      "##ward\n": 1808,
      "##enberg\n": 1809,
      "##ama\n": 1810,
      "##etsch": 1811,
      "Sand": 1812,
      "##by": 1813,
      "Cas": 1814,
      "##eat": 1815,
      "Jon": 1816,
      "##amin\n": 1817,
      "Kon": 1818,
      "##ühl": 1819,
      "##orn\n": 1820,
      "##agh": 1821,
      "##ewitsch\n": 1822,
      "##iano\n": 1823,
      "Sou": 1824,
      "On": 1825,
      "##ce\n": 1826,
      "##ca\n": 1827,
      "##lev": 1828,
      "##ula\n": 1829,
      "Bat": 1830,
      "Ob": 1831,
      "Groß": 1832,
      "##, Antonio\n": 1833,
      "Hor": 1834,
      "O'": 1835,
      "##sson": 1836,
      "##any\n": 1837,
      "##unk": 1838,
      "##, Sam": 1839,
      "##, Hans": 1840,
      "##, Christoph": 1841,
      "##, Mark": 1842,
      "##, Oliv": 1843,
      "Min": 1844,
      "##cht": 1845,
      "Dj": 1846,
      "Od": 1847,
      "##ahl": 1848,
      "##russ": 1849,
      "##iot": 1850,
      "##urg": 1851,
      "Christ": 1852,
      "##, George\n": 1853,
      "Mol": 1854,
      "##arin": 1855,
      "## (Österreich)\n": 1856,
      "##rain": 1857,
      "Ho": 1858,
      "##ars\n": 1859,
      "##, Ern": 1860,
      "##, Hein": 1861,
      "##, Pierre\n": 1862,
      "##olfgang\n": 1863,
      "##eur": 1864,
      "##a F": 1865,
      "##oin": 1866,
      "##ok\n": 1867,
      "##hr": 1868,
      "##by\n": 1869,
      "##add": 1870,
      "##, Sebast": 1871,
      "##ab\n": 1872,
      "##endorf\n": 1873,
      "John": 1874,
      "Bell": 1875,
      "Eg": 1876,
      "Ul": 1877,
      "## (F": 1878,
      "##ima\n": 1879,
      "Schn": 1880,
      "##, Charles\n": 1881,
      "##eus": 1882,
      "##anj": 1883,
      "May": 1884,
      "##win": 1885,
      "##aler": 1886,
      "##ien)\n": 1887,
      "##upp": 1888,
      "##leksand": 1889,
      "##yan": 1890,
      "##Or": 1891,
      "##ade\n": 1892,
      "##ichard": 1893,
      "Bir": 1894,
      "Dr": 1895,
      "Sem": 1896,
      "##erst": 1897,
      "##alv": 1898,
      "## (B": 1899,
      "##abeth\n": 1900,
      "##th\n": 1901,
      "##ray": 1902,
      "Cam": 1903,
      "Eng": 1904,
      "##ies\n": 1905,
      "##iz\n": 1906,
      "##ct": 1907,
      "##gu": 1908,
      "##a N": 1909,
      "##, Maria\n": 1910,
      "##laus\n": 1911,
      "Kre": 1912,
      "Po": 1913,
      "##asz": 1914,
      "##e J": 1915,
      "##ried\n": 1916,
      "##, Andre\n": 1917,
      "Wol": 1918,
      "##urt\n": 1919,
      "##o P": 1920,
      "##, Dav": 1921,
      "Con": 1922,
      "Tar": 1923,
      "##a, An": 1924,
      "##ven": 1925,
      "##schw": 1926,
      "##ub\n": 1927,
      "##, Michel\n": 1928,
      "Du": 1929,
      "Ost": 1930,
      "##erw": 1931,
      "##, Mohamm": 1932,
      "Grand": 1933,
      "Mah": 1934,
      "##e of": 1935,
      "##osk": 1936,
      "##ec\n": 1937,
      "##ivers": 1938,
      "##ere\n": 1939,
      "##elm\n": 1940,
      "##otsch": 1941,
      "Bol": 1942,
      "##ral": 1943,
      "##uis\n": 1944,
      "##ith\n": 1945,
      "##iko\n": 1946,
      "Lind": 1947,
      "##ield": 1948,
      "Af": 1949,
      "Go": 1950,
      "La": 1951,
      "##zt": 1952,
      "##ero\n": 1953,
      "##a V": 1954,
      "Schl": 1955,
      "##odor": 1956,
      "##feld\n": 1957,
      "Sl": 1958,
      "##jör": 1959,
      "##illa\n": 1960,
      "Stein": 1961,
      "My": 1962,
      "##obert\n": 1963,
      "##je\n": 1964,
      "##orp": 1965,
      "##a K": 1966,
      "##que\n": 1967,
      "##eutschland)\n": 1968,
      "Ge": 1969,
      "Pap": 1970,
      "##II": 1971,
      "##egg": 1972,
      "##ierr": 1973,
      "Gold": 1974,
      "Mir": 1975,
      "Ross": 1976,
      "##ych": 1977,
      "##leb": 1978,
      "##evin\n": 1979,
      "Nov": 1980,
      "##enw": 1981,
      "Pi": 1982,
      "## an": 1983,
      "##rev": 1984,
      "##er, Christ": 1985,
      "##oris\n": 1986,
      "## du": 1987,
      "Abd": 1988,
      "##rin\n": 1989,
      "##lis": 1990,
      "##ford": 1991,
      "##, Mil": 1992,
      "##rach": 1993,
      "##oub": 1994,
      "##, Vic": 1995,
      "Land": 1996,
      "##üd": 1997,
      "##orm": 1998,
      "##itch": 1999,
      "##, Gu": 2000,
      "##ntern": 2001,
      "Neu": 2002,
      "Rh": 2003,
      "Tal": 2004,
      "##ear": 2005,
      "##ather": 2006,
      "##, Juan": 2007,
      "##ütte\n": 2008,
      "Far": 2009,
      "Frank": 2010,
      "##i M": 2011,
      "##old\n": 2012,
      "##o D": 2013,
      "##o, M": 2014,
      "##var": 2015,
      "##ork": 2016,
      "##iem": 2017,
      "##inz": 2018,
      "##eta\n": 2019,
      "##erry\n": 2020,
      "##ismus\n": 2021,
      "Im": 2022,
      "Tro": 2023,
      "##sch\n": 2024,
      "##imit": 2025,
      "##umm": 2026,
      "##ever": 2027,
      "##, Eli": 2028,
      "##yst": 2029,
      "##-Ch": 2030,
      "##ener": 2031,
      "##, Andrea\n": 2032,
      "##ance\n": 2033,
      "##o, R": 2034,
      "##rod": 2035,
      "Mill": 2036,
      "Pan": 2037,
      "##hn": 2038,
      "##atur": 2039,
      "##ov\n": 2040,
      "Dsch": 2041,
      "Kos": 2042,
      "##ül": 2043,
      "##aya\n": 2044,
      "##, Marc\n": 2045,
      "##ort\n": 2046,
      "##iew": 2047,
      "##ame)\n": 2048,
      "## Sp": 2049,
      "##, Adam\n": 2050,
      "Rob": 2051,
      "##ht": 2052,
      "##eder": 2053,
      "##o, L": 2054,
      "##elin": 2055,
      "##auric": 2056,
      "##aja\n": 2057,
      "##ustav": 2058,
      "##homas": 2059,
      "##-sur": 2060,
      "Bod": 2061,
      "Bog": 2062,
      "Luc": 2063,
      "##ony": 2064,
      "##, Marco\n": 2065,
      "## (Deutschland)\n": 2066,
      "Bu": 2067,
      "Bay": 2068,
      "##eorg\n": 2069,
      "##rad\n": 2070,
      "##hal": 2071,
      "##laude\n": 2072,
      "##esco\n": 2073,
      "Lew": 2074,
      "Willi": 2075,
      "##o (": 2076,
      "##ver": 2077,
      "##-I": 2078,
      "##, Tom\n": 2079,
      "Jan": 2080,
      "Met": 2081,
      "Ok": 2082,
      "##ban": 2083,
      "##imb": 2084,
      "##andro\n": 2085,
      "##oung": 2086,
      "Unter": 2087,
      "Dal": 2088,
      "##een": 2089,
      "Str": 2090,
      "## Tri": 2091,
      "##, Simon\n": 2092,
      "Cro": 2093,
      "Gran": 2094,
      "Hall": 2095,
      "##rs": 2096,
      "##van": 2097,
      "##H\n": 2098,
      "##anda\n": 2099,
      "##, Jacques\n": 2100,
      "Ass": 2101,
      "##ki\n": 2102,
      "##arie\n": 2103,
      "##agg": 2104,
      "##, Ant": 2105,
      "Art": 2106,
      "Arn": 2107,
      "Sn": 2108,
      "Sav": 2109,
      "##von\n": 2110,
      "##raw": 2111,
      "##apt": 2112,
      "Han": 2113,
      "Kan": 2114,
      "Mach": 2115,
      "##ida\n": 2116,
      "The": 2117,
      "##riedrich": 2118,
      "Ko": 2119,
      "Sin": 2120,
      "Sur": 2121,
      "##dorf": 2122,
      "##lin\n": 2123,
      "##arah\n": 2124,
      "##ors": 2125,
      "##sten\n": 2126,
      "##, Sus": 2127,
      "##, Hans\n": 2128,
      "Pe": 2129,
      "Reg": 2130,
      "##rick": 2131,
      "##olt": 2132,
      "##oman\n": 2133,
      "##ohn": 2134,
      "## van": 2135,
      "##, Robert": 2136,
      "Fr": 2137,
      "##oy\n": 2138,
      "##, Ahm": 2139,
      "Der": 2140,
      "Franc": 2141,
      "##len": 2142,
      "##anisch)\n": 2143,
      "##esk": 2144,
      "##iter\n": 2145,
      "##ake\n": 2146,
      "##illy\n": 2147,
      "##alc": 2148,
      "##ston": 2149,
      "##, Den": 2150,
      "##rigu": 2151,
      "##, Julia\n": 2152,
      "##axim": 2153,
      "Dol": 2154,
      "Lau": 2155,
      "Men": 2156,
      "Now": 2157,
      "##yc": 2158,
      "##uw": 2159,
      "##ö\n": 2160,
      "##ato\n": 2161,
      "## (=Prof": 2162,
      "Brown": 2163,
      "##, Arth": 2164,
      "##, Frank\n": 2165,
      "Gri": 2166,
      "##tal": 2167,
      "##ini\n": 2168,
      "##alp": 2169,
      "## Jos": 2170,
      "Schmid": 2171,
      "Ball": 2172,
      "Lo": 2173,
      "##ui\n": 2174,
      "##han\n": 2175,
      "##ert\n": 2176,
      "##ings": 2177,
      "##, Arn": 2178,
      "##rück": 2179,
      "##hausen\n": 2180,
      "Kat": 2181,
      "Nied": 2182,
      "Red": 2183,
      "##i B": 2184,
      "##idd": 2185,
      "##eck\n": 2186,
      "##our\n": 2187,
      "Ep": 2188,
      "Wall": 2189,
      "##brah": 2190,
      "##enth": 2191,
      "##inow\n": 2192,
      "##ory\n": 2193,
      "##ite\n": 2194,
      "##oph\n": 2195,
      "##ugh": 2196,
      "Black": 2197,
      "##, Steve\n": 2198,
      "##enjamin\n": 2199,
      "Jac": 2200,
      "##ysch": 2201,
      "##mat": 2202,
      "##er H": 2203,
      "## Cl": 2204,
      "##onzal": 2205,
      "Com": 2206,
      "##a, Y": 2207,
      "##, Cl": 2208,
      "Smith": 2209,
      "Lu": 2210,
      "##ouss": 2211,
      "##eng\n": 2212,
      "##ome\n": 2213,
      "##-Sch": 2214,
      "##, Jose\n": 2215,
      "##arbara\n": 2216,
      "##ilhelm\n": 2217,
      "Bach": 2218,
      "##iat": 2219,
      "##las": 2220,
      "##eno": 2221,
      "##ito\n": 2222,
      "##, The": 2223,
      "##iver\n": 2224,
      "McC": 2225,
      "##ior": 2226,
      "##za\n": 2227,
      "##iro\n": 2228,
      "##eiß": 2229,
      "Hö": 2230,
      "##lan\n": 2231,
      "##inskij\n": 2232,
      "##ura\n": 2233,
      "##igu": 2234,
      "## de la ": 2235,
      "Beck": 2236,
      "Cab": 2237,
      "##ho": 2238,
      "##gor": 2239,
      "##emann": 2240,
      "##oham": 2241,
      "##, Har": 2242,
      "##, Hel": 2243,
      "##, Art": 2244,
      "L'": 2245,
      "Op": 2246,
      "## X": 2247,
      "##iev": 2248,
      "##lj": 2249,
      "##, Le\n": 2250,
      "##, James": 2251,
      "Bö": 2252,
      "##ld": 2253,
      "##e m": 2254,
      "##acc": 2255,
      "##i, I": 2256,
      "Dur": 2257,
      "Mos": 2258,
      "##jan\n": 2259,
      "##riedrich\n": 2260,
      "Lam": 2261,
      "Pf": 2262,
      "##ruc": 2263,
      "##arth": 2264,
      "##ott\n": 2265,
      "##ace\n": 2266,
      "##op\n": 2267,
      "##, Eric\n": 2268,
      "Alm": 2269,
      "Whit": 2270,
      "Pri": 2271,
      "##nes": 2272,
      "##anie\n": 2273,
      "##i, V": 2274,
      "## d'": 2275,
      "##ieb": 2276,
      "##ure\n": 2277,
      "##evic": 2278,
      "##, Albert\n": 2279,
      "##, Ivan\n": 2280,
      "##, Josef\n": 2281,
      "##iff": 2282,
      "##ürgen\n": 2283,
      "Kas": 2284,
      "##a)\n": 2285,
      "##lam": 2286,
      "##oni": 2287,
      "##ouv": 2288,
      "##o T": 2289,
      "##, Anth": 2290,
      "Mark": 2291,
      "Klein": 2292,
      "But": 2293,
      "Nag": 2294,
      "Tel": 2295,
      "##sew\n": 2296,
      "##han": 2297,
      "##win\n": 2298,
      "##alm": 2299,
      "##riz": 2300,
      "Fer": 2301,
      "Gil": 2302,
      "Lag": 2303,
      "Ter": 2304,
      "##ori\n": 2305,
      "##owski, ": 2306,
      "##reb": 2307,
      "##o R": 2308,
      "##icht": 2309,
      "##, Er": 2310,
      "##ram\n": 2311,
      "##ha\n": 2312,
      "##zk": 2313,
      "##res\n": 2314,
      "##, Kat": 2315,
      "##sb": 2316,
      "##en ": 2317,
      "##e I": 2318,
      "##ouch": 2319,
      "##ausen\n": 2320,
      "##aire\n": 2321,
      "##e (=Prof. Dr. ...)\n": 2322,
      "##chestra\n": 2323,
      "Et": 2324,
      "Hay": 2325,
      "Silv": 2326,
      "##ken": 2327,
      "##sw": 2328,
      "##fred": 2329,
      "##una\n": 2330,
      "##ewskij\n": 2331,
      "##erner\n": 2332,
      "##, Andrew\n": 2333,
      "##erlin": 2334,
      "##ius von": 2335,
      "##runo\n": 2336,
      "Bart": 2337,
      "Tam": 2338,
      "##iri\n": 2339,
      "##son\n": 2340,
      "##stein\n": 2341,
      "##ity": 2342,
      "##, Dmit": 2343,
      "##, Flor": 2344,
      "##, William": 2345,
      "Dan": 2346,
      "Fil": 2347,
      "##aq": 2348,
      "##oe\n": 2349,
      "##een\n": 2350,
      "##ise\n": 2351,
      "##skij": 2352,
      "## (= ": 2353,
      "##ourn": 2354,
      "Tak": 2355,
      "Vel": 2356,
      "##gor\n": 2357,
      "##arina\n": 2358,
      "##elb": 2359,
      "##alent": 2360,
      "##osa\n": 2361,
      "##a, W": 2362,
      "##, Chris\n": 2363,
      "Bau": 2364,
      "Dre": 2365,
      "Nor": 2366,
      "Wat": 2367,
      "##edd": 2368,
      "##, Joe\n": 2369,
      "##-de-": 2370,
      "## Quart": 2371,
      "Des": 2372,
      "Dun": 2373,
      "Lar": 2374,
      "Sv": 2375,
      "Sil": 2376,
      "##let": 2377,
      "##ud\n": 2378,
      "##icc": 2379,
      "##rap": 2380,
      "##o G": 2381,
      "## Mus": 2382,
      "##azar": 2383,
      "##iusepp": 2384,
      "##, Jack\n": 2385,
      "Mand": 2386,
      "Rab": 2387,
      "## g": 2388,
      "##lich": 2389,
      "Pop": 2390,
      "##iag": 2391,
      "##i S": 2392,
      "##ios\n": 2393,
      "##ery": 2394,
      "##er B": 2395,
      "##lie\n": 2396,
      "##, Freder": 2397,
      "Marc": 2398,
      "##, Markus\n": 2399,
      "## an der": 2400,
      "Fort": 2401,
      "Hart": 2402,
      "Pu": 2403,
      "##e, A": 2404,
      "##anch": 2405,
      "##oger\n": 2406,
      "Coll": 2407,
      "Jam": 2408,
      "Lj": 2409,
      "Nord": 2410,
      "Park": 2411,
      "##eln\n": 2412,
      "##ough": 2413,
      "##o L": 2414,
      "##eman": 2415,
      "##, Matthias\n": 2416,
      "Pod": 2417,
      "Rog": 2418,
      "##ais\n": 2419,
      "##lik": 2420,
      "##, Patrick\n": 2421,
      "##etta\n": 2422,
      "##elix\n": 2423,
      "##nsembl": 2424,
      "Dom": 2425,
      "##oi\n": 2426,
      "## (französisch)\n": 2427,
      "##emm": 2428,
      "##avier\n": 2429,
      "##, Leon": 2430,
      "Ex": 2431,
      "Mass": 2432,
      "##te\n": 2433,
      "##zh": 2434,
      "##inter": 2435,
      "##ali\n": 2436,
      "Chat": 2437,
      "##ump": 2438,
      "##ierre": 2439,
      "##a (=Prof. Dr. ...)\n": 2440,
      "##, Stephen\n": 2441,
      "Müll": 2442,
      "##ole\n": 2443,
      "##a H": 2444,
      "##rot": 2445,
      "## And": 2446,
      "Ang": 2447,
      "##, Michael": 2448,
      "Jones": 2449,
      "Hau": 2450,
      "##o, S": 2451,
      "##erman": 2452,
      "## des": 2453,
      "##utsch": 2454,
      "##ourt": 2455,
      "Rud": 2456,
      "##eew\n": 2457,
      "##ios": 2458,
      "##ha": 2459,
      "##er S": 2460,
      "##ros\n": 2461,
      "## (M": 2462,
      "Hoh": 2463,
      "##oon": 2464,
      "##wa\n": 2465,
      "##, Max\n": 2466,
      "##imo\n": 2467,
      "##er, I": 2468,
      "##, Mario\n": 2469,
      "##ahm": 2470,
      "##ect": 2471,
      "##aj\n": 2472,
      "##ajew": 2473,
      "##, Joseph": 2474,
      "##, Sebastian\n": 2475,
      "Had": 2476,
      "Hag": 2477,
      "Pont": 2478,
      "Tan": 2479,
      "##jak": 2480,
      "##ex\n": 2481,
      "##fried\n": 2482,
      "##P\n": 2483,
      "##öll": 2484,
      "##, Jer": 2485,
      "##o de\n": 2486,
      "Brand": 2487,
      "##, Stanis": 2488,
      "##ürk": 2489,
      "##ritz\n": 2490,
      "Ash": 2491,
      "Cav": 2492,
      "Te": 2493,
      "##oo\n": 2494,
      "##ieu": 2495,
      "##los": 2496,
      "##elle": 2497,
      "##urn": 2498,
      "##, Maria ": 2499,
      "Ast": 2500,
      "Dob": 2501,
      "Lop": 2502,
      "Mik": 2503,
      "##wil": 2504,
      "##-Z": 2505,
      "## (K": 2506,
      "##raj": 2507,
      "St. ": 2508,
      "##udolf\n": 2509,
      "##, Charles": 2510,
      "##, Marcel\n": 2511,
      "##mbH\n": 2512,
      "Flor": 2513,
      "##i P": 2514,
      "##asm": 2515,
      "##oum": 2516,
      "##-Straße\n": 2517,
      "Ali": 2518,
      "Hen": 2519,
      "Jak": 2520,
      "Lim": 2521,
      "##o, D": 2522,
      "##se\n": 2523,
      "##oni\n": 2524,
      "##, Anne\n": 2525,
      "## Gro": 2526,
      "Barb": 2527,
      "##enbach\n": 2528,
      "##eilig": 2529,
      "Cz": 2530,
      "Est": 2531,
      "##, Louis": 2532,
      "##, Walter\n": 2533,
      "##ucc": 2534,
      "Andre": 2535,
      "Los": 2536,
      "Ott": 2537,
      "Wald": 2538,
      "##e, Al": 2539,
      "##ux": 2540,
      "##sted": 2541,
      "##a E": 2542,
      "##ski\n": 2543,
      "##ente\n": 2544,
      "##ehr": 2545,
      "Aw": 2546,
      "Pre": 2547,
      "Tom": 2548,
      "Wolf": 2549,
      "##jew\n": 2550,
      "##, Mik": 2551,
      "##ras\n": 2552,
      "##oug": 2553,
      "##aki\n": 2554,
      "##ep\n": 2555,
      "##otte\n": 2556,
      "Dor": 2557,
      "Lor": 2558,
      "##jat": 2559,
      "##I\n": 2560,
      "##aro\n": 2561,
      "##ensen": 2562,
      "Sak": 2563,
      "##aron\n": 2564,
      "##ator": 2565,
      "##rang": 2566,
      "##ugen": 2567,
      "##af\n": 2568,
      "##, Philippe\n": 2569,
      "Bour": 2570,
      "Rein": 2571,
      "##wan": 2572,
      "##arow\n": 2573,
      "##rid\n": 2574,
      "Char": 2575,
      "##, Ev": 2576,
      "## Franc": 2577,
      "Bert": 2578,
      "Gall": 2579,
      "Sul": 2580,
      "Tim": 2581,
      "##stit": 2582,
      "##it (Variante)\n": 2583,
      "##i, Franc": 2584,
      "##aniel": 2585,
      "##ernandez": 2586,
      "##iovanni\n": 2587,
      "Bos": 2588,
      "Dub": 2589,
      "Rub": 2590,
      "##od\n": 2591,
      "##rina\n": 2592,
      "## und": 2593,
      "##uri\n": 2594,
      "##ady": 2595,
      "##, Gabri": 2596,
      "##awr": 2597,
      "##ist\n": 2598,
      "##izz": 2599,
      "##latz\n": 2600,
      "Bet": 2601,
      "Bass": 2602,
      "Tab": 2603,
      "##hof": 2604,
      "##e O": 2605,
      "##omen": 2606,
      "##andra\n": 2607,
      "##agu": 2608,
      "##igg": 2609,
      "##, Krist": 2610,
      "## Christ": 2611,
      "## bei": 2612,
      "Williams": 2613,
      "It": 2614,
      "##t)\n": 2615,
      "##eel": 2616,
      "## y": 2617,
      "##ass\n": 2618,
      "##, Jenn": 2619,
      "##aine\n": 2620,
      "##, Ing": 2621,
      "##ock\n": 2622,
      "## Name)\n": 2623,
      "Abb": 2624,
      "God": 2625,
      "Hir": 2626,
      "##erin": 2627,
      "##ichol": 2628,
      "##ello\n": 2629,
      "##önig": 2630,
      "##mond\n": 2631,
      "Ensembl": 2632,
      "Gö": 2633,
      "Pel": 2634,
      "##iorg": 2635,
      "##sm": 2636,
      "##SA": 2637,
      "##aros": 2638,
      "##orb": 2639,
      "##ete\n": 2640,
      "##adi\n": 2641,
      "##e, Ch": 2642,
      "##ahr": 2643,
      "##, Angel": 2644,
      "##iane\n": 2645,
      "Saw": 2646,
      "##now\n": 2647,
      "##oli\n": 2648,
      "##owski": 2649,
      "##lej": 2650,
      "##aka\n": 2651,
      "##, Nor": 2652,
      "##, Nik": 2653,
      "##tto\n": 2654,
      "##inda\n": 2655,
      "##lanc": 2656,
      "##, Ol": 2657,
      "##ilhelm": 2658,
      "Hel": 2659,
      "Pin": 2660,
      "Rö": 2661,
      "##men": 2662,
      "##üb": 2663,
      "##alow\n": 2664,
      "##agli": 2665,
      "##udd": 2666,
      "##spanisch)\n": 2667,
      "##iya\n": 2668,
      "##o, P": 2669,
      "##ress": 2670,
      "##ieter\n": 2671,
      "##iktor\n": 2672,
      "##ingh": 2673,
      "##inger": 2674,
      "## der\n": 2675,
      "##, Nicolas\n": 2676,
      "Bri": 2677,
      "Hein": 2678,
      "Ir": 2679,
      "Por": 2680,
      "##, Carol": 2681,
      "## Ad": 2682,
      "##ieren\n": 2683,
      "##yna\n": 2684,
      "##, Alex\n": 2685,
      "##, Ul": 2686,
      "Johann": 2687,
      "Ah": 2688,
      "Hoch": 2689,
      "Kom": 2690,
      "Mey": 2691,
      "Som": 2692,
      "##ny\n": 2693,
      "##uan": 2694,
      "##sa\n": 2695,
      "##pt": 2696,
      "##O\n": 2697,
      "##!\n": 2698,
      "##unow\n": 2699,
      "##e, V": 2700,
      "##, Anton\n": 2701,
      "##ounty\n": 2702,
      "Ay": 2703,
      "Buch": 2704,
      "Lov": 2705,
      "Son": 2706,
      "##eg\n": 2707,
      "##eig": 2708,
      "## for": 2709,
      "##lic": 2710,
      "##len\n": 2711,
      "##-\n": 2712,
      "##e Ch": 2713,
      "##eter": 2714,
      "##own\n": 2715,
      "##, Mel": 2716,
      "##aux": 2717,
      "##, Karl": 2718,
      "## He": 2719,
      "##ehm": 2720,
      "## of th": 2721,
      "##e, La\n": 2722,
      "## Orchestra\n": 2723,
      "Johnson": 2724,
      "Ban": 2725,
      "Dam": 2726,
      "Ku": 2727,
      "Pa": 2728,
      "Paul": 2729,
      "##oine\n": 2730,
      "##wan\n": 2731,
      "##mil": 2732,
      "##\"\n": 2733,
      "Schul": 2734,
      "Burg": 2735,
      "##atherine\n": 2736,
      "##o, J": 2737,
      "##du": 2738,
      "##T\n": 2739,
      "##St": 2740,
      "##Un": 2741,
      "##e, I": 2742,
      "##, Kath": 2743,
      "##ukow\n": 2744,
      "##orge\n": 2745,
      "##, Jonathan\n": 2746,
      "Eur": 2747,
      "Georg": 2748,
      "Kö": 2749,
      "Pass": 2750,
      "Wang": 2751,
      "##E\n": 2752,
      "##lee\n": 2753,
      "##, Tom": 2754,
      "##tsew\n": 2755,
      "##udwig\n": 2756,
      "App": 2757,
      "Bil": 2758,
      "Las": 2759,
      "Lac": 2760,
      "##eau\n": 2761,
      "##iber": 2762,
      "##we\n": 2763,
      "##, Mike\n": 2764,
      "##ical": 2765,
      "##o J": 2766,
      "##ischer Name)\n": 2767,
      "Cent": 2768,
      "King": 2769,
      "Sen": 2770,
      "Sad": 2771,
      "##kh": 2772,
      "##i, Al": 2773,
      "##änd": 2774,
      "##erf": 2775,
      "##a p": 2776,
      "##er, V": 2777,
      "##, Luk": 2778,
      "##illiam\n": 2779,
      "##ylv": 2780,
      "## Un": 2781,
      "Rodrigu": 2782,
      "##ienne\n": 2783,
      "Horn": 2784,
      "Pas": 2785,
      "##ta\n": 2786,
      "##iew\n": 2787,
      "##ened": 2788,
      "##achim\n": 2789,
      "##, Fab": 2790,
      "##, Francois\n": 2791,
      "##uth\n": 2792,
      "Has": 2793,
      "Kot": 2794,
      "Kul": 2795,
      "Pot": 2796,
      "##ville\n": 2797,
      "##e n": 2798,
      "##, Aleksand": 2799,
      "##rob": 2800,
      "##, Kevin\n": 2801,
      "##e du": 2802,
      "##isco\n": 2803,
      "Bul": 2804,
      "Mam": 2805,
      "Riv": 2806,
      "So": 2807,
      "##sd": 2808,
      "##vin": 2809,
      "##er, O": 2810,
      "##, Ang": 2811,
      "##escu": 2812,
      "##, Emil": 2813,
      "##iuseppe\n": 2814,
      "Maj": 2815,
      "No": 2816,
      "Ng": 2817,
      "Roth": 2818,
      "##oon\n": 2819,
      "##iel\n": 2820,
      "##l'": 2821,
      "##rian": 2822,
      "##ison": 2823,
      "##rog": 2824,
      "##o F": 2825,
      "##, Claud": 2826,
      "##assil": 2827,
      "##eyn": 2828,
      "Simon": 2829,
      "##ood\n": 2830,
      "Cr": 2831,
      "Jo": 2832,
      "Og": 2833,
      "##der": 2834,
      "##uß": 2835,
      "##reis\n": 2836,
      "## (=Dr": 2837,
      "##egg\n": 2838,
      "Eb": 2839,
      "Tol": 2840,
      "## el": 2841,
      "##uan\n": 2842,
      "##1\n": 2843,
      "##arp": 2844,
      "##en, R": 2845,
      "##itskij\n": 2846,
      "##, Alfred\n": 2847,
      "##, Wolfgang\n": 2848,
      "##erdin": 2849,
      "##, Peter": 2850,
      "##, Arthur\n": 2851,
      "Cost": 2852,
      "Den": 2853,
      "Fin": 2854,
      "##ons\n": 2855,
      "##eli\n": 2856,
      "##a I": 2857,
      "##asil": 2858,
      "##, Jess": 2859,
      "## (P": 2860,
      "##akov": 2861,
      "##ington": 2862,
      "##, Domin": 2863,
      "##arlos\n": 2864,
      "Alexand": 2865,
      "##ys\n": 2866,
      "##sen\n": 2867,
      "##, Karl\n": 2868,
      "##occ": 2869,
      "##e-M": 2870,
      "##ophie\n": 2871,
      "##aurice\n": 2872,
      "Cant": 2873,
      "Lö": 2874,
      "Luk": 2875,
      "Pil": 2876,
      "##aro": 2877,
      "##, Mon": 2878,
      "##ove\n": 2879,
      "##awa\n": 2880,
      "Brun": 2881,
      "##ottir": 2882,
      "Leon": 2883,
      "##e St": 2884,
      "##, Julian\n": 2885,
      "Lak": 2886,
      "Lip": 2887,
      "Sau": 2888,
      "Wj": 2889,
      "War": 2890,
      "##no\n": 2891,
      "##M\n": 2892,
      "##e s": 2893,
      "##olin": 2894,
      "##abb": 2895,
      "Alp": 2896,
      "##uca\n": 2897,
      "##, Igor\n": 2898,
      "##, Vladimir\n": 2899,
      "##, Jean-P": 2900,
      "##, Sergej\n": 2901,
      "##nsemble\n": 2902,
      "##ermann\n": 2903,
      "Mu": 2904,
      "Pen": 2905,
      "Ra": 2906,
      "Var": 2907,
      "##val": 2908,
      "##anth": 2909,
      "##str": 2910,
      "##olin\n": 2911,
      "## Mich": 2912,
      "##, Tim\n": 2913,
      "##, Wladimir\n": 2914,
      "## Joh": 2915,
      "Amb": 2916,
      "##, Carlos\n": 2917,
      "Ca": 2918,
      "Cu": 2919,
      "Dev": 2920,
      "Kri": 2921,
      "Lav": 2922,
      "Sor": 2923,
      "##den\n": 2924,
      "##cott\n": 2925,
      "##e c": 2926,
      "Schön": 2927,
      "##, Benjamin\n": 2928,
      "##ech\n": 2929,
      "##onne\n": 2930,
      "##aptist": 2931,
      "Schmidt": 2932,
      "Asch": 2933,
      "Ing": 2934,
      "Long": 2935,
      "Sag": 2936,
      "Sig": 2937,
      "##ling\n": 2938,
      "##eric": 2939,
      "##en, S": 2940,
      "##olle": 2941,
      "##ictor": 2942,
      "##, La\n": 2943,
      "##manuel\n": 2944,
      "##röm": 2945,
      "Ind": 2946,
      "Mit": 2947,
      "Rot": 2948,
      "Tre": 2949,
      "Vil": 2950,
      "##elj": 2951,
      "##elo\n": 2952,
      "##, August": 2953,
      "##edro\n": 2954,
      "##, Don": 2955,
      "##ardin": 2956,
      "Ann": 2957,
      "##, Vinc": 2958,
      "## de B": 2959,
      "The B": 2960,
      "##, Edu": 2961,
      "Fri": 2962,
      "Kop": 2963,
      "##o, T": 2964,
      "##eis": 2965,
      "##eur\n": 2966,
      "##ali": 2967,
      "##lew": 2968,
      "##ap\n": 2969,
      "Anton": 2970,
      "Bes": 2971,
      "Carr": 2972,
      "Ek": 2973,
      "Gom": 2974,
      "Ny": 2975,
      "Roy": 2976,
      "##äm": 2977,
      "##elia\n": 2978,
      "##ido\n": 2979,
      "## Mar": 2980,
      "##, Alan\n": 2981,
      "##a del": 2982,
      "##, Anthony\n": 2983,
      "Boy": 2984,
      "Gen": 2985,
      "Kun": 2986,
      "Ras": 2987,
      "Tang": 2988,
      "Van": 2989,
      "## im": 2990,
      "##iac": 2991,
      "##pl": 2992,
      "##hu": 2993,
      "##elk": 2994,
      "##, Ali": 2995,
      "##, Jak": 2996,
      "##, Sarah\n": 2997,
      "##ougl": 2998,
      "##e, O": 2999,
      "##aba\n": 3000,
      "##ova\n": 3001,
      "##rans": 3002,
      "##illy": 3003,
      "Arm": 3004,
      "Arch": 3005,
      "Dar": 3006,
      "Maz": 3007,
      "Om": 3008,
      "##o, B": 3009,
      "##iu\n": 3010,
      "##low\n": 3011,
      "##0\n": 3012,
      "##aris": 3013,
      "##, Louis\n": 3014,
      "## Mart": 3015,
      "##oglu": 3016,
      "## von S": 3017,
      "##stitut": 3018,
      "Kil": 3019,
      "Mes": 3020,
      "##a'": 3021,
      "##aolo\n": 3022,
      "##ool": 3023,
      "##rud": 3024,
      "##ria\n": 3025,
      "##auf": 3026,
      "##aub": 3027,
      "##i, O": 3028,
      "##, Marie\n": 3029,
      "##obin\n": 3030,
      "##ustin\n": 3031,
      "## de M": 3032,
      "Bud": 3033,
      "Bald": 3034,
      "Hab": 3035,
      "Hamm": 3036,
      "Kab": 3037,
      "Kost": 3038,
      "Nik": 3039,
      "##nik\n": 3040,
      "##del": 3041,
      "##iad": 3042,
      "##field": 3043,
      "##bo": 3044,
      "##äng": 3045,
      "## (A": 3046,
      "## (L": 3047,
      "##er, U": 3048,
      "##o N": 3049,
      "##ann\n": 3050,
      "##, Le": 3051,
      "##ante\n": 3052,
      "##armon": 3053,
      "##erhard\n": 3054,
      "##, Christopher\n": 3055,
      "##russisch)\n": 3056,
      "Aj": 3057,
      "Bra": 3058,
      "Fisch": 3059,
      "Mun": 3060,
      "Miss": 3061,
      "Wor": 3062,
      "##jew": 3063,
      "##yan\n": 3064,
      "## w": 3065,
      "##vin\n": 3066,
      "##ario\n": 3067,
      "##red\n": 3068,
      "##osp": 3069,
      "##anny\n": 3070,
      "##, Margar": 3071,
      "##ohl": 3072,
      "Abu": 3073,
      "##issa\n": 3074,
      "##örg": 3075,
      "Bah": 3076,
      "Gonzal": 3077,
      "Id": 3078,
      "Lap": 3079,
      "Tay": 3080,
      "Ver": 3081,
      "Wild": 3082,
      "##aa\n": 3083,
      "##ix\n": 3084,
      "##min": 3085,
      "##mund": 3086,
      "##D\n": 3087,
      "##erbert\n": 3088,
      "##enz\n": 3089,
      "##irc": 3090,
      "## Comp": 3091,
      "##, Bill\n": 3092,
      "##, Thomas": 3093,
      "##ersdorf\n": 3094,
      "##eist": 3095,
      "##, Il": 3096,
      "##uschkin\n": 3097,
      "##kins": 3098,
      "##üt": 3099,
      "##a J": 3100,
      "## (H": 3101,
      "##e, Christ": 3102,
      "##ope\n": 3103,
      "## Park\n": 3104,
      "##iang\n": 3105,
      "Green": 3106,
      "##, Henry\n": 3107,
      "Berlin": 3108,
      "##kan": 3109,
      "##har": 3110,
      "##I.\n": 3111,
      "##ason\n": 3112,
      "Schtsch": 3113,
      "Thomas": 3114,
      "##astas": 3115,
      "## von M": 3116,
      "Schwarz": 3117,
      "Robert": 3118,
      "Borg": 3119,
      "Beau": 3120,
      "Kell": 3121,
      "Loch": 3122,
      "##enstein": 3123,
      "##orst\n": 3124,
      "##, Jef": 3125,
      "##, Juan\n": 3126,
      "##amm\n": 3127,
      "## Island\n": 3128,
      "Bus": 3129,
      "Band": 3130,
      "Ke": 3131,
      "Lob": 3132,
      "Ot": 3133,
      "Ren": 3134,
      "##wald": 3135,
      "##ba\n": 3136,
      "##, Math": 3137,
      "## (R": 3138,
      "##abl": 3139,
      "##i, Y": 3140,
      "Chap": 3141,
      "##eb\n": 3142,
      "##, Iv": 3143,
      "##ault": 3144,
      "##enzo\n": 3145,
      "Cass": 3146,
      "Ell": 3147,
      "Jar": 3148,
      "Sid": 3149,
      "##ke": 3150,
      "##ky": 3151,
      "##eri\n": 3152,
      "##che\n": 3153,
      "##als": 3154,
      "##e t": 3155,
      "##adsch": 3156,
      "##igi\n": 3157,
      "## Ang": 3158,
      "##utz": 3159,
      "## de C": 3160,
      "##e des": 3161,
      "Bed": 3162,
      "Ec": 3163,
      "Jack": 3164,
      "Lat": 3165,
      "Mod": 3166,
      "Rep": 3167,
      "Young": 3168,
      "##ney\n": 3169,
      "##eer\n": 3170,
      "##i-": 3171,
      "##well": 3172,
      "##aris\n": 3173,
      "##en, J": 3174,
      "##elh": 3175,
      "##elic": 3176,
      "##owsk": 3177,
      "##urd": 3178,
      "## (N": 3179,
      "##ime\n": 3180,
      "##o von": 3181,
      "##, Pav": 3182,
      "##, Hug": 3183,
      "##obias\n": 3184,
      "## Prof": 3185,
      "##ernando\n": 3186,
      "Bag": 3187,
      "Holl": 3188,
      "Seg": 3189,
      "##air\n": 3190,
      "##3\n": 3191,
      "##inson": 3192,
      "##chez": 3193,
      "##e p": 3194,
      "##riv": 3195,
      "##asa\n": 3196,
      "##emy\n": 3197,
      "##odor\n": 3198,
      "## Am": 3199,
      "## Man": 3200,
      "##ight\n": 3201,
      "Lem": 3202,
      "Tat": 3203,
      "el": 3204,
      "##aou": 3205,
      "##luss": 3206,
      "##2\n": 3207,
      "##er L": 3208,
      "##ely": 3209,
      "##, Jim\n": 3210,
      "##ado": 3211,
      "##adi": 3212,
      "##auss": 3213,
      "## (G": 3214,
      "##er, Ch": 3215,
      "## del": 3216,
      "##eza\n": 3217,
      "##ustaf": 3218,
      "Adam": 3219,
      "##yr\n": 3220,
      "##raham": 3221,
      "##, Stephan\n": 3222,
      "##, Manuel\n": 3223,
      "##onstantin": 3224,
      "##, David": 3225,
      "Lab": 3226,
      "Leb": 3227,
      "Vo": 3228,
      "##ne": 3229,
      "##uz\n": 3230,
      "##roc": 3231,
      "##irk": 3232,
      "##akh": 3233,
      "Kw": 3234,
      "Mend": 3235,
      "Pav": 3236,
      "Vol": 3237,
      "##aard": 3238,
      "##ney": 3239,
      "##ran\n": 3240,
      "##fer": 3241,
      "##olom": 3242,
      "##une\n": 3243,
      "##. Dr": 3244,
      "##ablo\n": 3245,
      "##ange\n": 3246,
      "## GmbH\n": 3247,
      "##ortug": 3248,
      "## Ed": 3249,
      "Esp": 3250,
      "Nav": 3251,
      "Phil": 3252,
      "Rem": 3253,
      "##di\n": 3254,
      "##yth": 3255,
      "##mond": 3256,
      "##br": 3257,
      "##ersch": 3258,
      "##arin\n": 3259,
      "##insk": 3260,
      "##chi": 3261,
      "##elg": 3262,
      "##eline\n": 3263,
      "##ami\n": 3264,
      "##ese\n": 3265,
      "##ado\n": 3266,
      "##o V": 3267,
      "##, Ros": 3268,
      "##acht": 3269,
      "##, Boris\n": 3270,
      "##a, Ol": 3271,
      "Bi": 3272,
      "Kok": 3273,
      "Zw": 3274,
      "##a, Anna\n": 3275,
      "##jow\n": 3276,
      "##arab": 3277,
      "##a W": 3278,
      "##isz": 3279,
      "##a, Z": 3280,
      "##ack\n": 3281,
      "##, Dimit": 3282,
      "## Air": 3283,
      "##ugg": 3284,
      "Arb": 3285,
      "##enbach": 3286,
      "##, Adri": 3287,
      "##ymph": 3288,
      "Au": 3289,
      "Att": 3290,
      "Ci": 3291,
      "Karl": 3292,
      "Nem": 3293,
      "Tu": 3294,
      "##oot": 3295,
      "## h": 3296,
      "##iak": 3297,
      "##sdorf\n": 3298,
      "##onia\n": 3299,
      "##roth": 3300,
      "##led": 3301,
      "##acion": 3302,
      "Cham": 3303,
      "##, En": 3304,
      "##estiv": 3305,
      "##ast\n": 3306,
      "## Gu": 3307,
      "##uchin\n": 3308,
      "Cat": 3309,
      "Deb": 3310,
      "Hum": 3311,
      "Hof": 3312,
      "Hans": 3313,
      "Herr": 3314,
      "Ib": 3315,
      "Kad": 3316,
      "Sub": 3317,
      "Tw": 3318,
      "##eal": 3319,
      "##ron\n": 3320,
      "##las\n": 3321,
      "##ank\n": 3322,
      "##ati": 3323,
      "##atow\n": 3324,
      "##es, Les\n": 3325,
      "##irt": 3326,
      "##o E": 3327,
      "Chor": 3328,
      "##ive\n": 3329,
      "Rodriguez": 3330,
      "Fed": 3331,
      "Leg": 3332,
      "Mann": 3333,
      "Mang": 3334,
      "Ta": 3335,
      "Wood": 3336,
      "##obert": 3337,
      "##he\n": 3338,
      "##way": 3339,
      "##rie\n": 3340,
      "##a m": 3341,
      "##asn": 3342,
      "##ict": 3343,
      "##e, Franc": 3344,
      "## d'A": 3345,
      "##, Klaus\n": 3346,
      "##rücke\n": 3347,
      "Comp": 3348,
      "##row\n": 3349,
      "##iang": 3350,
      "##ünt": 3351,
      "##esz": 3352,
      "##, Jud": 3353,
      "##iki\n": 3354,
      "##eiro": 3355,
      "## For": 3356,
      "##echt": 3357,
      "Cont": 3358,
      "Font": 3359,
      "Gir": 3360,
      "Ky": 3361,
      "Ly": 3362,
      "Russ": 3363,
      "Sup": 3364,
      "Ven": 3365,
      "##ger\n": 3366,
      "##üll": 3367,
      "##enf": 3368,
      "##ets\n": 3369,
      "##akis": 3370,
      "Star": 3371,
      "##, Phil": 3372,
      "La C": 3373,
      "Moor": 3374,
      "##, Steven\n": 3375,
      "Iw": 3376,
      "Kov": 3377,
      "König": 3378,
      "Mot": 3379,
      "Vall": 3380,
      "##iu": 3381,
      "##ati\n": 3382,
      "##rech": 3383,
      "##imp": 3384,
      "##, Gil": 3385,
      "##, Hann": 3386,
      "##ennis\n": 3387,
      "##, Andrz": 3388,
      "##ista\n": 3389,
      "## En": 3390,
      "##ost\n": 3391,
      "##, Edward\n": 3392,
      "Es": 3393,
      "Gul": 3394,
      "Hom": 3395,
      "Vi": 3396,
      "##oir": 3397,
      "##o, C": 3398,
      "##N\n": 3399,
      "##bl": 3400,
      "##ine": 3401,
      "##owo\n": 3402,
      "## (T": 3403,
      "##ava\n": 3404,
      "##opoul": 3405,
      "##, Barbara\n": 3406,
      "##, Franz": 3407,
      "##ezz": 3408,
      "##ib\n": 3409,
      "##enny\n": 3410,
      "##lana\n": 3411,
      "##echn": 3412,
      "Blu": 3413,
      "##Quart": 3414,
      "##ologie\n": 3415,
      "Baj": 3416,
      "Cer": 3417,
      "Cre": 3418,
      "Magn": 3419,
      "Mount": 3420,
      "Sob": 3421,
      "Top": 3422,
      "##jakow\n": 3423,
      "##eil\n": 3424,
      "##V\n": 3425,
      "##äl": 3426,
      "##ory": 3427,
      "##rey\n": 3428,
      "##igli": 3429,
      "##, Mary\n": 3430,
      "## Ant": 3431,
      "##ept": 3432,
      "Angel": 3433,
      "##iv\n": 3434,
      "## de S": 3435,
      "##ifer\n": 3436,
      "##itte\n": 3437,
      "##yl\n": 3438,
      "##ridg": 3439,
      "##, Elis": 3440,
      "##, Marie-": 3441,
      "##, Denis\n": 3442,
      "Bot": 3443,
      "Bob": 3444,
      "Mün": 3445,
      "Plan": 3446,
      "Ri": 3447,
      "##a-": 3448,
      "##enburg": 3449,
      "##irk\n": 3450,
      "## Co": 3451,
      "##ibb": 3452,
      "##ascha\n": 3453,
      "##a, El": 3454,
      "##, Victor\n": 3455,
      "Cot": 3456,
      "Cart": 3457,
      "Eli": 3458,
      "Ferr": 3459,
      "Hard": 3460,
      "Jos": 3461,
      "Res": 3462,
      "Vog": 3463,
      "##a-M": 3464,
      "##eny": 3465,
      "##ster\n": 3466,
      "##amon\n": 3467,
      "##ouk": 3468,
      "##a, Franc": 3469,
      "Chal": 3470,
      "##, Greg": 3471,
      "##ebir": 3472,
      "##ersh": 3473,
      "##ouse\n": 3474,
      "##, Franz\n": 3475,
      "##onstantin\n": 3476,
      "##, Oliver\n": 3477,
      "##nternational": 3478,
      "##iewicz": 3479,
      "Lopez": 3480,
      "Bow": 3481,
      "Carl": 3482,
      "Ess": 3483,
      "Fle": 3484,
      "Hav": 3485,
      "Hill": 3486,
      "Jur": 3487,
      "Leh": 3488,
      "Si": 3489,
      "##min\n": 3490,
      "##ont\n": 3491,
      "##elf": 3492,
      "##, Sv": 3493,
      "##ando\n": 3494,
      "##ede\n": 3495,
      "##ement\n": 3496,
      "##iguel\n": 3497,
      "Alc": 3498,
      "Ka": 3499,
      "Liv": 3500,
      "Mul": 3501,
      "Matt": 3502,
      "Nak": 3503,
      "Sun": 3504,
      "Sok": 3505,
      "##kar": 3506,
      "##jord\n": 3507,
      "##eus\n": 3508,
      "##rt": 3509,
      "##ensch": 3510,
      "##ins\n": 3511,
      "##alb": 3512,
      "##amer": 3513,
      "##, Max": 3514,
      "##, Sab": 3515,
      "##, Roger\n": 3516,
      "##, Brian\n": 3517,
      "Davis": 3518,
      "##aterina\n": 3519,
      "##brahim\n": 3520,
      "Aut": 3521,
      "Corn": 3522,
      "Hy": 3523,
      "Iv": 3524,
      "Kob": 3525,
      "Sach": 3526,
      "##lar": 3527,
      "##gan": 3528,
      "##chen\n": 3529,
      "##ess\n": 3530,
      "##itä": 3531,
      "##oux": 3532,
      "##rank\n": 3533,
      "##illaum": 3534,
      "##assan\n": 3535,
      "##ugene\n": 3536,
      "##och\n": 3537,
      "##eorge\n": 3538,
      "McG": 3539,
      "Fried": 3540,
      "How": 3541,
      "Hoff": 3542,
      "Ker": 3543,
      "North": 3544,
      "Ped": 3545,
      "##iy\n": 3546,
      "##mo": 3547,
      "##zen": 3548,
      "##q\n": 3549,
      "##ania\n": 3550,
      "##a n": 3551,
      "##, Jürgen\n": 3552,
      "##aks": 3553,
      "## Sal": 3554,
      "##, Gustav": 3555,
      "##einz\n": 3556,
      "##, Ir": 3557,
      "##örg\n": 3558,
      "##, Adrian\n": 3559,
      "Scott": 3560,
      "Bonn": 3561,
      "Cur": 3562,
      "Gut": 3563,
      "Kow": 3564,
      "Pad": 3565,
      "Part": 3566,
      "Raj": 3567,
      "Sat": 3568,
      "##o (=Dr. ...)\n": 3569,
      "##ool\n": 3570,
      "##ly\n": 3571,
      "##lov": 3572,
      "##lingen\n": 3573,
      "##sz": 3574,
      "##R\n": 3575,
      "##, X": 3576,
      "##chen": 3577,
      "##sth": 3578,
      "##ilian\n": 3579,
      "## Alexand": 3580,
      "Stad": 3581,
      "Ard": 3582,
      "The S": 3583,
      "##örp\n": 3584,
      "Wilson": 3585,
      "## Quartet\n": 3586,
      "Ga": 3587,
      "Grim": 3588,
      "Litt": 3589,
      "Sir": 3590,
      "##wood": 3591,
      "##ball": 3592,
      "##bei": 3593,
      "##'t": 3594,
      "##/A": 3595,
      "##oland\n": 3596,
      "##a de\n": 3597,
      "## River\n": 3598,
      "Mari": 3599,
      "##, Michal\n": 3600,
      "##ynd": 3601,
      "Clark": 3602,
      "##ieu\n": 3603,
      "##er, Peter\n": 3604,
      "##er, Thomas\n": 3605,
      "##a, Maria\n": 3606,
      "Jung": 3607,
      "##ps": 3608,
      "##gar\n": 3609,
      "##ment": 3610,
      "##zabeth\n": 3611,
      "##USA": 3612,
      "##inski": 3613,
      "##ish\n": 3614,
      "##augh": 3615,
      "##rey": 3616,
      "##, Sam\n": 3617,
      "##, Rene\n": 3618,
      "##itschew\n": 3619,
      "##raham\n": 3620,
      "Reich": 3621,
      "##, Henri\n": 3622,
      "##, Laura\n": 3623,
      "Schneid": 3624,
      "Cel": 3625,
      "Kü": 3626,
      "Koz": 3627,
      "Low": 3628,
      "Nar": 3629,
      "Um": 3630,
      "Wein": 3631,
      "##i C": 3632,
      "##ft": 3633,
      "##mel": 3634,
      "##olit": 3635,
      "##adis": 3636,
      "##adem": 3637,
      "##recht": 3638,
      "##omo\n": 3639,
      "##, Roman\n": 3640,
      "March": 3641,
      "## de L": 3642,
      "##e-S": 3643,
      "##eux": 3644,
      "##, Andrej\n": 3645,
      "##stadt\n": 3646,
      "##, Samuel\n": 3647,
      "## Trio\n": 3648,
      "Bac": 3649,
      "Sap": 3650,
      "##do\n": 3651,
      "## \"": 3652,
      "##ler\n": 3653,
      "##laus": 3654,
      "##bell": 3655,
      "##äd": 3656,
      "##oro\n": 3657,
      "##olz": 3658,
      "##ame\n": 3659,
      "##... ": 3660,
      "##usk": 3661,
      "##and)\n": 3662,
      "##ikon\n": 3663,
      "##ebel": 3664,
      "##, Sergei\n": 3665,
      "##, Carl\n": 3666,
      "## Abd": 3667,
      "Good": 3668,
      "Kirch": 3669,
      "Math": 3670,
      "Pir": 3671,
      "Rio ": 3672,
      "Vid": 3673,
      "Witt": 3674,
      "## k": 3675,
      "##can": 3676,
      "##wer": 3677,
      "##ori": 3678,
      "##orst": 3679,
      "##rib": 3680,
      "##amil": 3681,
      "##owicz": 3682,
      "##isp": 3683,
      "##ics\n": 3684,
      "Chan": 3685,
      "## Hen": 3686,
      "## Le": 3687,
      "##oko\n": 3688,
      "##, Alain\n": 3689,
      "Eis": 3690,
      "End": 3691,
      "Graf": 3692,
      "Haw": 3693,
      "Ki": 3694,
      "Kub": 3695,
      "Nas": 3696,
      "##c\n": 3697,
      "##se": 3698,
      "##, Ren": 3699,
      "##, Car": 3700,
      "## Fre": 3701,
      "##e d'": 3702,
      "##ritz": 3703,
      "##, Abdul": 3704,
      "##hardt": 3705,
      "Jacob": 3706,
      "Call": 3707,
      "Do": 3708,
      "Kass": 3709,
      "Lin": 3710,
      "Lub": 3711,
      "Pow": 3712,
      "Vit": 3713,
      "##y B": 3714,
      "##iros": 3715,
      "##fen\n": 3716,
      "##F\n": 3717,
      "##onow\n": 3718,
      "##icardo\n": 3719,
      "##ema\n": 3720,
      "##illon": 3721,
      "## County\n": 3722,
      "##ofen\n": 3723,
      "##awel\n": 3724,
      "##ekt": 3725,
      "##ozz": 3726,
      "##elmut\n": 3727,
      "##ascal\n": 3728,
      "Zhang": 3729,
      "##udwig": 3730,
      "## (= Dr. ...)\n": 3731,
      "##stedt\n": 3732,
      "##ebirge\n": 3733,
      "Benn": 3734,
      "Dum": 3735,
      "Gur": 3736,
      "Hil": 3737,
      "Nikol": 3738,
      "Rü": 3739,
      "Rich": 3740,
      "Rev": 3741,
      "Wel": 3742,
      "Will": 3743,
      "##dan": 3744,
      "##iec": 3745,
      "##ves\n": 3746,
      "##enburg\n": 3747,
      "##ath\n": 3748,
      "##amin": 3749,
      "##, Maurice\n": 3750,
      "##roy": 3751,
      "##us ": 3752,
      "##ewgen": 3753,
      "Albert": 3754,
      "##, Tim": 3755,
      "##einrich\n": 3756,
      "##, Ali\n": 3757,
      "Maria ": 3758,
      "Arg": 3759,
      "##essa\n": 3760,
      "##, Viktor\n": 3761,
      "##a (S": 3762,
      "##, Christoph\n": 3763,
      "##, Joachim\n": 3764,
      "Herz": 3765,
      "Martinez": 3766,
      "Hell": 3767,
      "Not": 3768,
      "Roh": 3769,
      "Yam": 3770,
      "##rä": 3771,
      "##er K": 3772,
      "##elena\n": 3773,
      "##alter": 3774,
      "##e f": 3775,
      "##ater\n": 3776,
      "##oup": 3777,
      "##oud\n": 3778,
      "##agen\n": 3779,
      "##ther\n": 3780,
      "##ingen": 3781,
      "Chen": 3782,
      "##asse\n": 3783,
      "##endorf": 3784,
      "##, Francois": 3785,
      "Sanchez": 3786,
      "##, Matthew\n": 3787,
      "Taylor": 3788,
      "Ele": 3789,
      "Lan": 3790,
      "Oliv": 3791,
      "Pur": 3792,
      "She": 3793,
      "Ut": 3794,
      "##aet": 3795,
      "##o (=Prof. Dr. ...)\n": 3796,
      "##ound": 3797,
      "##oir\n": 3798,
      "##yss": 3799,
      "##mor": 3800,
      "##eni\n": 3801,
      "##olph": 3802,
      "##aud\n": 3803,
      "##, Sch": 3804,
      "##ovo\n": 3805,
      "##, Ray": 3806,
      "## Cent": 3807,
      "##, Harry\n": 3808,
      "##ebb": 3809,
      "##ersen": 3810,
      "## The": 3811,
      "##ains\n": 3812,
      "##, Bernard\n": 3813,
      "##, Nikolai\n": 3814,
      "South": 3815,
      "Ari": 3816,
      "Air": 3817,
      "Ath": 3818,
      "Conc": 3819,
      "Laur": 3820,
      "Mis": 3821,
      "##o, Al": 3822,
      "##rol": 3823,
      "##yz": 3824,
      "##her": 3825,
      "##arew\n": 3826,
      "##elin\n": 3827,
      "##schin\n": 3828,
      "##eda\n": 3829,
      "##o H": 3830,
      "##skaj": 3831,
      "##, Rein": 3832,
      "## (= Prof": 3833,
      "##rant": 3834,
      "##ogg": 3835,
      "##arlo\n": 3836,
      "## von B": 3837,
      "##ejew": 3838,
      "##, Alexandra\n": 3839,
      "##iego\n": 3840,
      "##ärt": 3841,
      "##, Manfred\n": 3842,
      "##ohamed\n": 3843,
      "##aar": 3844,
      "##nton": 3845,
      "##yll": 3846,
      "##loy": 3847,
      "##B\n": 3848,
      "##erth": 3849,
      "##inski, ": 3850,
      "##alin\n": 3851,
      "##e v": 3852,
      "##ross": 3853,
      "##, Scott\n": 3854,
      "##, Dan\n": 3855,
      "## August": 3856,
      "##, Georg\n": 3857,
      "##entin": 3858,
      "##aldo\n": 3859,
      "##immy\n": 3860,
      "Gud": 3861,
      "Ni": 3862,
      "Neg": 3863,
      "Roch": 3864,
      "##i d": 3865,
      "##vil": 3866,
      "##Al": 3867,
      "##-Y": 3868,
      "##K\n": 3869,
      "##üd\n": 3870,
      "##ares": 3871,
      "##, Joz": 3872,
      "##ouz": 3873,
      "##igen\n": 3874,
      "##ecil": 3875,
      "##ebec": 3876,
      "##uki\n": 3877,
      "##, Michail\n": 3878,
      "##right": 3879,
      "##uhamm": 3880,
      "Gonzalez": 3881,
      "##, Andrzej\n": 3882,
      "Daw": 3883,
      "Fal": 3884,
      "Lib": 3885,
      "Nad": 3886,
      "Pic": 3887,
      "Richard": 3888,
      "##new\n": 3889,
      "##di": 3890,
      "##rj": 3891,
      "##co\n": 3892,
      "##wald\n": 3893,
      "##oma\n": 3894,
      "##out\n": 3895,
      "##aci": 3896,
      "##ayn": 3897,
      "##, Ph": 3898,
      "Ald": 3899,
      "##, Bob\n": 3900,
      "##, Tony\n": 3901,
      "##ento\n": 3902,
      "##afael\n": 3903,
      "##, Andrei\n": 3904,
      "Anderson": 3905,
      "## Group\n": 3906,
      "Esc": 3907,
      "Kut": 3908,
      "Mau": 3909,
      "Morg": 3910,
      "Nu": 3911,
      "Sud": 3912,
      "Tok": 3913,
      "Win": 3914,
      "##aik": 3915,
      "##a, Jos": 3916,
      "##kt": 3917,
      "##eu\n": 3918,
      "##weg": 3919,
      "##aron": 3920,
      "##ilow\n": 3921,
      "##ase\n": 3922,
      "##acz": 3923,
      "##, Lisa\n": 3924,
      "## Maria\n": 3925,
      "##aw\n": 3926,
      "##eid\n": 3927,
      "##, Andy\n": 3928,
      "##uschin\n": 3929,
      "##ford\n": 3930,
      "##atalia\n": 3931,
      "##scar\n": 3932,
      "##a, Olga\n": 3933,
      "Beg": 3934,
      "Fir": 3935,
      "Koch": 3936,
      "Sum": 3937,
      "##ye\n": 3938,
      "##ytsch": 3939,
      "##ves": 3940,
      "##furt": 3941,
      "##arch": 3942,
      "##eno\n": 3943,
      "##oln": 3944,
      "##iktor": 3945,
      "##abel\n": 3946,
      "##, Anat": 3947,
      "##, Jean-M": 3948,
      "##enstein\n": 3949,
      "## van der\n": 3950,
      "##icholas\n": 3951,
      "Dz": 3952,
      "Saf": 3953,
      "##yri": 3954,
      "##see\n": 3955,
      "##vi\n": 3956,
      "##erin\n": 3957,
      "##alia\n": 3958,
      "##a s": 3959,
      "##reet\n": 3960,
      "##lis\n": 3961,
      "##obb": 3962,
      "##ester\n": 3963,
      "##, Nad": 3964,
      "##arlotte\n": 3965,
      "##, Wilhelm\n": 3966,
      "##ainer\n": 3967,
      "Marin": 3968,
      "##e (französisch)\n": 3969,
      "##uzz": 3970,
      "Tschern": 3971,
      "##russischer Name)\n": 3972,
      "##, Antoine\n": 3973,
      "##, Florian\n": 3974,
      "##ünter\n": 3975,
      "Fab": 3976,
      "Gra": 3977,
      "Rat": 3978,
      "Vin": 3979,
      "##aal": 3980,
      "##iann": 3981,
      "##ule": 3982,
      "##war": 3983,
      "##bro": 3984,
      "##L\n": 3985,
      "##er D": 3986,
      "##ara": 3987,
      "##ames\n": 3988,
      "##, Agn": 3989,
      "##ash\n": 3990,
      "##ous\n": 3991,
      "##, Claude\n": 3992,
      "## Ag": 3993,
      "## Corp": 3994,
      "##ango\n": 3995,
      "## Pl": 3996,
      "##iere\n": 3997,
      "The C": 3998,
      "##, Julie\n": 3999,
      "Ort": 4000,
      "Perez": 4001,
      "##-Nord\n": 4002,
      "Walk": 4003,
      "## (=Prof. ...)\n": 4004,
      "Gab": 4005,
      "Hot": 4006,
      "Hey": 4007,
      "Lis": 4008,
      "Moh": 4009,
      "##ti\n": 4010,
      "##o, F": 4011,
      "##, Maxim": 4012,
      "##even": 4013,
      "##, Ben\n": 4014,
      "##, Kurt\n": 4015,
      "##, No": 4016,
      "The L": 4017,
      "##illiam": 4018,
      "##, Georges\n": 4019,
      "##eira\n": 4020,
      "##, Antonio ": 4021,
      "Garci": 4022,
      "David": 4023,
      "##irgin": 4024,
      "Bü": 4025,
      "Big": 4026,
      "Beh": 4027,
      "Law": 4028,
      "Meg": 4029,
      "Ow": 4030,
      "Paw": 4031,
      "Rib": 4032,
      "Sed": 4033,
      "Sah": 4034,
      "##aev": 4035,
      "##ook": 4036,
      "##equ": 4037,
      "##ual": 4038,
      "##bar": 4039,
      "##inus\n": 4040,
      "##sten": 4041,
      "##e Y": 4042,
      "##asi\n": 4043,
      "##auch": 4044,
      "##reis": 4045,
      "##, Richard": 4046,
      "## Blu": 4047,
      "Ans": 4048,
      "## El": 4049,
      "The M": 4050,
      "##, Stanislaw\n": 4051,
      "Kus": 4052,
      "Mess": 4053,
      "Nam": 4054,
      "Oc": 4055,
      "## Q": 4056,
      "##ium": 4057,
      "##uff": 4058,
      "##er W": 4059,
      "##enez": 4060,
      "##eto\n": 4061,
      "##uro\n": 4062,
      "##adel": 4063,
      "##unc": 4064,
      "##akow": 4065,
      "##, Rudolf\n": 4066,
      "Champ": 4067,
      "Ste": 4068,
      "##, Patric": 4069,
      "##, Eva\n": 4070,
      "##ecord": 4071,
      "##eib": 4072,
      "Mars": 4073,
      "##, Ole": 4074,
      "##erman\n": 4075,
      "##a Maria\n": 4076,
      "Gross": 4077,
      "##, Henry": 4078,
      "##irchen\n": 4079,
      "##, Olivier\n": 4080,
      "##USA)\n": 4081,
      "Aust": 4082,
      "Blan": 4083,
      "Gü": 4084,
      "Oh": 4085,
      "Reb": 4086,
      "##ru\n": 4087,
      "## la ": 4088,
      "##ief": 4089,
      "##i L": 4090,
      "##en, H": 4091,
      "##onrad\n": 4092,
      "##ils\n": 4093,
      "##rij\n": 4094,
      "##esn": 4095,
      "##, Mir": 4096,
      "##omi\n": 4097,
      "##ouri": 4098,
      "##acqu": 4099,
      "##i, Z": 4100,
      "##ave\n": 4101,
      "##, Felix\n": 4102,
      "Agu": 4103,
      "Brook": 4104,
      "##ühl\n": 4105,
      "Bh": 4106,
      "Cad": 4107,
      "Fe": 4108,
      "Hass": 4109,
      "Jer": 4110,
      "Mast": 4111,
      "Ov": 4112,
      "##e, John\n": 4113,
      "##öd": 4114,
      "##-le": 4115,
      "##olp": 4116,
      "##olod": 4117,
      "##ador\n": 4118,
      "##..)\n": 4119,
      "##bers": 4120,
      "##abeth": 4121,
      "##ahn\n": 4122,
      "##, Dor": 4123,
      "## Med": 4124,
      "##, Bruno\n": 4125,
      "Thom": 4126,
      "##, Nick\n": 4127,
      "##ukrain": 4128,
      "## de P": 4129,
      "##ift": 4130,
      "##, Johann\n": 4131,
      "##othy\n": 4132,
      "##, Johnny\n": 4133,
      "##weg\n": 4134,
      "##ilm)\n": 4135,
      "Johannes": 4136,
      "Cs": 4137,
      "Herm": 4138,
      "Heid": 4139,
      "Juli": 4140,
      "Och": 4141,
      "Pos": 4142,
      "##e, Mar": 4143,
      "##i G": 4144,
      "##uit": 4145,
      "##wig": 4146,
      "##4\n": 4147,
      "##er G": 4148,
      "##er (=Dr. ...)\n": 4149,
      "##onald": 4150,
      "##el)\n": 4151,
      "##alg": 4152,
      "##esus\n": 4153,
      "##a, Ch": 4154,
      "##i, W": 4155,
      "##, Rach": 4156,
      "##rand\n": 4157,
      "##ode\n": 4158,
      "## Bay\n": 4159,
      "##eif": 4160,
      "##uch\n": 4161,
      "##ield\n": 4162,
      "##i, Mohamm": 4163,
      "##er, David\n": 4164,
      "## Anton": 4165,
      "Jackson": 4166,
      "##, Pavel\n": 4167,
      "Gard": 4168,
      "Kast": 4169,
      "Us": 4170,
      "Well": 4171,
      "Wind": 4172,
      "Öz": 4173,
      "##iuli": 4174,
      "##mp": 4175,
      "##er P": 4176,
      "##en, L": 4177,
      "##ström": 4178,
      "##urk": 4179,
      "##roj": 4180,
      "##, Sylv": 4181,
      "##lig": 4182,
      "##ement": 4183,
      "##aye\n": 4184,
      "##ogn": 4185,
      "##angel": 4186,
      "##uc\n": 4187,
      "##rico\n": 4188,
      "##e (englisch)\n": 4189,
      "Petit": 4190,
      "##rasil": 4191,
      "Merc": 4192,
      "Lewis": 4193,
      "##, Vincent\n": 4194,
      "Bard": 4195,
      "Bey": 4196,
      "Eich": 4197,
      "Fu": 4198,
      "Gn": 4199,
      "Hend": 4200,
      "Kum": 4201,
      "Lit": 4202,
      "Pag": 4203,
      "Post": 4204,
      "Yang": 4205,
      "Zim": 4206,
      "##ao": 4207,
      "##oz\n": 4208,
      "##die\n": 4209,
      "##r.)\n": 4210,
      "##y L": 4211,
      "##i, J": 4212,
      "##mund\n": 4213,
      "##üs": 4214,
      "##er M": 4215,
      "##er, Michael\n": 4216,
      "##orin": 4217,
      "##urs": 4218,
      "##aug": 4219,
      "##lein": 4220,
      "##usa\n": 4221,
      "##uben\n": 4222,
      "##essandro\n": 4223,
      "## Ex": 4224,
      "## Val": 4225,
      "##e de la ": 4226,
      "Ahm": 4227,
      "Bond": 4228,
      "Back": 4229,
      "Esch": 4230,
      "Hon": 4231,
      "Kel": 4232,
      "Pant": 4233,
      "Roz": 4234,
      "Sang": 4235,
      "Tj": 4236,
      "Walt": 4237,
      "Wagn": 4238,
      "##o, K": 4239,
      "##nn": 4240,
      "## et": 4241,
      "##con": 4242,
      "##uo\n": 4243,
      "##wor": 4244,
      "##bon": 4245,
      "##zz": 4246,
      "##ze\n": 4247,
      "##zew": 4248,
      "##'\n": 4249,
      "##anas": 4250,
      "##rique\n": 4251,
      "##esar\n": 4252,
      "## (p": 4253,
      "##ikt": 4254,
      "##ska\n": 4255,
      "##avid": 4256,
      "## Sant": 4257,
      "Stre": 4258,
      "##opol": 4259,
      "##, Erik\n": 4260,
      "##ofia\n": 4261,
      "##ogl": 4262,
      "##ipe\n": 4263,
      "##uke\n": 4264,
      "##, Werner\n": 4265,
      "Braun": 4266,
      "##-Süd\n": 4267,
      "##aura\n": 4268,
      "##ietro\n": 4269,
      "##gnac": 4270,
      "##, Tomas\n": 4271,
      "Royal": 4272,
      "##opoulos": 4273,
      "Bank": 4274,
      "Franz": 4275,
      "Gam": 4276,
      "Hann": 4277,
      "Ill": 4278,
      "Lü": 4279,
      "Nel": 4280,
      "Past": 4281,
      "Rah": 4282,
      "##a, Jo": 4283,
      "##y M": 4284,
      "## a ": 4285,
      "##ia (": 4286,
      "##ve\n": 4287,
      "##-U": 4288,
      "##äus": 4289,
      "##er, A": 4290,
      "##er, Al": 4291,
      "##ales": 4292,
      "##e von": 4293,
      "##ilo\n": 4294,
      "##rom\n": 4295,
      "##, Serh": 4296,
      "##ote\n": 4297,
      "##emi\n": 4298,
      "##ulin\n": 4299,
      "##ranz\n": 4300,
      "##, Ell": 4301,
      "##iva\n": 4302,
      "##mann\n": 4303,
      "##ondon": 4304,
      "McK": 4305,
      "##lement": 4306,
      "##, Stephane\n": 4307,
      "##atschew\n": 4308,
      "Liu": 4309,
      "Acc": 4310,
      "## Joseph\n": 4311,
      "Buk": 4312,
      "Card": 4313,
      "Cord": 4314,
      "Fernandez": 4315,
      "Jun": 4316,
      "Kaz": 4317,
      "Lad": 4318,
      "Mi": 4319,
      "Na": 4320,
      "Rav": 4321,
      "Wass": 4322,
      "Weiß": 4323,
      "##juk": 4324,
      "##y S": 4325,
      "##iar": 4326,
      "##had": 4327,
      "##äg": 4328,
      "##schtsch": 4329,
      "##iska\n": 4330,
      "##aux\n": 4331,
      "##rest": 4332,
      "##raph": 4333,
      "##o K": 4334,
      "##ulf": 4335,
      "Cho": 4336,
      "##quez": 4337,
      "##, Alexandre\n": 4338,
      "##o del": 4339,
      "##, Sergio\n": 4340,
      "##chestr": 4341,
      "##, Mohammed\n": 4342,
      "Asp": 4343,
      "Da": 4344,
      "Gord": 4345,
      "Hem": 4346,
      "Pul": 4347,
      "Ry": 4348,
      "Vand": 4349,
      "##rett": 4350,
      "## on": 4351,
      "##ini, G": 4352,
      "##els\n": 4353,
      "##oran\n": 4354,
      "##rio\n": 4355,
      "##a O": 4356,
      "##oto\n": 4357,
      "##othe": 4358,
      "##, Cam": 4359,
      "##enneth\n": 4360,
      "##ullah\n": 4361,
      "##, Matt\n": 4362,
      "##, Heinz\n": 4363,
      "##ruce\n": 4364,
      "##ität\n": 4365,
      "Int": 4366,
      "Let": 4367,
      "Lun": 4368,
      "Lamb": 4369,
      "National": 4370,
      "Rey": 4371,
      "Rock": 4372,
      "##nitz\n": 4373,
      "## j": 4374,
      "##ie ": 4375,
      "##uigi\n": 4376,
      "##me\n": 4377,
      "##ä\n": 4378,
      "##äs": 4379,
      "##ery\n": 4380,
      "##arro": 4381,
      "##olm\n": 4382,
      "##a v": 4383,
      "##ador": 4384,
      "## (I": 4385,
      "##imon\n": 4386,
      "##, Sophie\n": 4387,
      "##ichi\n": 4388,
      "##umi\n": 4389,
      "Stock": 4390,
      "##uba\n": 4391,
      "## Ro": 4392,
      "##aft": 4393,
      "##erts": 4394,
      "## New": 4395,
      "##ryst": 4396,
      "##asha\n": 4397,
      "##, Martin": 4398,
      "##elix": 4399,
      "Palm": 4400,
      "##kowskij\n": 4401,
      "Khan": 4402,
      "##eusz\n": 4403,
      "## (=Prof. Dr": 4404,
      "##alph\n": 4405,
      "##, Dmitri\n": 4406,
      "##iago\n": 4407,
      "Chateau": 4408,
      "Aud": 4409,
      "Baum": 4410,
      "Dec": 4411,
      "Hub": 4412,
      "Ik": 4413,
      "Kis": 4414,
      "Mut": 4415,
      "Meh": 4416,
      "Oss": 4417,
      "Tra": 4418,
      "Wis": 4419,
      "##oa\n": 4420,
      "##jana\n": 4421,
      "##eum\n": 4422,
      "##rb": 4423,
      "##rass": 4424,
      "##mer\n": 4425,
      "##ök": 4426,
      "##öy\n": 4427,
      "##-les": 4428,
      "##en, M": 4429,
      "##atch": 4430,
      "##att\n": 4431,
      "##adz": 4432,
      "##ic, D": 4433,
      "##akt": 4434,
      "##agin\n": 4435,
      "##, Dani": 4436,
      "Stor": 4437,
      "##, Ian\n": 4438,
      "Karp": 4439,
      "##oul\n": 4440,
      "##er, Ed": 4441,
      "##e, David\n": 4442,
      "##hilippe\n": 4443,
      "##italien": 4444,
      "##, Heinrich\n": 4445,
      "## (= Prof. Dr. ...)\n": 4446,
      "Aqu": 4447,
      "Coh": 4448,
      "Cort": 4449,
      "Comm": 4450,
      "Dup": 4451,
      "Ech": 4452,
      "Fur": 4453,
      "Gy": 4454,
      "Hed": 4455,
      "Just": 4456,
      "Les ": 4457,
      "Ton": 4458,
      "Woj": 4459,
      "Zab": 4460,
      "##oor": 4461,
      "##i R": 4462,
      "##fons": 4463,
      "##bel": 4464,
      "##5\n": 4465,
      "##X\n": 4466,
      "##eren\n": 4467,
      "##arov": 4468,
      "##a Ch": 4469,
      "##iman": 4470,
      "##, Sand": 4471,
      "##rain\n": 4472,
      "##ota\n": 4473,
      "##ingham": 4474,
      "Alvar": 4475,
      "##, Kir": 4476,
      "##, Fred": 4477,
      "##, Wil": 4478,
      "## von L": 4479,
      "The R": 4480,
      "Americ": 4481,
      "##, Julius\n": 4482,
      "Harris": 4483,
      "##rzys": 4484,
      "##eresa\n": 4485,
      "##iotr\n": 4486,
      "##er, Christian\n": 4487,
      "##, Victor": 4488,
      "##aptiste\n": 4489,
      "Bj": 4490,
      "Dy": 4491,
      "Dud": 4492,
      "East": 4493,
      "Ent": 4494,
      "Gill": 4495,
      "Garc": 4496,
      "Kin": 4497,
      "Tit": 4498,
      "Wies": 4499,
      "##eev": 4500,
      "##rel": 4501,
      "##rus": 4502,
      "## el\n": 4503,
      "##lant": 4504,
      "##vet": 4505,
      "##hof\n": 4506,
      "##ätt": 4507,
      "##erp": 4508,
      "##alli": 4509,
      "##, Jewgen": 4510,
      "##ouc": 4511,
      "##e, Y": 4512,
      "##idis": 4513,
      "##ingu": 4514,
      "##ule\n": 4515,
      "##oda\n": 4516,
      "Steph": 4517,
      "## Be": 4518,
      "##oft": 4519,
      "##, Fritz\n": 4520,
      "##esse\n": 4521,
      "##, In": 4522,
      "## Ensemble\n": 4523,
      "##icolas\n": 4524,
      "##er, Paul\n": 4525,
      "Old": 4526,
      "Evans": 4527,
      "August": 4528,
      "Bord": 4529,
      "Balt": 4530,
      "Ig": 4531,
      "Mb": 4532,
      "Mog": 4533,
      "Pac": 4534,
      "Wid": 4535,
      "##ji\n": 4536,
      "##eik": 4537,
      "##i T": 4538,
      "##los\n": 4539,
      "##ünd": 4540,
      "##enm": 4541,
      "##ritt": 4542,
      "## (W": 4543,
      "##ird": 4544,
      "##o I": 4545,
      "Chin": 4546,
      "##, Ge": 4547,
      "##, Hu": 4548,
      "##ental\n": 4549,
      "## von K": 4550,
      "## National": 4551,
      "##, Otto\n": 4552,
      "The A": 4553,
      "Blum": 4554,
      "##ancy\n": 4555,
      "##, Francisco\n": 4556,
      "##alentin\n": 4557,
      "##, Elisabeth\n": 4558,
      "##italienisch)\n": 4559,
      "Aur": 4560,
      "Ask": 4561,
      "Bend": 4562,
      "Feld": 4563,
      "Kaw": 4564,
      "Kenn": 4565,
      "Pom": 4566,
      "Pers": 4567,
      "Sus": 4568,
      "Tav": 4569,
      "##aak": 4570,
      "##y D": 4571,
      "##arow": 4572,
      "##, As": 4573,
      "##, Ari": 4574,
      "##rew\n": 4575,
      "##ago\n": 4576,
      "##agdal": 4577,
      "##uma\n": 4578,
      "##, Lars\n": 4579,
      "##obby\n": 4580,
      "##, Char": 4581,
      "##iza\n": 4582,
      "##ia M": 4583,
      "##, Juri\n": 4584,
      "##oj\n": 4585,
      "##, Marcus\n": 4586,
      "Quint": 4587,
      "##, Joel\n": 4588,
      "##, Martina\n": 4589,
      "##, Jean-B": 4590,
      "Plat": 4591,
      "##er, Robert\n": 4592,
      "##ridge\n": 4593,
      "##, Ernst\n": 4594,
      "##, Jennifer\n": 4595,
      "Hop": 4596,
      "Put": 4597,
      "Song": 4598,
      "Tour": 4599,
      "##aia\n": 4600,
      "##kop": 4601,
      "##oberto\n": 4602,
      "##eed": 4603,
      "## z": 4604,
      "## 1": 4605,
      "##i D": 4606,
      "##co": 4607,
      "##gr": 4608,
      "##gart": 4609,
      "##fl": 4610,
      "##worth": 4611,
      "##er (=Prof. Dr. ...)\n": 4612,
      "##anja\n": 4613,
      "##anuel\n": 4614,
      "##enau\n": 4615,
      "##alin": 4616,
      "##olm": 4617,
      "##iter": 4618,
      "##owa\n": 4619,
      "##oward\n": 4620,
      "##adt": 4621,
      "##....)\n": 4622,
      "##ictor\n": 4623,
      "##omir\n": 4624,
      "##liff": 4625,
      "##, Rod": 4626,
      "##ello": 4627,
      "## Ac": 4628,
      "##eke\n": 4629,
      "##ions\n": 4630,
      "##ociet": 4631,
      "##, Roberto\n": 4632,
      "##lands\n": 4633,
      "##, Jean-L": 4634,
      "##esch\n": 4635,
      "##runn\n": 4636,
      "##jörn\n": 4637,
      "##erin)\n": 4638,
      "##rzyszt": 4639,
      "Bail": 4640,
      "Drag": 4641,
      "Mant": 4642,
      "Sass": 4643,
      "Syn": 4644,
      "Zar": 4645,
      "##dan\n": 4646,
      "##eich": 4647,
      "##erch": 4648,
      "##an, M": 4649,
      "##anovic": 4650,
      "##inf": 4651,
      "##onald\n": 4652,
      "##elen\n": 4653,
      "##aly": 4654,
      "##rison": 4655,
      "##, Jon\n": 4656,
      "##, Jimmy\n": 4657,
      "##aga\n": 4658,
      "##iguel": 4659,
      "##ays": 4660,
      "##egh": 4661,
      "##alle\n": 4662,
      "##ajd": 4663,
      "The G": 4664,
      "Adams": 4665,
      "##er, Hans\n": 4666,
      "Bened": 4667,
      "##olfgang": 4668,
      "Campbell": 4669,
      "##, Jonas\n": 4670,
      "##erzy\n": 4671,
      "##, Mohammed": 4672,
      "##brahim": 4673,
      "Bett": 4674,
      "Batt": 4675,
      "Cos": 4676,
      "Mall": 4677,
      "Prim": 4678,
      "Ried": 4679,
      "Sev": 4680,
      "##xel\n": 4681,
      "##ka": 4682,
      "##kovic": 4683,
      "##og\n": 4684,
      "##rum": 4685,
      "##ii\n": 4686,
      "##wang": 4687,
      "##er T": 4688,
      "##orr": 4689,
      "##atu": 4690,
      "##ries": 4691,
      "##etskij\n": 4692,
      "##, Ash": 4693,
      "##ow, W": 4694,
      "##aust": 4695,
      "##rec": 4696,
      "##ots": 4697,
      "##agen": 4698,
      "##igen": 4699,
      "##ington\n": 4700,
      "Chang": 4701,
      "##, Gerhard\n": 4702,
      "Al-A": 4703,
      "##, Fred\n": 4704,
      "##etto\n": 4705,
      "## Res": 4706,
      "Arc": 4707,
      "The W": 4708,
      "##ific": 4709,
      "Grenz": 4710,
      "##, Johannes": 4711,
      "##kowski, ": 4712,
      "##, Laurent\n": 4713,
      "Bull": 4714,
      "Cop": 4715,
      "Cald": 4716,
      "Dro": 4717,
      "Ein": 4718,
      "Fro": 4719,
      "Ric": 4720,
      "Ray": 4721,
      "Sec": 4722,
      "Sonn": 4723,
      "ab": 4724,
      "##uin": 4725,
      "##-h": 4726,
      "##7\n": 4727,
      "##?\n": 4728,
      "##anin\n": 4729,
      "##enin\n": 4730,
      "##ones": 4731,
      "##ason": 4732,
      "##, Jason\n": 4733,
      "##ison\n": 4734,
      "##ray\n": 4735,
      "##lia\n": 4736,
      "##act": 4737,
      "##, Marek\n": 4738,
      "##antsch": 4739,
      "Ansch": 4740,
      "## Georg": 4741,
      "##, Johan\n": 4742,
      "##enne\n": 4743,
      "##, Michele\n": 4744,
      "##e-d": 4745,
      "##e-B": 4746,
      "##aire": 4747,
      "La B": 4748,
      "La M": 4749,
      "Diaz": 4750,
      "##, Francis\n": 4751,
      "##e, Ed": 4752,
      "Allen": 4753,
      "##erdinand\n": 4754,
      "##estival\n": 4755,
      "Haz": 4756,
      "Lil": 4757,
      "Pier": 4758,
      "Rec": 4759,
      "Sing": 4760,
      "To": 4761,
      "##aan": 4762,
      "##aill": 4763,
      "##aid\n": 4764,
      "##kal": 4765,
      "##o, H": 4766,
      "## -": 4767,
      "##lob": 4768,
      "##ge": 4769,
      "##üg": 4770,
      "##6\n": 4771,
      "##enau": 4772,
      "##rij": 4773,
      "##rish": 4774,
      "##amo\n": 4775,
      "##a c": 4776,
      "##, Jiri\n": 4777,
      "##lif": 4778,
      "##, Corn": 4779,
      "##, Leo\n": 4780,
      "##ijn": 4781,
      "##anga\n": 4782,
      "Thor": 4783,
      "##ajew\n": 4784,
      "##uck\n": 4785,
      "##, Volk": 4786,
      "##tschenko\n": 4787,
      "##ymp": 4788,
      "##ullah": 4789,
      "Plac": 4790,
      "##aise\n": 4791,
      "##Francois\n": 4792,
      "##ladimir": 4793,
      "##ebastian\n": 4794,
      "##raft": 4795,
      "## Company\n": 4796,
      "##illaume\n": 4797,
      "##ecords\n": 4798,
      "Boh": 4799,
      "Boul": 4800,
      "Din": 4801,
      "Eck": 4802,
      "Kro": 4803,
      "Lep": 4804,
      "Lud": 4805,
      "Le C": 4806,
      "Mid": 4807,
      "Piet": 4808,
      "##now": 4809,
      "##ren\n": 4810,
      "##sow\n": 4811,
      "##hor": 4812,
      "##fal": 4813,
      "##er R": 4814,
      "##ines\n": 4815,
      "##orow\n": 4816,
      "##amon": 4817,
      "##iment": 4818,
      "##, Sal": 4819,
      "##i, Ch": 4820,
      "##, Dieter\n": 4821,
      "##achim": 4822,
      "##, Gary\n": 4823,
      "## Band\n": 4824,
      "##ierry\n": 4825,
      "##oki\n": 4826,
      "Marsh": 4827,
      "##, Valer": 4828,
      "##rys": 4829,
      "The P": 4830,
      "Barth": 4831,
      "##ndre": 4832,
      "## (St": 4833,
      "Gregor": 4834,
      "##er, Wolfgang\n": 4835,
      "Weiss": 4836,
      "##aphael\n": 4837,
      "##, Frederic\n": 4838,
      "Puert": 4839,
      "##, Gabriel\n": 4840,
      "Ale": 4841,
      "Deutsch": 4842,
      "Ew": 4843,
      "Je": 4844,
      "Log": 4845,
      "Maur": 4846,
      "Sj": 4847,
      "Sik": 4848,
      "Vis": 4849,
      "##oen": 4850,
      "##hen": 4851,
      "##ment\n": 4852,
      "##Jr.)\n": 4853,
      "##zi\n": 4854,
      "##arv": 4855,
      "##elen": 4856,
      "##e b": 4857,
      "##oman": 4858,
      "##usz": 4859,
      "##oust": 4860,
      "##edro": 4861,
      "##o s": 4862,
      "##illo\n": 4863,
      "##, Luis\n": 4864,
      "Stef": 4865,
      "##ect\n": 4866,
      "##, Tobias\n": 4867,
      "##iers\n": 4868,
      "##assow\n": 4869,
      "##etten\n": 4870,
      "## von P": 4871,
      "## I.\n": 4872,
      "The D": 4873,
      "##itze\n": 4874,
      "##ational\n": 4875,
      "##e Al": 4876,
      "##er, Bern": 4877,
      "##ress\n": 4878,
      "##, Emma\n": 4879,
      "##, Philipp\n": 4880,
      "##, Gerard\n": 4881,
      "##iversity\n": 4882,
      "##, Angela\n": 4883,
      "##, Jessica\n": 4884,
      "##, Philip\n": 4885,
      "##Quartett\n": 4886,
      "Ax": 4887,
      "Aber": 4888,
      "Cin": 4889,
      "Deg": 4890,
      "Gib": 4891,
      "Hak": 4892,
      "Jud": 4893,
      "Mans": 4894,
      "Mitt": 4895,
      "Py": 4896,
      "Ps": 4897,
      "Suk": 4898,
      "Sieg": 4899,
      "Web": 4900,
      "##ten": 4901,
      "##oire\n": 4902,
      "##din": 4903,
      "##rg": 4904,
      "## al\n": 4905,
      "##cl": 4906,
      "##überg": 4907,
      "##äk": 4908,
      "##äf": 4909,
      "##erie\n": 4910,
      "##er F": 4911,
      "##an (=Dr. ...)\n": 4912,
      "##arri": 4913,
      "##eland": 4914,
      "##elmann": 4915,
      "##amar": 4916,
      "##a b": 4917,
      "##, Jaros": 4918,
      "##acs": 4919,
      "##ova": 4920,
      "##ings\n": 4921,
      "Stan": 4922,
      "##utin\n": 4923,
      "##quet": 4924,
      "##, Alfred": 4925,
      "##eix": 4926,
      "##iba\n": 4927,
      "Brad": 4928,
      "## II.\n": 4929,
      "The H": 4930,
      "##ashi\n": 4931,
      "##, Christine\n": 4932,
      "##, Joan\n": 4933,
      "##abriel\n": 4934,
      "##matt\n": 4935,
      "##ohamed": 4936,
      "James": 4937,
      "Ble": 4938,
      "Bast": 4939,
      "Hinter": 4940,
      "Such": 4941,
      "Wu": 4942,
      "##ring\n": 4943,
      "##sel": 4944,
      "##ville": 4945,
      "##ham\n": 4946,
      "##anu": 4947,
      "##oration\n": 4948,
      "##ilde\n": 4949,
      "##etow\n": 4950,
      "##a von\n": 4951,
      "##itter": 4952,
      "##ics": 4953,
      "##roph": 4954,
      "##outh": 4955,
      "##, Rad": 4956,
      "Schum": 4957,
      "##, Diet": 4958,
      "##, Hermann\n": 4959,
      "##, Herbert\n": 4960,
      "##, Frank": 4961,
      "##iers": 4962,
      "##ourt\n": 4963,
      "## Ind": 4964,
      "##ynn": 4965,
      "##ensee\n": 4966,
      "##onny\n": 4967,
      "##yle\n": 4968,
      "##erland": 4969,
      "##-Al": 4970,
      "##oise\n": 4971,
      "##arold\n": 4972,
      "##eith\n": 4973,
      "Kreuz": 4974,
      "Schloss": 4975,
      "##, Elizabeth\n": 4976,
      "##, Ahmed\n": 4977,
      "##i, Francesco\n": 4978,
      "##, Jean-Pierre\n": 4979,
      "Bek": 4980,
      "Boz": 4981,
      "Berk": 4982,
      "Fran": 4983,
      "Iz": 4984,
      "Ist": 4985,
      "Ju": 4986,
      "Kay": 4987,
      "Korn": 4988,
      "Lut": 4989,
      "Nev": 4990,
      "Sierr": 4991,
      "Vers": 4992,
      "Wink": 4993,
      "##aig": 4994,
      "##eim": 4995,
      "##ees\n": 4996,
      "##rum\n": 4997,
      "## ch": 4998,
      "##lak": 4999,
      "##eni": 5000,
      "##alp\n": 5001,
      "##, Jane\n": 5002,
      "##urg\n": 5003,
      "## (E": 5004,
      "##abelle\n": 5005,
      "##ovsky": 5006,
      "##elly\n": 5007,
      "##, Dennis\n": 5008,
      "##, Lor": 5009,
      "## All": 5010,
      "Al-M": 5011,
      "##, Tar": 5012,
      "##, Nina\n": 5013,
      "##ristina\n": 5014,
      "## Friedrich\n": 5015,
      "Shah": 5016,
      "##, Jose M": 5017,
      "##, Julien\n": 5018,
      "McD": 5019,
      "##eaux": 5020,
      "##, Jacob\n": 5021,
      "al-M": 5022,
      "##, Abdel": 5023,
      "Breit": 5024,
      "##, Bernd\n": 5025,
      "##, Jeff\n": 5026,
      "##ebecca\n": 5027,
      "##übergang": 5028,
      "Bok": 5029,
      "Für": 5030,
      "Haus": 5031,
      "Kra": 5032,
      "Kud": 5033,
      "Muk": 5034,
      "##tal\n": 5035,
      "##c.\n": 5036,
      "##ues": 5037,
      "##v\n": 5038,
      "##öck": 5039,
      "##ere": 5040,
      "##erstraße\n": 5041,
      "##eln": 5042,
      "##elis": 5043,
      "##e Is": 5044,
      "##ativ": 5045,
      "##rit\n": 5046,
      "##rika\n": 5047,
      "##amor": 5048,
      "##urow\n": 5049,
      "## (bei": 5050,
      "##usic": 5051,
      "##usen\n": 5052,
      "##ouf": 5053,
      "##ako\n": 5054,
      "##uli\n": 5055,
      "##, Catherine\n": 5056,
      "Cher": 5057,
      "##oden\n": 5058,
      "##, Ludwig\n": 5059,
      "## Ahm": 5060,
      "##ev\n": 5061,
      "##ayne\n": 5062,
      "##, Pedro\n": 5063,
      "##, Friedrich": 5064,
      "##, Friedrich\n": 5065,
      "Thomp": 5066,
      "##, Nicholas\n": 5067,
      "##manuel": 5068,
      "##oc\n": 5069,
      "##e-C": 5070,
      "##e (S": 5071,
      "##oll\n": 5072,
      "##asch\n": 5073,
      "##armen\n": 5074,
      "##a St": 5075,
      "Ern": 5076,
      "Erd": 5077,
      "##tsow\n": 5078,
      "##, Stefano\n": 5079,
      "Coop": 5080,
      "##-Ost\n": 5081,
      "##, Dave\n": 5082,
      "Ey": 5083,
      "Gj": 5084,
      "Gott": 5085,
      "Gener": 5086,
      "Hur": 5087,
      "Mai": 5088,
      "Pit": 5089,
      "Vest": 5090,
      "##ten\n": 5091,
      "##o-": 5092,
      "##eal\n": 5093,
      "##sin": 5094,
      "##way\n": 5095,
      "##-la": 5096,
      "##ück": 5097,
      "##8\n": 5098,
      "##eren": 5099,
      "##enheim\n": 5100,
      "##aton": 5101,
      "##roz": 5102,
      "##akesp": 5103,
      "##ichin\n": 5104,
      "##illi\n": 5105,
      "## Ass": 5106,
      "##esto\n": 5107,
      "##mans": 5108,
      "Marg": 5109,
      "## von R": 5110,
      "##olly\n": 5111,
      "Barn": 5112,
      "##amp\n": 5113,
      "La R": 5114,
      "##a Mari": 5115,
      "##, Edward": 5116,
      "##a, Sh": 5117,
      "##iwka\n": 5118,
      "##abriel": 5119,
      "##czyk": 5120,
      "##aszlo\n": 5121,
      "Grenzübergang": 5122,
      "Buck": 5123,
      "Fa": 5124,
      "Hess": 5125,
      "Jag": 5126,
      "Kuk": 5127,
      "Led": 5128,
      "Lord": 5129,
      "L'A": 5130,
      "Nil": 5131,
      "Nap": 5132,
      "Ran": 5133,
      "Rus": 5134,
      "Rak": 5135,
      "Tet": 5136,
      "in": 5137,
      "##aan\n": 5138,
      "##e, Michael\n": 5139,
      "##iek": 5140,
      "##vel": 5141,
      "##mm": 5142,
      "##men\n": 5143,
      "##ütz": 5144,
      "##ates": 5145,
      "##ree\n": 5146,
      "## (spanisch)\n": 5147,
      "##usz\n": 5148,
      "##ikov": 5149,
      "##iden\n": 5150,
      "##ahan": 5151,
      "##, Clem": 5152,
      "Chav": 5153,
      "Chev": 5154,
      "##ills\n": 5155,
      "##, Luis": 5156,
      "##uta\n": 5157,
      "## Mon": 5158,
      "## Mor": 5159,
      "## City\n": 5160,
      "##, Giorg": 5161,
      "## Bl": 5162,
      "##ern)\n": 5163,
      "##, Konstantin\n": 5164,
      "##aza\n": 5165,
      "##oci": 5166,
      "## III": 5167,
      "## de G": 5168,
      "##, Jules\n": 5169,
      "##bury\n": 5170,
      "##, Marta\n": 5171,
      "##ovice\n": 5172,
      "##er, Ern": 5173,
      "##e, Peter\n": 5174,
      "##itchell": 5175,
      "##, Ulrich\n": 5176,
      "##, Claudia\n": 5177,
      "##ortugies": 5178,
      "American": 5179,
      "Bess": 5180,
      "Friedrich": 5181,
      "Hunt": 5182,
      "Sut": 5183,
      "Tap": 5184,
      "Vas": 5185,
      "##ox\n": 5186,
      "##y, M": 5187,
      "##ieck": 5188,
      "##car": 5189,
      "##pin": 5190,
      "##hart": 5191,
      "##haus\n": 5192,
      "##zy": 5193,
      "##-en": 5194,
      "##, Ö": 5195,
      "##en, B": 5196,
      "##orio\n": 5197,
      "##e in": 5198,
      "##e and": 5199,
      "##, Mor": 5200,
      "##aca\n": 5201,
      "##, Marko\n": 5202,
      "##ijk": 5203,
      "##uka\n": 5204,
      "##, Charlotte\n": 5205,
      "##ourg": 5206,
      "##ordon\n": 5207,
      "##yne\n": 5208,
      "##ochen\n": 5209,
      "##oje\n": 5210,
      "Diet": 5211,
      "Princ": 5212,
      "##, Emil\n": 5213,
      "##e, Hen": 5214,
      "##race\n": 5215,
      "##e Th": 5216,
      "Holm": 5217,
      "Michel": 5218,
      "##, Guy\n": 5219,
      "Frankfurt": 5220,
      "Thompson": 5221,
      "##akespear": 5222,
      "Bun": 5223,
      "Brit": 5224,
      "Cern": 5225,
      "Conn": 5226,
      "Det": 5227,
      "Dog": 5228,
      "Gun": 5229,
      "Hat": 5230,
      "Kosch": 5231,
      "Lec": 5232,
      "Lund": 5233,
      "Lys": 5234,
      "Ple": 5235,
      "Rand": 5236,
      "Rag": 5237,
      "Tir": 5238,
      "Ud": 5239,
      "Wit": 5240,
      "##türk": 5241,
      "##aat": 5242,
      "##aim\n": 5243,
      "##ner\n": 5244,
      "##nitz": 5245,
      "##dy\n": 5246,
      "##rend": 5247,
      "## 2": 5248,
      "##if\n": 5249,
      "##i K": 5250,
      "##ck\n": 5251,
      "##lod": 5252,
      "##uill": 5253,
      "##fried": 5254,
      "##wen\n": 5255,
      "##erow\n": 5256,
      "##eria\n": 5257,
      "##alis": 5258,
      "##alle": 5259,
      "##aman": 5260,
      "##urch": 5261,
      "##ander\n": 5262,
      "##ewski, ": 5263,
      "##igo\n": 5264,
      "##, Daniel": 5265,
      "##, Pawel\n": 5266,
      "##, Eugen": 5267,
      "##, He": 5268,
      "##ants\n": 5269,
      "## vom": 5270,
      "## Ph": 5271,
      "##e-L": 5272,
      "##, Christian": 5273,
      "##rigor": 5274,
      "##e d'A": 5275,
      "##lines\n": 5276,
      "##a, Irina\n": 5277,
      "Roman": 5278,
      "##, Christophe\n": 5279,
      "##, Susan\n": 5280,
      "##ußball": 5281,
      "##echnolog": 5282,
      "Littl": 5283,
      "##ärtyr": 5284,
      "Bug": 5285,
      "Gad": 5286,
      "Hun": 5287,
      "Hand": 5288,
      "Masch": 5289,
      "Oper": 5290,
      "Say": 5291,
      "Seb": 5292,
      "Sund": 5293,
      "Tch": 5294,
      "Wern": 5295,
      "ch": 5296,
      "##tienne\n": 5297,
      "##o)\n": 5298,
      "##eop": 5299,
      "##y P": 5300,
      "##uy\n": 5301,
      "##pf": 5302,
      "##U\n": 5303,
      "##ind\n": 5304,
      "##alo\n": 5305,
      "##alie\n": 5306,
      "##ato": 5307,
      "##ator\n": 5308,
      "##esen": 5309,
      "##islav\n": 5310,
      "##imier": 5311,
      "##o p": 5312,
      "##o m": 5313,
      "##aco\n": 5314,
      "##, Reg": 5315,
      "## Mont": 5316,
      "##eka\n": 5317,
      "##iph": 5318,
      "##ions": 5319,
      "Ars": 5320,
      "## von C": 5321,
      "Abel": 5322,
      "The F": 5323,
      "##, Alexei\n": 5324,
      "##tschew\n": 5325,
      "##, Stephanie\n": 5326,
      "##inho\n": 5327,
      "Kirk": 5328,
      "##, Artur\n": 5329,
      "##, Margaret\n": 5330,
      "##, Raymond\n": 5331,
      "##, Oleg\n": 5332,
      "Dick": 5333,
      "D'A": 5334,
      "Fol": 5335,
      "Fall": 5336,
      "Gav": 5337,
      "Helm": 5338,
      "Kak": 5339,
      "Kry": 5340,
      "Kasch": 5341,
      "Poll": 5342,
      "Sot": 5343,
      "Sew": 5344,
      "Süd": 5345,
      "Tob": 5346,
      "##ni\n": 5347,
      "##jewitsch\n": 5348,
      "##eel\n": 5349,
      "##lag": 5350,
      "##harmon": 5351,
      "##mid": 5352,
      "##-Q": 5353,
      "##üss": 5354,
      "##ät": 5355,
      "##arra": 5356,
      "##ilipp": 5357,
      "##ital\n": 5358,
      "##, Je": 5359,
      "##, Jens\n": 5360,
      "##, Jörg\n": 5361,
      "##adh": 5362,
      "##aden\n": 5363,
      "##, Sara\n": 5364,
      "##raig\n": 5365,
      "##akin\n": 5366,
      "##abal": 5367,
      "##, Ral": 5368,
      "Schel": 5369,
      "##, Leon\n": 5370,
      "Stev": 5371,
      "## Col": 5372,
      "Ark": 5373,
      "##shausen\n": 5374,
      "##, Michel": 5375,
      "## Street\n": 5376,
      "##ife\n": 5377,
      "##lorian\n": 5378,
      "##, Johanna\n": 5379,
      "##er, Richard\n": 5380,
      "Neum": 5381,
      "##-West\n": 5382,
      "## (= ... ": 5383,
      "##, Jeremy\n": 5384,
      "Schulz": 5385,
      "##, Lukas\n": 5386,
      "##ouglas\n": 5387,
      "##olodym": 5388,
      "Day": 5389,
      "Gaz": 5390,
      "Hug": 5391,
      "Le B": 5392,
      "Mic": 5393,
      "Mack": 5394,
      "Rap": 5395,
      "Tul": 5396,
      "Vern": 5397,
      "##a-B": 5398,
      "##eum": 5399,
      "##ar, M": 5400,
      "##inen": 5401,
      "##orl": 5402,
      "##ilin\n": 5403,
      "##, Ag": 5404,
      "##aum\n": 5405,
      "##edy": 5406,
      "##o O": 5407,
      "##abil": 5408,
      "##illo": 5409,
      "## As": 5410,
      "Stern": 5411,
      "##, Günter\n": 5412,
      "##ecch": 5413,
      "## Pet": 5414,
      "##astle\n": 5415,
      "##eine\n": 5416,
      "## De\n": 5417,
      "Marqu": 5418,
      "##e-P": 5419,
      "##ensis\n": 5420,
      "##eja\n": 5421,
      "##ia de ": 5422,
      "McL": 5423,
      "## Ali\n": 5424,
      "##er, Daniel\n": 5425,
      "##iao\n": 5426,
      "##frey\n": 5427,
      "## al-\n": 5428,
      "##omasz\n": 5429,
      "##awrenc": 5430,
      "##, Eduard\n": 5431,
      "Gomez": 5432,
      "Born": 5433,
      "Carm": 5434,
      "Fish": 5435,
      "Fox": 5436,
      "High": 5437,
      "Iss": 5438,
      "Jord": 5439,
      "Kit": 5440,
      "Ou": 5441,
      "Off": 5442,
      "Pand": 5443,
      "Ten": 5444,
      "Temp": 5445,
      "Trans": 5446,
      "Ward": 5447,
      "##nj": 5448,
      "##don": 5449,
      "##dottir": 5450,
      "##jon": 5451,
      "## un": 5452,
      "##hoff": 5453,
      "##bor": 5454,
      "##'E": 5455,
      "##inov": 5456,
      "##oli": 5457,
      "##etz\n": 5458,
      "##a t": 5459,
      "##, Aaron\n": 5460,
      "##asim": 5461,
      "##ici\n": 5462,
      "##reg\n": 5463,
      "##andy\n": 5464,
      "##eme\n": 5465,
      "Schar": 5466,
      "##, Anja\n": 5467,
      "##ache\n": 5468,
      "Step": 5469,
      "## Mari": 5470,
      "## Colle": 5471,
      "##, Kim\n": 5472,
      "##son, B": 5473,
      "##athan": 5474,
      "## Van\n": 5475,
      "##yslaw\n": 5476,
      "##er, Hans": 5477,
      "##enhausen\n": 5478,
      "Brod": 5479,
      "##oint\n": 5480,
      "##enthal": 5481,
      "## Michael\n": 5482,
      "##rzysztof\n": 5483,
      "##ortugiesisch)\n": 5484,
      "##olodymyr\n": 5485,
      "Basch": 5486,
      "Brig": 5487,
      "Cle": 5488,
      "Hild": 5489,
      "Kav": 5490,
      "Loh": 5491,
      "Lah": 5492,
      "Lamp": 5493,
      "Nicol": 5494,
      "Out": 5495,
      "Pra": 5496,
      "Tran": 5497,
      "Victor": 5498,
      "Wad": 5499,
      "Wak": 5500,
      "##sin\n": 5501,
      "##ges": 5502,
      "##bb": 5503,
      "##V.\n": 5504,
      "##aru\n": 5505,
      "##orin\n": 5506,
      "##itas\n": 5507,
      "##ower\n": 5508,
      "##owitsch": 5509,
      "##, Myk": 5510,
      "##, Jorge\n": 5511,
      "##rep": 5512,
      "## (n": 5513,
      "##ikh": 5514,
      "##iger": 5515,
      "##, Robin\n": 5516,
      "##, Marg": 5517,
      "Alf": 5518,
      "##erne\n": 5519,
      "##estr": 5520,
      "## Di": 5521,
      "##ehl": 5522,
      "## Intern": 5523,
      "##e-K": 5524,
      "##ia A": 5525,
      "Inn": 5526,
      "##, Jamie\n": 5527,
      "##-Jos": 5528,
      "##ommy\n": 5529,
      "Torres": 5530,
      "Robinson": 5531,
      "##ederico\n": 5532,
      "##, Susanne\n": 5533,
      "##a, Elena\n": 5534,
      "##agdalena\n": 5535,
      "##türkisch)\n": 5536,
      "Aug": 5537,
      "Cand": 5538,
      "Caf": 5539,
      "Dh": 5540,
      "Das": 5541,
      "Gw": 5542,
      "Grav": 5543,
      "Hod": 5544,
      "Henn": 5545,
      "Haut": 5546,
      "Kant": 5547,
      "Kais": 5548,
      "Len": 5549,
      "Mok": 5550,
      "Nic": 5551,
      "Ned": 5552,
      "Penn": 5553,
      "Veg": 5554,
      "Viv": 5555,
      "an": 5556,
      "##a-S": 5557,
      "##kk": 5558,
      "##oom": 5559,
      "##o, N": 5560,
      "##janow\n": 5561,
      "##rh": 5562,
      "##i H": 5563,
      "##zel": 5564,
      "##enow\n": 5565,
      "##inn\n": 5566,
      "##onen": 5567,
      "##als\n": 5568,
      "##aut\n": 5569,
      "##osc": 5570,
      "##over": 5571,
      "## Sc": 5572,
      "##igur": 5573,
      "##, Mary": 5574,
      "##elli\n": 5575,
      "##illon\n": 5576,
      "##ute\n": 5577,
      "##, Eugene\n": 5578,
      "##, Helmut\n": 5579,
      "##ogel\n": 5580,
      "##ugen\n": 5581,
      "##ristian\n": 5582,
      "##a (englisch)\n": 5583,
      "##rice\n": 5584,
      "## Em": 5585,
      "The T": 5586,
      "Baron": 5587,
      "##erlag\n": 5588,
      "##ound\n": 5589,
      "##rigitte\n": 5590,
      "Kraus": 5591,
      "Aks": 5592,
      "Music": 5593,
      "##, Milan\n": 5594,
      "##-sur-M": 5595,
      "##enthal\n": 5596,
      "## Club\n": 5597,
      "##enoit\n": 5598,
      "##ändisch)\n": 5599,
      "Kowal": 5600,
      "Fan": 5601,
      "Gand": 5602,
      "Kand": 5603,
      "Kem": 5604,
      "Lal": 5605,
      "Max": 5606,
      "Non": 5607,
      "Nun": 5608,
      "Nab": 5609,
      "Rj": 5610,
      "Ring": 5611,
      "Rum": 5612,
      "Sug": 5613,
      "Sib": 5614,
      "Serr": 5615,
      "Tem": 5616,
      "Winter": 5617,
      "##jaew\n": 5618,
      "##rug": 5619,
      "##lrich\n": 5620,
      "##sv": 5621,
      "##park\n": 5622,
      "##mal": 5623,
      "##med": 5624,
      "##zen\n": 5625,
      "##öb": 5626,
      "##anos\n": 5627,
      "##e et": 5628,
      "##aty": 5629,
      "##ili\n": 5630,
      "##es P": 5631,
      "##adeh": 5632,
      "##ouard\n": 5633,
      "##e, U": 5634,
      "##skar\n": 5635,
      "##, Ryan\n": 5636,
      "##, Ana\n": 5637,
      "Chand": 5638,
      "Stew": 5639,
      "##, Erich\n": 5640,
      "##, Ham": 5641,
      "##, Bett": 5642,
      "##, Tam": 5643,
      "##ude\n": 5644,
      "##off\n": 5645,
      "##ibor\n": 5646,
      "##, Im": 5647,
      "##ia von": 5648,
      "##phy": 5649,
      "Quart": 5650,
      "Carp": 5651,
      "##ünther\n": 5652,
      "##hilipp\n": 5653,
      "Santos": 5654,
      "##ook\n": 5655,
      "## Institut": 5656,
      "##leben\n": 5657,
      "## Quartett\n": 5658,
      "Ljub": 5659,
      "##, Jerome\n": 5660,
      "##, Caroline\n": 5661,
      "##, Dominique\n": 5662,
      "##, Hugo\n": 5663,
      "##recht\n": 5664,
      "Bis": 5665,
      "Baz": 5666,
      "Beth": 5667,
      "Dod": 5668,
      "Dep": 5669,
      "Fav": 5670,
      "Gay": 5671,
      "Huss": 5672,
      "Jal": 5673,
      "Kup": 5674,
      "Kamp": 5675,
      "Koss": 5676,
      "Licht": 5677,
      "Net": 5678,
      "Row": 5679,
      "Up": 5680,
      "Wend": 5681,
      "Wien": 5682,
      "##kl": 5683,
      "##ret\n": 5684,
      "##yörg": 5685,
      "##si\n": 5686,
      "##vid": 5687,
      "##platz\n": 5688,
      "##gren": 5689,
      "##AR": 5690,
      "##wal": 5691,
      "##zi": 5692,
      "##onin\n": 5693,
      "##onom": 5694,
      "##e Z": 5695,
      "##esar": 5696,
      "##, Ak": 5697,
      "##ury": 5698,
      "##adt\n": 5699,
      "##, Sieg": 5700,
      "##agan": 5701,
      "##, Rud": 5702,
      "##, Rainer\n": 5703,
      "Schir": 5704,
      "##, Linda\n": 5705,
      "##, Pierr": 5706,
      "##egor": 5707,
      "##, Kate\n": 5708,
      "## Ham": 5709,
      "##onte\n": 5710,
      "##mand\n": 5711,
      "##erton": 5712,
      "##ehn": 5713,
      "## de V": 5714,
      "##, Oscar\n": 5715,
      "##, Andreas": 5716,
      "##enc\n": 5717,
      "##ermo\n": 5718,
      "##e de B": 5719,
      "##ied)\n": 5720,
      "##, Francesco\n": 5721,
      "Univers": 5722,
      "Glen": 5723,
      "##ouise\n": 5724,
      "Christian": 5725,
      "##, Arthur": 5726,
      "##er See\n": 5727,
      "## John\n": 5728,
      "##luss)\n": 5729,
      "Sokol": 5730,
      "##sther\n": 5731,
      "Bill": 5732,
      "Falk": 5733,
      "Gas": 5734,
      "Geb": 5735,
      "Ludwig": 5736,
      "Mitchell": 5737,
      "Nah": 5738,
      "Pall": 5739,
      "Vor": 5740,
      "Vic": 5741,
      "Zel": 5742,
      "Zap": 5743,
      "##aal\n": 5744,
      "##ril": 5745,
      "##rus\n": 5746,
      "##vill": 5747,
      "##park": 5748,
      "##hen\n": 5749,
      "##hua\n": 5750,
      "##wet": 5751,
      "##ma": 5752,
      "##00": 5753,
      "##9\n": 5754,
      "##eres\n": 5755,
      "##erre\n": 5756,
      "##chi\n": 5757,
      "##ors\n": 5758,
      "##e von\n": 5759,
      "##ild\n": 5760,
      "##olz\n": 5761,
      "##, Jerzy\n": 5762,
      "##imenez": 5763,
      "##edt\n": 5764,
      "##ides": 5765,
      "##annes\n": 5766,
      "##igan": 5767,
      "##, Roland\n": 5768,
      "##oh\n": 5769,
      "##, Don\n": 5770,
      "## Cap": 5771,
      "##ublic": 5772,
      "## Gh": 5773,
      "##, Alberto\n": 5774,
      "## Don": 5775,
      "##rica\n": 5776,
      "##e-A": 5777,
      "Grün": 5778,
      "La F": 5779,
      "##, Jean-": 5780,
      "##isha\n": 5781,
      "##io d": 5782,
      "Orchestr": 5783,
      "##uhn": 5784,
      "##erhard": 5785,
      "##e, Robert\n": 5786,
      "## You": 5787,
      "## York": 5788,
      "##e, Paul\n": 5789,
      "##arsson": 5790,
      "Lieb": 5791,
      "## Shakespear": 5792,
      "## Art": 5793,
      "##hausen": 5794,
      "Rhein": 5795,
      "Jakob": 5796,
      "##, Jakob\n": 5797,
      "##ntonio\n": 5798,
      "Anschluss": 5799,
      "Alex": 5800,
      "Boch": 5801,
      "Busch": 5802,
      "Dim": 5803,
      "Fel": 5804,
      "Ful": 5805,
      "Gent": 5806,
      "Hä": 5807,
      "Hus": 5808,
      "Hud": 5809,
      "Hyp": 5810,
      "Koh": 5811,
      "Kond": 5812,
      "Mem": 5813,
      "Mell": 5814,
      "Main": 5815,
      "Mort": 5816,
      "Ox": 5817,
      "Samb": 5818,
      "Ti": 5819,
      "Wo": 5820,
      "##oit": 5821,
      "##r. ": 5822,
      "## raj": 5823,
      "##ial\n": 5824,
      "##uart\n": 5825,
      "##sberg": 5826,
      "##far": 5827,
      "##fjord\n": 5828,
      "##wick": 5829,
      "##may": 5830,
      "##'O": 5831,
      "##anes": 5832,
      "##chin": 5833,
      "##rif": 5834,
      "##schew\n": 5835,
      "##iten\n": 5836,
      "##ow, Alexander\n": 5837,
      "##urin\n": 5838,
      "##urop": 5839,
      "##adeusz\n": 5840,
      "##icus\n": 5841,
      "##, Sandra\n": 5842,
      "##usan\n": 5843,
      "##. von": 5844,
      "##lid": 5845,
      "##ikk": 5846,
      "##, Rom": 5847,
      "##, Der": 5848,
      "##acha\n": 5849,
      "##evo\n": 5850,
      "## Cons": 5851,
      "##apa\n": 5852,
      "##entin\n": 5853,
      "##obil": 5854,
      "##este\n": 5855,
      "##ally\n": 5856,
      "## Pal": 5857,
      "##ekk": 5858,
      "##ubb": 5859,
      "##essel": 5860,
      "##, Iwan\n": 5861,
      "##, Anders\n": 5862,
      "##a (F": 5863,
      "Shin": 5864,
      "##orte\n": 5865,
      "## William\n": 5866,
      "##, Josh\n": 5867,
      "##aschew\n": 5868,
      "## of L": 5869,
      "##, Roy\n": 5870,
      "Krasn": 5871,
      "##, Abu": 5872,
      "##er, Hen": 5873,
      "Inter": 5874,
      "##eiler\n": 5875,
      "Great": 5876,
      "##per)\n": 5877,
      "##, Uwe\n": 5878,
      "##, Amy\n": 5879,
      "##unnel\n": 5880,
      "##aime\n": 5881,
      "##irchen": 5882,
      "##, Bernhard\n": 5883,
      "##lisabeth\n": 5884,
      "Müller": 5885,
      "##ouglas": 5886,
      "##rothers\n": 5887,
      "##, Judith\n": 5888,
      "##, Rachel\n": 5889,
      "Bä": 5890,
      "Bott": 5891,
      "Cou": 5892,
      "Div": 5893,
      "Gel": 5894,
      "Heg": 5895,
      "Ja": 5896,
      "Kart": 5897,
      "Kang": 5898,
      "Lom": 5899,
      "Lyn": 5900,
      "Louis": 5901,
      "Mech": 5902,
      "Mons": 5903,
      "Oz": 5904,
      "Rain": 5905,
      "Rost": 5906,
      "Sy": 5907,
      "Sas": 5908,
      "Serg": 5909,
      "Tau": 5910,
      "##td": 5911,
      "##o, Y": 5912,
      "##nes\n": 5913,
      "##ved": 5914,
      "##hi\n": 5915,
      "##geb": 5916,
      "##field\n": 5917,
      "##mont": 5918,
      "##äus\n": 5919,
      "##aren\n": 5920,
      "##enev": 5921,
      "##chenko": 5922,
      "##al)\n": 5923,
      "##ales\n": 5924,
      "##alis\n": 5925,
      "##a Z": 5926,
      "##, Jack": 5927,
      "##urb": 5928,
      "##annis\n": 5929,
      "Schle": 5930,
      "##, Pablo\n": 5931,
      "##ants": 5932,
      "## Har": 5933,
      "##, Al\n": 5934,
      "##, Albert": 5935,
      "##ione\n": 5936,
      "## von H": 5937,
      "##rick\n": 5938,
      "##atteo\n": 5939,
      "##aschin\n": 5940,
      "##eux\n": 5941,
      "##, Arm": 5942,
      "Add": 5943,
      "##, Marcin\n": 5944,
      "##oun\n": 5945,
      "##e de S": 5946,
      "Paris": 5947,
      "##, Francisc": 5948,
      "##a, Luc": 5949,
      "##erve\n": 5950,
      "Edward": 5951,
      "##aspar\n": 5952,
      "Hamburg": 5953,
      "##, Karen\n": 5954,
      "Engel": 5955,
      "Arnold": 5956,
      "##er Hütte\n": 5957,
      "##, Claire\n": 5958,
      "## Martin": 5959,
      "Ack": 5960,
      "Coc": 5961,
      "Cons": 5962,
      "Fat": 5963,
      "Ford": 5964,
      "Ish": 5965,
      "Ley": 5966,
      "Lazar": 5967,
      "Mond": 5968,
      "Munt": 5969,
      "Pach": 5970,
      "Patt": 5971,
      "##jub": 5972,
      "##ee": 5973,
      "##rm": 5974,
      "##y ": 5975,
      "##vor": 5976,
      "##pen\n": 5977,
      "##wed": 5978,
      "##öhl": 5979,
      "##iner": 5980,
      "##ely\n": 5981,
      "##allee\n": 5982,
      "##orat": 5983,
      "##e &": 5984,
      "##scha\n": 5985,
      "##esus": 5986,
      "##itas": 5987,
      "##, Justin\n": 5988,
      "##urel": 5989,
      "##isl": 5990,
      "##ream": 5991,
      "##unin\n": 5992,
      "##, Silv": 5993,
      "##irl": 5994,
      "##ikow": 5995,
      "##edo\n": 5996,
      "##iger\n": 5997,
      "##tha\n": 5998,
      "##evin": 5999,
      "##, Bert": 6000,
      "##uda\n": 6001,
      "##alla\n": 6002,
      "##oke\n": 6003,
      "##, Michelle\n": 6004,
      "##ordan\n": 6005,
      "##-Sh": 6006,
      "##, Ott": 6007,
      "##acker\n": 6008,
      "##onnie\n": 6009,
      "Carn": 6010,
      "Burk": 6011,
      "Radio ": 6012,
      "##, Petr\n": 6013,
      "##, Simone\n": 6014,
      "##o Al": 6015,
      "## (Film)\n": 6016,
      "Point": 6017,
      "##yschew\n": 6018,
      "##, Norbert\n": 6019,
      "Boss": 6020,
      "DJ": 6021,
      "Did": 6022,
      "Duk": 6023,
      "Dorn": 6024,
      "Ef": 6025,
      "Grab": 6026,
      "Hernandez": 6027,
      "Jas": 6028,
      "Lach": 6029,
      "Philipp": 6030,
      "Rach": 6031,
      "Sac": 6032,
      "Salt": 6033,
      "Verd": 6034,
      "Zell": 6035,
      "##kel": 6036,
      "##rine\n": 6037,
      "##i N": 6038,
      "##i V": 6039,
      "##i, Abd": 6040,
      "##uen": 6041,
      "##vis": 6042,
      "##port\n": 6043,
      "##mus": 6044,
      "##zyn": 6045,
      "##är\n": 6046,
      "##erre": 6047,
      "##ering": 6048,
      "##chuk": 6049,
      "##onj": 6050,
      "##oria\n": 6051,
      "##atrick": 6052,
      "##rip": 6053,
      "##schan": 6054,
      "##es M": 6055,
      "##asan\n": 6056,
      "##, Mih": 6057,
      "##, Mahm": 6058,
      "##rock": 6059,
      "## (O": 6060,
      "##imon": 6061,
      "## Se": 6062,
      "##, Rolf\n": 6063,
      "##, Ralph\n": 6064,
      "##, Marion\n": 6065,
      "##, Les": 6066,
      "##eville\n": 6067,
      "Ston": 6068,
      "##, Eg": 6069,
      "##ebor": 6070,
      "##ubl": 6071,
      "Anth": 6072,
      "##, Alice\n": 6073,
      "## Festival\n": 6074,
      "##uct": 6075,
      "##ust\n": 6076,
      "## de l": 6077,
      "## Wh": 6078,
      "##e (F": 6079,
      "##ürn": 6080,
      "##opher\n": 6081,
      "##, Adolf\n": 6082,
      "##, Jean-C": 6083,
      "Burn": 6084,
      "Peters": 6085,
      "Mats": 6086,
      "##, Elena\n": 6087,
      "Prot": 6088,
      "##e, Thomas\n": 6089,
      "Cook": 6090,
      "##, Marianne\n": 6091,
      "Bernard": 6092,
      "##holz\n": 6093,
      "##-Ins": 6094,
      "##iorgio\n": 6095,
      "##lejandro\n": 6096,
      "##, Katharina\n": 6097,
      "Roberts": 6098,
      "##aussee\n": 6099,
      "Hoffmann": 6100,
      "## Corporation\n": 6101,
      "##roject\n": 6102,
      "Bai": 6103,
      "Cann": 6104,
      "Dag": 6105,
      "Dong": 6106,
      "Eth": 6107,
      "Haj": 6108,
      "Laz": 6109,
      "Miz": 6110,
      "Muss": 6111,
      "Mesch": 6112,
      "Ret": 6113,
      "Rath": 6114,
      "Tod": 6115,
      "Trem": 6116,
      "Vent": 6117,
      "Wa": 6118,
      "##din\n": 6119,
      "##jar": 6120,
      "##ead": 6121,
      "##ead\n": 6122,
      "##sberg\n": 6123,
      "##vi": 6124,
      "##vent": 6125,
      "##ER": 6126,
      "##zb": 6127,
      "##ött": 6128,
      "##erj": 6129,
      "##er ": 6130,
      "##erle": 6131,
      "##anb": 6132,
      "##anag": 6133,
      "##en, T": 6134,
      "##enfeld": 6135,
      "##rike\n": 6136,
      "##olor": 6137,
      "##oland": 6138,
      "##a Y": 6139,
      "##is ": 6140,
      "##rok": 6141,
      "##er, Y": 6142,
      "##o Y": 6143,
      "##, Ann\n": 6144,
      "##, Colin\n": 6145,
      "##, Dirk\n": 6146,
      "##, Be": 6147,
      "##, Billy\n": 6148,
      "##, Bobby\n": 6149,
      "##ersisch)\n": 6150,
      "## Gre": 6151,
      "## David\n": 6152,
      "##ia T": 6153,
      "##bury": 6154,
      "##rigo\n": 6155,
      "##agnus\n": 6156,
      "##eaux\n": 6157,
      "##er, Georg": 6158,
      "Matth": 6159,
      "##runn": 6160,
      "##atrice\n": 6161,
      "##, Serge\n": 6162,
      "Urban": 6163,
      "## (Band)\n": 6164,
      "##ystem": 6165,
      "Zimmer": 6166,
      "## Shakespeare)\n": 6167,
      "Bez": 6168,
      "Cim": 6169,
      "Comb": 6170,
      "Dab": 6171,
      "Dew": 6172,
      "Hes": 6173,
      "Hou": 6174,
      "Krist": 6175,
      "Koc": 6176,
      "Koll": 6177,
      "Lef": 6178,
      "Raz": 6179,
      "Sö": 6180,
      "Tah": 6181,
      "Ust": 6182,
      "Ve": 6183,
      "Wed": 6184,
      "Weid": 6185,
      "##ky\n": 6186,
      "##der\n": 6187,
      "##jatsch": 6188,
      "##rer": 6189,
      "##rell": 6190,
      "##rup": 6191,
      "##rinc": 6192,
      "##AS": 6193,
      "##mas": 6194,
      "##born": 6195,
      "##zyk": 6196,
      "##an, S": 6197,
      "##ares\n": 6198,
      "##alz": 6199,
      "##ston\n": 6200,
      "##atri": 6201,
      "##olo": 6202,
      "##esh\n": 6203,
      "##eslaw\n": 6204,
      "##iti\n": 6205,
      "##isi\n": 6206,
      "## (C": 6207,
      "## (USA)\n": 6208,
      "##imow\n": 6209,
      "##, Sig": 6210,
      "##rack": 6211,
      "##o W": 6212,
      "##oven": 6213,
      "##allah": 6214,
      "## Part": 6215,
      "##iert": 6216,
      "##ubli": 6217,
      "##ukas\n": 6218,
      "## von T": 6219,
      "##echisch)\n": 6220,
      "##aschwil": 6221,
      "##auro\n": 6222,
      "##arren\n": 6223,
      "##erlin\n": 6224,
      "##amba\n": 6225,
      "##olfo\n": 6226,
      "##e del": 6227,
      "##e de M": 6228,
      "##i, Paolo\n": 6229,
      "##, Lucas\n": 6230,
      "## in th": 6231,
      "##, Jacques": 6232,
      "## (=Dr...)\n": 6233,
      "Herzog": 6234,
      "##, Jean-Baptiste\n": 6235,
      "Bang": 6236,
      "Blanc": 6237,
      "Cour": 6238,
      "Dul": 6239,
      "Key": 6240,
      "Lod": 6241,
      "Nes": 6242,
      "Pak": 6243,
      "Ung": 6244,
      "##ter\n": 6245,
      "##ae": 6246,
      "##aela\n": 6247,
      "##nin\n": 6248,
      "##dar": 6249,
      "##jot": 6250,
      "##run\n": 6251,
      "##y, G": 6252,
      "##irit": 6253,
      "##lop": 6254,
      "##.A": 6255,
      "##met": 6256,
      "##Variante)\n": 6257,
      "##er Al": 6258,
      "##anal\n": 6259,
      "##arim\n": 6260,
      "##ina": 6261,
      "##inch": 6262,
      "##insky": 6263,
      "##oris": 6264,
      "##e Or": 6265,
      "##oly": 6266,
      "##esa\n": 6267,
      "##, Jerry\n": 6268,
      "##urm": 6269,
      "##icia\n": 6270,
      "##omas\n": 6271,
      "##use\n": 6272,
      "##rag\n": 6273,
      "##akk": 6274,
      "##agne\n": 6275,
      "##idz": 6276,
      "##eva\n": 6277,
      "## Mount": 6278,
      "Alk": 6279,
      "##, Bened": 6280,
      "## Per": 6281,
      "## Peter\n": 6282,
      "##ianc": 6283,
      "##, Nat": 6284,
      "##, Natal": 6285,
      "## Lov": 6286,
      "##atti\n": 6287,
      "##ansen": 6288,
      "##esca\n": 6289,
      "##nikow": 6290,
      "##a, La\n": 6291,
      "##, Steffen\n": 6292,
      "##kowski": 6293,
      "Khal": 6294,
      "##a, David\n": 6295,
      "Aven": 6296,
      "##irez": 6297,
      "##, Thierry\n": 6298,
      "## Music": 6299,
      "## (Heilig": 6300,
      "##, Sven\n": 6301,
      "##, Maxim\n": 6302,
      "##, Jozef\n": 6303,
      "##, Agnes\n": 6304,
      "##td.\n": 6305,
      "Boc": 6306,
      "Brem": 6307,
      "Cott": 6308,
      "Fad": 6309,
      "Gau": 6310,
      "Gast": 6311,
      "Ins": 6312,
      "Kod": 6313,
      "Katz": 6314,
      "Lup": 6315,
      "Le M": 6316,
      "Mez": 6317,
      "Moss": 6318,
      "Nan": 6319,
      "Pog": 6320,
      "Pok": 6321,
      "Squ": 6322,
      "Sek": 6323,
      "Trav": 6324,
      "Ves": 6325,
      "Vir": 6326,
      "Vald": 6327,
      "Vinc": 6328,
      "Wir": 6329,
      "Wilhelm": 6330,
      "Zen": 6331,
      "##kn": 6332,
      "##oet": 6333,
      "##nar": 6334,
      "##nan\n": 6335,
      "##nick": 6336,
      "##eul": 6337,
      "##ient": 6338,
      "##lac": 6339,
      "##lach": 6340,
      "##lam\n": 6341,
      "##lund": 6342,
      "##uf\n": 6343,
      "##mark": 6344,
      "##ß\n": 6345,
      "##end\n": 6346,
      "##alina\n": 6347,
      "##atjana\n": 6348,
      "##olut": 6349,
      "##aun\n": 6350,
      "##rez": 6351,
      "##omon": 6352,
      "##, Sean\n": 6353,
      "##ligh": 6354,
      "##otel\n": 6355,
      "Schrö": 6356,
      "##ody\n": 6357,
      "##, Danny\n": 6358,
      "##, Pascal\n": 6359,
      "##arda\n": 6360,
      "##anta\n": 6361,
      "##, Bruce\n": 6362,
      "##esti\n": 6363,
      "## Records\n": 6364,
      "Brenn": 6365,
      "##shire\n": 6366,
      "##oca\n": 6367,
      "##, Josef": 6368,
      "##attista\n": 6369,
      "##ia C": 6370,
      "##icky\n": 6371,
      "La G": 6372,
      "La P": 6373,
      "##oung\n": 6374,
      "##ski, D": 6375,
      "##e de L": 6376,
      "##liver\n": 6377,
      "##innen": 6378,
      "Palazz": 6379,
      "##iriam\n": 6380,
      "##arolina\n": 6381,
      "##oshi\n": 6382,
      "Ruiz": 6383,
      "##asper\n": 6384,
      "##itsyn\n": 6385,
      "##, Guillaume\n": 6386,
      "##awrence\n": 6387,
      "##, Emily\n": 6388,
      "##, Donald\n": 6389,
      "##, Phil\n": 6390,
      "Nelson": 6391,
      "##, Charlie\n": 6392,
      "Aub": 6393,
      "Björ": 6394,
      "Camb": 6395,
      "Dahl": 6396,
      "Gem": 6397,
      "Kaj": 6398,
      "Mih": 6399,
      "Pik": 6400,
      "Ref": 6401,
      "Sall": 6402,
      "Sey": 6403,
      "Tz": 6404,
      "Zal": 6405,
      "Zach": 6406,
      "##dj": 6407,
      "##eill": 6408,
      "##y C": 6409,
      "##iq": 6410,
      "##i A": 6411,
      "##sg": 6412,
      "##ven\n": 6413,
      "##mail": 6414,
      "##onja\n": 6415,
      "##, Mustaf": 6416,
      "##islaw\n": 6417,
      "##ican": 6418,
      "##oso\n": 6419,
      "##lib": 6420,
      "##abi\n": 6421,
      "##abor\n": 6422,
      "##aclav\n": 6423,
      "##, Ron\n": 6424,
      "##, Ray\n": 6425,
      "Chi": 6426,
      "##, Lee\n": 6427,
      "##, Ed\n": 6428,
      "##ijew": 6429,
      "##ector\n": 6430,
      "##udm": 6431,
      "##, Kenneth\n": 6432,
      "##estern": 6433,
      "##, Nathan\n": 6434,
      "##oka\n": 6435,
      "##, Stan": 6436,
      "## de R": 6437,
      "##arif": 6438,
      "##ia P": 6439,
      "La S": 6440,
      "##ysz": 6441,
      "##ski, K": 6442,
      "Klim": 6443,
      "##i, Giuseppe\n": 6444,
      "Clar": 6445,
      "##, Amanda\n": 6446,
      "##a de la ": 6447,
      "##iw\n": 6448,
      "##anza\n": 6449,
      "##, Henri": 6450,
      "Mühl": 6451,
      "Levin": 6452,
      "##rsula\n": 6453,
      "Theodor": 6454,
      "##, Arnold\n": 6455,
      "##, Helen\n": 6456,
      "Lorenz": 6457,
      "Europ": 6458,
      "##acional": 6459,
      "##, Gustav\n": 6460,
      "##werk\n": 6461,
      "##, Patricia\n": 6462,
      "Alvarez": 6463,
      "Bent": 6464,
      "Boll": 6465,
      "Biel": 6466,
      "Byr": 6467,
      "Cod": 6468,
      "Fell": 6469,
      "Hid": 6470,
      "Hut": 6471,
      "Kj": 6472,
      "Kemp": 6473,
      "Lug": 6474,
      "Luz": 6475,
      "Le P": 6476,
      "Nin": 6477,
      "Neb": 6478,
      "Natur": 6479,
      "Pau": 6480,
      "Rez": 6481,
      "Reh": 6482,
      "Rott": 6483,
      "Wag": 6484,
      "##re ": 6485,
      "##ront": 6486,
      "##yu\n": 6487,
      "##ws": 6488,
      "##mut\n": 6489,
      "##be\n": 6490,
      "##bign": 6491,
      "##üm": 6492,
      "##äll": 6493,
      "##anh": 6494,
      "##an L": 6495,
      "##elius": 6496,
      "##orld": 6497,
      "##orweg": 6498,
      "##rier": 6499,
      "##amot": 6500,
      "##schn": 6501,
      "##, Mal": 6502,
      "##adin": 6503,
      "##reu": 6504,
      "##os Sant": 6505,
      "##. K": 6506,
      "##edon": 6507,
      "##aby\n": 6508,
      "##agh\n": 6509,
      "##av\n": 6510,
      "##idier\n": 6511,
      "##ulin": 6512,
      "##, Rick\n": 6513,
      "##, Rebecca\n": 6514,
      "Charl": 6515,
      "##odore\n": 6516,
      "##, Larry\n": 6517,
      "Stud": 6518,
      "##egu": 6519,
      "##, Howard\n": 6520,
      "##oba\n": 6521,
      "##quer": 6522,
      "##estraße\n": 6523,
      "##azz\n": 6524,
      "##iero\n": 6525,
      "##iano": 6526,
      "## Rh": 6527,
      "## Ros": 6528,
      "##eister": 6529,
      "##ende\n": 6530,
      "##, Walter": 6531,
      "##, Wolfgang": 6532,
      "##heil": 6533,
      "Shaw": 6534,
      "## de T": 6535,
      "## de la\n": 6536,
      "##oys\n": 6537,
      "##e (deutsch)\n": 6538,
      "##ia d": 6539,
      "##ondo\n": 6540,
      "##eanu": 6541,
      "##, Christina\n": 6542,
      "##e des ": 6543,
      "Pres": 6544,
      "##eiro\n": 6545,
      "Unit": 6546,
      "##ärvi\n": 6547,
      "##uyen": 6548,
      "Madam": 6549,
      "Castro": 6550,
      "Castell": 6551,
      "##, Nicole\n": 6552,
      "## School\n": 6553,
      "##ühle\n": 6554,
      "Griff": 6555,
      "##omenico\n": 6556,
      "##, Monika\n": 6557,
      "##, Gilles\n": 6558,
      "## (= ... Jr.)\n": 6559,
      "## rajon\n": 6560,
      "Beng": 6561,
      "Boj": 6562,
      "Cac": 6563,
      "Hack": 6564,
      "Herb": 6565,
      "Lid": 6566,
      "Metz": 6567,
      "Pent": 6568,
      "Pett": 6569,
      "Punt": 6570,
      "Rig": 6571,
      "Sos": 6572,
      "Tann": 6573,
      "Tum": 6574,
      "Was": 6575,
      "Xu": 6576,
      "You": 6577,
      "##a-K": 6578,
      "##nic": 6579,
      "##jas": 6580,
      "##eit\n": 6581,
      "##e, Sh": 6582,
      "##s of": 6583,
      "##horn\n": 6584,
      "##wen": 6585,
      "##baum": 6586,
      "##, Qu": 6587,
      "##anz\n": 6588,
      "##enp": 6589,
      "##enstraße\n": 6590,
      "##ones\n": 6591,
      "##ste\n": 6592,
      "##atus\n": 6593,
      "##ilip\n": 6594,
      "##riss": 6595,
      "##olis\n": 6596,
      "##, Mur": 6597,
      "##, Suz": 6598,
      "##oux\n": 6599,
      "##aver": 6600,
      "## Saint": 6601,
      "##elly": 6602,
      "Che": 6603,
      "## des ": 6604,
      "##, Li": 6605,
      "##opold": 6606,
      "##, Pierre": 6607,
      "##, Barry\n": 6608,
      "##ograph": 6609,
      "##artin": 6610,
      "##awn\n": 6611,
      "##ourg\n": 6612,
      "Shim": 6613,
      "##arius\n": 6614,
      "##, Or": 6615,
      "Bark": 6616,
      "##, Alexis\n": 6617,
      "##tschenko": 6618,
      "##erling": 6619,
      "##ould": 6620,
      "Salv": 6621,
      "##, Eddie\n": 6622,
      "Parc": 6623,
      "##aille": 6624,
      "## (Sch": 6625,
      "##e, Richard\n": 6626,
      "## to ": 6627,
      "Murray": 6628,
      "##er, Walter\n": 6629,
      "Turn": 6630,
      "##aspar": 6631,
      "##uppe\n": 6632,
      "##otschkin\n": 6633,
      "## Andre": 6634,
      "Hirsch": 6635,
      "##, Sabine\n": 6636,
      "##loyd": 6637,
      "Morgan": 6638,
      "Cohen": 6639,
      "Aus": 6640,
      "Dall": 6641,
      "Fay": 6642,
      "From": 6643,
      "Golf": 6644,
      "Isch": 6645,
      "Kip": 6646,
      "Lig": 6647,
      "Lady": 6648,
      "Moll": 6649,
      "Ner": 6650,
      "Nob": 6651,
      "Rams": 6652,
      "Sit": 6653,
      "Ty": 6654,
      "Tot": 6655,
      "Varg": 6656,
      "Wand": 6657,
      "d'A": 6658,
      "##tis": 6659,
      "##a-L": 6660,
      "##jukow\n": 6661,
      "##eia\n": 6662,
      "##y G": 6663,
      "##cel": 6664,
      "##lay": 6665,
      "##lar\n": 6666,
      "##uiz": 6667,
      "##vest": 6668,
      "##be": 6669,
      "##ü\n": 6670,
      "##erberg\n": 6671,
      "##enis\n": 6672,
      "##olger\n": 6673,
      "##amur": 6674,
      "##etch": 6675,
      "##, Axel\n": 6676,
      "##ads": 6677,
      "##adt)\n": 6678,
      "##leen\n": 6679,
      "##, Sp": 6680,
      "##andstraße\n": 6681,
      "##lio\n": 6682,
      "##iker\n": 6683,
      "##edo": 6684,
      "##edes": 6685,
      "##abad\n": 6686,
      "##emi": 6687,
      "## Sam": 6688,
      "##the\n": 6689,
      "##, Ram": 6690,
      "Scha": 6691,
      "Schal": 6692,
      "Schab": 6693,
      "## Com": 6694,
      "## Comm": 6695,
      "##, Fernando\n": 6696,
      "##erson\n": 6697,
      "## Tim": 6698,
      "##istor": 6699,
      "## James\n": 6700,
      "## de l'": 6701,
      "## Eng": 6702,
      "##e (B": 6703,
      "Abram": 6704,
      "##, Alexej\n": 6705,
      "##usch\n": 6706,
      "##, Joaqu": 6707,
      "##ations\n": 6708,
      "##e de P": 6709,
      "##eide\n": 6710,
      "Klost": 6711,
      "Murphy": 6712,
      "Les B": 6713,
      "Holz": 6714,
      "Emm": 6715,
      "## nad": 6716,
      "##ultur": 6717,
      "##stadt": 6718,
      "Egg": 6719,
      "##schwed": 6720,
      "##, Ivo\n": 6721,
      "##iroslav\n": 6722,
      "##, Jean-Claude\n": 6723,
      "Bib": 6724,
      "Cit": 6725,
      "Dow": 6726,
      "Fuj": 6727,
      "Falc": 6728,
      "Got": 6729,
      "Gamb": 6730,
      "Hul": 6731,
      "Hugh": 6732,
      "Lot": 6733,
      "Lok": 6734,
      "London": 6735,
      "Most": 6736,
      "Much": 6737,
      "N'": 6738,
      "Ori": 6739,
      "Pay": 6740,
      "Rau": 6741,
      "Sis": 6742,
      "Serv": 6743,
      "Til": 6744,
      "Terr": 6745,
      "Zah": 6746,
      "st": 6747,
      "##dar\n": 6748,
      "##yj": 6749,
      "##lim": 6750,
      "##hav": 6751,
      "##AT": 6752,
      "##well\n": 6753,
      "##bs": 6754,
      "##beck": 6755,
      "##öt": 6756,
      "##'s\n": 6757,
      "##ansk": 6758,
      "##anessa\n": 6759,
      "##arry": 6760,
      "##inin\n": 6761,
      "##onch": 6762,
      "##alo": 6763,
      "##orff": 6764,
      "##orsten\n": 6765,
      "##stvan\n": 6766,
      "##olith": 6767,
      "##scher": 6768,
      "##, Muhamm": 6769,
      "##adion\n": 6770,
      "##usik": 6771,
      "##ids": 6772,
      "##iga\n": 6773,
      "##, Rus": 6774,
      "Schu": 6775,
      "##elles": 6776,
      "##iller\n": 6777,
      "## At": 6778,
      "## Mark": 6779,
      "## Cre": 6780,
      "## Carlos\n": 6781,
      "##, Harold\n": 6782,
      "##anto\n": 6783,
      "##entsch": 6784,
      "Thal": 6785,
      "##assim": 6786,
      "##ucci": 6787,
      "## von A": 6788,
      "##, Stuart\n": 6789,
      "## J.\n": 6790,
      "## Kh": 6791,
      "##ssen": 6792,
      "##e-H": 6793,
      "## Nikol": 6794,
      "##inds": 6795,
      "Amar": 6796,
      "##elson\n": 6797,
      "##France\n": 6798,
      "##icola\n": 6799,
      "##önn": 6800,
      "## bin": 6801,
      "##e Luis\n": 6802,
      "##e, Daniel\n": 6803,
      "##Christian\n": 6804,
      "Simp": 6805,
      "##a, Natalia\n": 6806,
      "##i, En": 6807,
      "Weis": 6808,
      "Nieder": 6809,
      "##, Harald\n": 6810,
      "Collins": 6811,
      "##ehmet\n": 6812,
      "##, Fabian\n": 6813,
      "World": 6814,
      "##ymphony": 6815,
      "## Henry\n": 6816,
      "##ukrainischer Name)\n": 6817,
      "##fonso\n": 6818,
      "##, Volker\n": 6819,
      "##orld\n": 6820,
      "##yörgy\n": 6821,
      "Auf": 6822,
      "By": 6823,
      "Bub": 6824,
      "Bund": 6825,
      "Cob": 6826,
      "Ded": 6827,
      "Dig": 6828,
      "Gat": 6829,
      "Haf": 6830,
      "International": 6831,
      "Krem": 6832,
      "Misch": 6833,
      "Moz": 6834,
      "Merk": 6835,
      "Nat": 6836,
      "Tun": 6837,
      "Vig": 6838,
      "Wash": 6839,
      "Wint": 6840,
      "Zak": 6841,
      "##aert": 6842,
      "##na": 6843,
      "##rat\n": 6844,
      "##yat": 6845,
      "## Dr": 6846,
      "##lass": 6847,
      "##lett": 6848,
      "##less": 6849,
      "##hö": 6850,
      "##mos": 6851,
      "##bal": 6852,
      "##ana": 6853,
      "##aru": 6854,
      "##elina\n": 6855,
      "##aly\n": 6856,
      "##alth": 6857,
      "##atore\n": 6858,
      "##riqu": 6859,
      "##olt\n": 6860,
      "##ames": 6861,
      "##esi\n": 6862,
      "##, Ach": 6863,
      "##, Aleks": 6864,
      "##itor": 6865,
      "##adj": 6866,
      "##ic, S": 6867,
      "## (türkisch)\n": 6868,
      "##lep": 6869,
      "##o Ch": 6870,
      "##ewski": 6871,
      "Scham": 6872,
      "##, Dam": 6873,
      "Stro": 6874,
      "Strau": 6875,
      "##ayev": 6876,
      "##, Kam": 6877,
      "##ester": 6878,
      "##estin": 6879,
      "## Hy": 6880,
      "## Tr": 6881,
      "##ionel\n": 6882,
      "##essen": 6883,
      "##erty": 6884,
      "##ours\n": 6885,
      "##, Volodymyr\n": 6886,
      "##, Andri": 6887,
      "##a (p": 6888,
      "## de A": 6889,
      "## Wilhelm\n": 6890,
      "##alden\n": 6891,
      "##inde\n": 6892,
      "##ejew\n": 6893,
      "## Straße\n": 6894,
      "##örn": 6895,
      "##ungar": 6896,
      "## On": 6897,
      "##ielsen": 6898,
      "##, Yves\n": 6899,
      "##incent\n": 6900,
      "Salz": 6901,
      "##ull\n": 6902,
      "Akt": 6903,
      "Institut": 6904,
      "##i, Giovanni\n": 6905,
      "##o da\n": 6906,
      "##a, Jan\n": 6907,
      "##er, El": 6908,
      "##, Sergey\n": 6909,
      "Philli": 6910,
      "Enn": 6911,
      "##öln\n": 6912,
      "Huang": 6913,
      "Lambert": 6914,
      "##aq\n": 6915,
      "##ierrez": 6916,
      "##ieux": 6917,
      "##ough\n": 6918,
      "##, Norman\n": 6919,
      "Heinrich": 6920,
      "Cruz": 6921,
      "##erdinand": 6922,
      "##, Mathias\n": 6923,
      "##arabisch)\n": 6924,
      "##, Timothy\n": 6925,
      "##aciej\n": 6926,
      "##acques\n": 6927,
      "##imierz\n": 6928,
      "Stewart": 6929,
      "##os Santos": 6930,
      "##schwedisch)\n": 6931,
      "Aer": 6932,
      "Arab": 6933,
      "Buss": 6934,
      "Donn": 6935,
      "Eber": 6936,
      "Ged": 6937,
      "Hong": 6938,
      "Hahn": 6939,
      "Jen": 6940,
      "Kont": 6941,
      "Kind": 6942,
      "Kong": 6943,
      "Meng": 6944,
      "Nass": 6945,
      "Oj": 6946,
      "Prem": 6947,
      "Rin": 6948,
      "Set": 6949,
      "Und": 6950,
      "Wey": 6951,
      "## qu": 6952,
      "##iam": 6953,
      "##ibert": 6954,
      "##cc": 6955,
      "##lon": 6956,
      "##lot": 6957,
      "##vonne\n": 6958,
      "##hin": 6959,
      "##gg": 6960,
      "##witz": 6961,
      "##anka\n": 6962,
      "##en (Schweiz)\n": 6963,
      "##e th": 6964,
      "##a la ": 6965,
      "##owka\n": 6966,
      "##lean": 6967,
      "##usc": 6968,
      "##akan\n": 6969,
      "##ides\n": 6970,
      "##thur": 6971,
      "##, Rafael\n": 6972,
      "Scher": 6973,
      "##, Marina\n": 6974,
      "Chil": 6975,
      "## Mohamm": 6976,
      "##ayo\n": 6977,
      "## Car": 6978,
      "Alg": 6979,
      "## Bank\n": 6980,
      "##antiago\n": 6981,
      "##artz": 6982,
      "##assimo\n": 6983,
      "## Rod": 6984,
      "## Reg": 6985,
      "## Gott": 6986,
      "##, Alb": 6987,
      "##endrik\n": 6988,
      "##atharina\n": 6989,
      "##, Veron": 6990,
      "##shan\n": 6991,
      "##a (spanisch)\n": 6992,
      "## International": 6993,
      "##ynn\n": 6994,
      "##-Saint": 6995,
      "##, Omar\n": 6996,
      "## String": 6997,
      "##ia B": 6998,
      "##uchow\n": 6999,
      "Elis": 7000,
      "## Ol": 7001,
      "##hilharmon": 7002,
      "##, Julio\n": 7003,
      "Plaz": 7004,
      "Petr": 7005,
      "##ieur": 7006,
      "##, Emmanuel\n": 7007,
      "##er, Franz": 7008,
      "##er, Franz\n": 7009,
      "##, Carlos": 7010,
      "Corb": 7011,
      "##a, Natal": 7012,
      "## (=Sir)\n": 7013,
      "##i, Ahm": 7014,
      "##, Karel\n": 7015,
      "##, Mohammad": 7016,
      "##oltan\n": 7017,
      "##, Aleksandr\n": 7018,
      "##, Eduardo\n": 7019,
      "##, Xavier\n": 7020,
      "##ecilia\n": 7021,
      "##, Jaroslav\n": 7022,
      "Bier": 7023,
      "Bomb": 7024,
      "Cra": 7025,
      "Clem": 7026,
      "Danc": 7027,
      "Farr": 7028,
      "Hin": 7029,
      "Hain": 7030,
      "Lock": 7031,
      "Naz": 7032,
      "Naj": 7033,
      "Opp": 7034,
      "Pes": 7035,
      "Pun": 7036,
      "Ris": 7037,
      "Rim": 7038,
      "Tag": 7039,
      "Tep": 7040,
      "UN": 7041,
      "Ub": 7042,
      "Watt": 7043,
      "##a-P": 7044,
      "##oi": 7045,
      "##oor\n": 7046,
      "##o, I": 7047,
      "##nica\n": 7048,
      "##eberg": 7049,
      "##rd": 7050,
      "##yo\n": 7051,
      "##i F": 7052,
      "##i J": 7053,
      "##ues\n": 7054,
      "##sur": 7055,
      "##vist": 7056,
      "##hütte\n": 7057,
      "##gard": 7058,
      "##fin": 7059,
      "##fil": 7060,
      "##AN": 7061,
      "##AC": 7062,
      "##mo\n": 7063,
      "##mi\n": 7064,
      "##mus\n": 7065,
      "##IN": 7066,
      "##zig": 7067,
      "##-t": 7068,
      "##erena\n": 7069,
      "##ane": 7070,
      "##ener Straße\n": 7071,
      "##chev": 7072,
      "##onk": 7073,
      "##on ": 7074,
      "##elet": 7075,
      "##elles\n": 7076,
      "##alon": 7077,
      "##alov": 7078,
      "##orenzo\n": 7079,
      "##e van\n": 7080,
      "##scht": 7081,
      "##, Ma": 7082,
      "##auc": 7083,
      "##auer": 7084,
      "##reuz\n": 7085,
      "##rou": 7086,
      "##osit": 7087,
      "##omor": 7088,
      "##o n": 7089,
      "##i, U": 7090,
      "##idad": 7091,
      "##, Ruth\n": 7092,
      "##, Ricardo\n": 7093,
      "Schre": 7094,
      "Schach": 7095,
      "Chem": 7096,
      "##, Dick\n": 7097,
      "##apper)\n": 7098,
      "##ental": 7099,
      "##ogh": 7100,
      "##ersdorf": 7101,
      "## Heinrich\n": 7102,
      "##eft": 7103,
      "## von N": 7104,
      "Bru": 7105,
      "##iste\n": 7106,
      "##e-G": 7107,
      "##, Od": 7108,
      "Barg": 7109,
      "##ia S": 7110,
      "##ucht": 7111,
      "##ungs": 7112,
      "##itta\n": 7113,
      "Spin": 7114,
      "##ojci": 7115,
      "Dix": 7116,
      "##enza\n": 7117,
      "Agn": 7118,
      "##nikov": 7119,
      "##o dell": 7120,
      "##livan": 7121,
      "Palac": 7122,
      "##er, Karl": 7123,
      "##a de C": 7124,
      "Liber": 7125,
      "## Zh": 7126,
      "##-du": 7127,
      "##, Janos\n": 7128,
      "##a, Carlos\n": 7129,
      "##holz": 7130,
      "Muse": 7131,
      "##, Ernst": 7132,
      "##, Ernest\n": 7133,
      "##, Mikh": 7134,
      "##, Angelo\n": 7135,
      "## University\n": 7136,
      "Kelly": 7137,
      "## Airlines\n": 7138,
      "München": 7139,
      "Marshall": 7140,
      "Ahl": 7141,
      "Dell": 7142,
      "Fen": 7143,
      "Gang": 7144,
      "Gün": 7145,
      "Köl": 7146,
      "Laf": 7147,
      "Lipp": 7148,
      "Pec": 7149,
      "Rid": 7150,
      "Sep": 7151,
      "Suz": 7152,
      "Sint": 7153,
      "Singh": 7154,
      "Tin": 7155,
      "Weil": 7156,
      "Zag": 7157,
      "##aac\n": 7158,
      "##oqu": 7159,
      "##eer": 7160,
      "##eier": 7161,
      "##eich\n": 7162,
      "##rent": 7163,
      "##y H": 7164,
      "##va": 7165,
      "##vers": 7166,
      "##vey": 7167,
      "##horn": 7168,
      "##In": 7169,
      "##-p": 7170,
      "##äh": 7171,
      "##erbert": 7172,
      "##en, K": 7173,
      "##onf": 7174,
      "##e Un": 7175,
      "##as ": 7176,
      "##aso\n": 7177,
      "##, Mort": 7178,
      "##adium\n": 7179,
      "##ausk": 7180,
      "##uni": 7181,
      "##lew\n": 7182,
      "##imir\n": 7183,
      "##ush\n": 7184,
      "##. M": 7185,
      "##aker\n": 7186,
      "##ikt\n": 7187,
      "##oth\n": 7188,
      "##acek": 7189,
      "##skay": 7190,
      "##avi\n": 7191,
      "##thal\n": 7192,
      "Schew": 7193,
      "Chas": 7194,
      "##iller": 7195,
      "##, Diego\n": 7196,
      "##achin\n": 7197,
      "##ardt": 7198,
      "## Bern": 7199,
      "##antsew\n": 7200,
      "## Lee\n": 7201,
      "##aston\n": 7202,
      "## Rah": 7203,
      "##manow\n": 7204,
      "##oya\n": 7205,
      "##, Olexand": 7206,
      "The N": 7207,
      "##aschkin\n": 7208,
      "Adel": 7209,
      "##, Alexandr": 7210,
      "Anders": 7211,
      "##igny": 7212,
      "##er, Ger": 7213,
      "al-H": 7214,
      "Glas": 7215,
      "Hermann": 7216,
      "##i, Luc": 7217,
      "Cox": 7218,
      "Haas": 7219,
      "##iovanni B": 7220,
      "##weig": 7221,
      "## Inc.\n": 7222,
      "##a, Anastas": 7223,
      "##, Leonid\n": 7224,
      "##, Olga\n": 7225,
      "##/A ": 7226,
      "##, Anatol": 7227,
      "##olph\n": 7228,
      "##bigniew\n": 7229,
      "Arist": 7230,
      "Bred": 7231,
      "CO": 7232,
      "Capp": 7233,
      "Curt": 7234,
      "Dou": 7235,
      "Ez": 7236,
      "Fitz": 7237,
      "Finn": 7238,
      "Gos": 7239,
      "Gus": 7240,
      "Heil": 7241,
      "Ign": 7242,
      "Kern": 7243,
      "Kaf": 7244,
      "Kuz": 7245,
      "Loc": 7246,
      "Marl": 7247,
      "Moul": 7248,
      "Mazz": 7249,
      "Piz": 7250,
      "Pasc": 7251,
      "Run": 7252,
      "Rut": 7253,
      "Raf": 7254,
      "Tö": 7255,
      "Tas": 7256,
      "Tich": 7257,
      "Ull": 7258,
      "Verm": 7259,
      "Volk": 7260,
      "Wy": 7261,
      "Wi": 7262,
      "Zieg": 7263,
      "##ki": 7264,
      "##kad": 7265,
      "##kreis\n": 7266,
      "##nam": 7267,
      "##jon\n": 7268,
      "##eij": 7269,
      "##rc": 7270,
      "##yar": 7271,
      "##y F": 7272,
      "##iou": 7273,
      "##cu": 7274,
      "##cs": 7275,
      "##lau\n": 7276,
      "##uew\n": 7277,
      "##si": 7278,
      "##pe\n": 7279,
      "##AM": 7280,
      "##wood\n": 7281,
      "##erat": 7282,
      "##ered": 7283,
      "##erk\n": 7284,
      "##er, John\n": 7285,
      "##anya\n": 7286,
      "##aram": 7287,
      "##on S": 7288,
      "##orc": 7289,
      "##ork\n": 7290,
      "##e g": 7291,
      "##atan\n": 7292,
      "##ilia\n": 7293,
      "##es C": 7294,
      "##es B": 7295,
      "##, At": 7296,
      "##, Av": 7297,
      "##itis\n": 7298,
      "##, Jay\n": 7299,
      "## (Or": 7300,
      "##unt\n": 7301,
      "##imi\n": 7302,
      "##, Sar": 7303,
      "##. G": 7304,
      "##abel": 7305,
      "##emar\n": 7306,
      "## den\n": 7307,
      "##, Drag": 7308,
      "##, Lud": 7309,
      "## Amer": 7310,
      "Alv": 7311,
      "Al M": 7312,
      "##epe\n": 7313,
      "##, Terry\n": 7314,
      "##eba\n": 7315,
      "##ogan": 7316,
      "##arte\n": 7317,
      "##, Khal": 7318,
      "##ianus\n": 7319,
      "##, Neil\n": 7320,
      "##, Nils\n": 7321,
      "## Leon": 7322,
      "##enning\n": 7323,
      "##ather\n": 7324,
      "##ustin": 7325,
      "##, Valentin\n": 7326,
      "##ansson": 7327,
      "La T": 7328,
      "## Chaussee\n": 7329,
      "##, Alexander": 7330,
      "##ski, W": 7331,
      "Ord": 7332,
      "Pereir": 7333,
      "##oschee\n": 7334,
      "##igny\n": 7335,
      "##a, Jelena\n": 7336,
      "##a de M": 7337,
      "##rankreich)\n": 7338,
      "##irov": 7339,
      "##chester\n": 7340,
      "##laudia\n": 7341,
      "##ights\n": 7342,
      "##, Gerald\n": 7343,
      "O'C": 7344,
      "##er, Christoph\n": 7345,
      "##, Dmitry\n": 7346,
      "##loss\n": 7347,
      "##, Ingrid\n": 7348,
      "Nguyen": 7349,
      "Bennett": 7350,
      "##loyd\n": 7351,
      "##, Maximilian\n": 7352,
      "## International\n": 7353,
      "Aff": 7354,
      "Bär": 7355,
      "Dik": 7356,
      "Duch": 7357,
      "Dür": 7358,
      "Fair": 7359,
      "Ges": 7360,
      "Hipp": 7361,
      "Kah": 7362,
      "Kiss": 7363,
      "Mud": 7364,
      "Möll": 7365,
      "Pis": 7366,
      "Reid": 7367,
      "Ryb": 7368,
      "Sör": 7369,
      "Tomas": 7370,
      "Wright": 7371,
      "Zan": 7372,
      "##aß": 7373,
      "##oint": 7374,
      "##eet": 7375,
      "##e's": 7376,
      "##lon\n": 7377,
      "##lor\n": 7378,
      "##lara\n": 7379,
      "##ler, H": 7380,
      "##fort": 7381,
      "##mail\n": 7382,
      "##Heilig": 7383,
      "##zer": 7384,
      "##(=": 7385,
      "##en, G": 7386,
      "##cher": 7387,
      "##onie\n": 7388,
      "##eld\n": 7389,
      "##ala": 7390,
      "##stra": 7391,
      "##ils": 7392,
      "##ilton": 7393,
      "##illes\n": 7394,
      "##eson": 7395,
      "##es, L": 7396,
      "##asar\n": 7397,
      "##ico": 7398,
      "##oming": 7399,
      "##irow\n": 7400,
      "##rael\n": 7401,
      "##ewo\n": 7402,
      "##ther": 7403,
      "##ulus\n": 7404,
      "##, Raf": 7405,
      "##, Rob\n": 7406,
      "Schem": 7407,
      "##ahar": 7408,
      "##, Anita\n": 7409,
      "##, Lena\n": 7410,
      "Stol": 7411,
      "Strat": 7412,
      "##ays\n": 7413,
      "##, Horst\n": 7414,
      "##, Keith\n": 7415,
      "##awin\n": 7416,
      "##ieres\n": 7417,
      "##a (deutsch)\n": 7418,
      "## Ern": 7419,
      "Amor": 7420,
      "##euv": 7421,
      "##laude ": 7422,
      "##iusz\n": 7423,
      "##, Joanna\n": 7424,
      "Petrov": 7425,
      "##e An": 7426,
      "##othar\n": 7427,
      "##a Silv": 7428,
      "##offrey\n": 7429,
      "##er, Karl\n": 7430,
      "##e, Em": 7431,
      "Berth": 7432,
      "##aroline\n": 7433,
      "##, Petra\n": 7434,
      "Emp": 7435,
      "##, Simon": 7436,
      "German": 7437,
      "Levy": 7438,
      "## Islands\n": 7439,
      "##änisch)\n": 7440,
      "##ygin\n": 7441,
      "Basil": 7442,
      "##eatro": 7443,
      "Abdul": 7444,
      "## (Kreis": 7445,
      "##iacomo\n": 7446,
      "## Martin\n": 7447,
      "## Edward\n": 7448,
      "##gnacio\n": 7449,
      "##, Giorgos\n": 7450,
      "## College\n": 7451,
      "##eborah\n": 7452,
      "## (Heiliger)\n": 7453,
      "Bin": 7454,
      "Bec": 7455,
      "Duv": 7456,
      "Fuk": 7457,
      "Fink": 7458,
      "Figu": 7459,
      "Gund": 7460,
      "Haid": 7461,
      "Kusch": 7462,
      "Lanc": 7463,
      "Mr. ": 7464,
      "Nog": 7465,
      "Pott": 7466,
      "Seid": 7467,
      "Tall": 7468,
      "Unt": 7469,
      "##dz": 7470,
      "##rut": 7471,
      "##y W": 7472,
      "## en": 7473,
      "##com": 7474,
      "##uit\n": 7475,
      "##sj": 7476,
      "##.C": 7477,
      "##El": 7478,
      "##myt": 7479,
      "##bar\n": 7480,
      "##bek\n": 7481,
      "##öh": 7482,
      "##-j": 7483,
      "##-ch": 7484,
      "##an M": 7485,
      "##anskij\n": 7486,
      "##enas": 7487,
      "##enskij\n": 7488,
      "##inka\n": 7489,
      "##ond\n": 7490,
      "##elew\n": 7491,
      "##amad": 7492,
      "##, Jochen\n": 7493,
      "##lef": 7494,
      "##lez": 7495,
      "##lect": 7496,
      "##. C": 7497,
      "##rael": 7498,
      "##bern": 7499,
      "##aval": 7500,
      "##ovich": 7501,
      "##ichel\n": 7502,
      "##ulu": 7503,
      "##ulli": 7504,
      "Schenk": 7505,
      "Chab": 7506,
      "##umin": 7507,
      "##, Dan": 7508,
      "##utz\n": 7509,
      "##, Tommy\n": 7510,
      "##eburg": 7511,
      "## Technolog": 7512,
      "##ips": 7513,
      "## Georg\n": 7514,
      "## von E": 7515,
      "## von W": 7516,
      "##oco\n": 7517,
      "Shak": 7518,
      "##alde\n": 7519,
      "##oys": 7520,
      "##, Joshua\n": 7521,
      "##atte\n": 7522,
      "##ossein\n": 7523,
      "##hilip\n": 7524,
      "##arren": 7525,
      "Morris": 7526,
      "Prz": 7527,
      "##iederl": 7528,
      "##i p": 7529,
      "Poly": 7530,
      "##er, Georg\n": 7531,
      "Manz": 7532,
      "##e, Pierre\n": 7533,
      "##er, Florian\n": 7534,
      "##inha\n": 7535,
      "## and th": 7536,
      "##, Sebastien\n": 7537,
      "## (Fußball": 7538,
      "##ness\n": 7539,
      "##, Jenny\n": 7540,
      "##sdottir": 7541,
      "Hotel": 7542,
      "##, Serhiy\n": 7543,
      "Bran": 7544,
      "Buc": 7545,
      "Civ": 7546,
      "D'": 7547,
      "Dad": 7548,
      "Eh": 7549,
      "Gorn": 7550,
      "Heb": 7551,
      "Hert": 7552,
      "Hick": 7553,
      "Jab": 7554,
      "Jenn": 7555,
      "Jank": 7556,
      "Kau": 7557,
      "Kou": 7558,
      "Lass": 7559,
      "Mein": 7560,
      "Mull": 7561,
      "Miy": 7562,
      "Mohamm": 7563,
      "Midd": 7564,
      "Perr": 7565,
      "Rast": 7566,
      "Roll": 7567,
      "Reyn": 7568,
      "Saj": 7569,
      "Sous": 7570,
      "Türk": 7571,
      "Uk": 7572,
      "##a, Juan": 7573,
      "##oel\n": 7574,
      "##jo": 7575,
      "##jal": 7576,
      "##eun": 7577,
      "##yon\n": 7578,
      "##iara\n": 7579,
      "##uid": 7580,
      "##vat": 7581,
      "##hab": 7582,
      "##hu\n": 7583,
      "##hor\n": 7584,
      "##zin": 7585,
      "##zo\n": 7586,
      "##aner": 7587,
      "##anus\n": 7588,
      "##aras": 7589,
      "##enig": 7590,
      "##in)\n": 7591,
      "##eland\n": 7592,
      "##ilian": 7593,
      "##asia\n": 7594,
      "##, Mohamed\n": 7595,
      "##ures\n": 7596,
      "##uru\n": 7597,
      "##aden": 7598,
      "##adin\n": 7599,
      "##roch": 7600,
      "##rod\n": 7601,
      "##, Sil": 7602,
      "##otin\n": 7603,
      "##aver\n": 7604,
      "##ewicz": 7605,
      "##ider": 7606,
      "##inger\n": 7607,
      "Schil": 7608,
      "Chod": 7609,
      "Steg": 7610,
      "## Main": 7611,
      "##ega\n": 7612,
      "##, Benoit\n": 7613,
      "##ogen": 7614,
      "##, Kost": 7615,
      "##isches": 7616,
      "##, Fer": 7617,
      "##, Fried": 7618,
      "##allah\n": 7619,
      "##etti": 7620,
      "## Tel": 7621,
      "##head": 7622,
      "##ours": 7623,
      "Bry": 7624,
      "##, Vasil": 7625,
      "##enka\n": 7626,
      "##a (M": 7627,
      "##ocrat": 7628,
      "##phons": 7629,
      "Spring": 7630,
      "##ski, P": 7631,
      "##e de C": 7632,
      "##a dell": 7633,
      "##, Jacek\n": 7634,
      "Erm": 7635,
      "##oschin\n": 7636,
      "##burg)\n": 7637,
      "Reed": 7638,
      "##, Amb": 7639,
      "Neust": 7640,
      "##er, Klaus\n": 7641,
      "Prov": 7642,
      "##i, Roberto\n": 7643,
      "##, Annie\n": 7644,
      "##mont\n": 7645,
      "##varo\n": 7646,
      "Grant": 7647,
      "Russell": 7648,
      "##, Jewgeni\n": 7649,
      "Ernst": 7650,
      "##ilippo\n": 7651,
      "##, Mykola\n": 7652,
      "United": 7653,
      "Bit": 7654,
      "Bisch": 7655,
      "Butt": 7656,
      "Cond": 7657,
      "Ehr": 7658,
      "Gis": 7659,
      "Gaud": 7660,
      "Graham": 7661,
      "Hoy": 7662,
      "Jez": 7663,
      "Kauf": 7664,
      "Lou": 7665,
      "Liss": 7666,
      "Mais": 7667,
      "Meth": 7668,
      "Nom": 7669,
      "Oster": 7670,
      "Pep": 7671,
      "Sü": 7672,
      "Sci": 7673,
      "Said": 7674,
      "Tow": 7675,
      "Tamb": 7676,
      "US": 7677,
      "Vord": 7678,
      "Verb": 7679,
      "Wes": 7680,
      "Yu": 7681,
      "Zo": 7682,
      "Zam": 7683,
      "Zem": 7684,
      "##a, Marc": 7685,
      "##a, Antonio\n": 7686,
      "##jam": 7687,
      "##eep": 7688,
      "##rch": 7689,
      "##ruz": 7690,
      "##i, Sh": 7691,
      "##lost": 7692,
      "##litz": 7693,
      "##uer": 7694,
      "##sdorf": 7695,
      "##vik": 7696,
      "##var\n": 7697,
      "##gin\n": 7698,
      "##weiler\n": 7699,
      "##bi": 7700,
      "##zio\n": 7701,
      "##arf": 7702,
      "##arit": 7703,
      "##ena": 7704,
      "##enov": 7705,
      "##insk\n": 7706,
      "##onen\n": 7707,
      "##onas\n": 7708,
      "##alm\n": 7709,
      "##e l": 7710,
      "##atin\n": 7711,
      "##es of": 7712,
      "##, Alejandro\n": 7713,
      "##, Javier\n": 7714,
      "##adal": 7715,
      "##ic, B": 7716,
      "##. B": 7717,
      "##. P": 7718,
      "##ande\n": 7719,
      "##andro": 7720,
      "##akob\n": 7721,
      "##ikin\n": 7722,
      "##abella\n": 7723,
      "##emie\n": 7724,
      "##ewitsch": 7725,
      "## Schw": 7726,
      "##inge\n": 7727,
      "##inga\n": 7728,
      "##rant\n": 7729,
      "##, Cor": 7730,
      "Chol": 7731,
      "## Aut": 7732,
      "## Mag": 7733,
      "##ophil": 7734,
      "## Can": 7735,
      "Al-H": 7736,
      "##, Hal": 7737,
      "## Bur": 7738,
      "##, Klaus": 7739,
      "## Paul\n": 7740,
      "##azi\n": 7741,
      "##assan": 7742,
      "## Ha": 7743,
      "##okrat": 7744,
      "##ertain": 7745,
      "## John": 7746,
      "##e-T": 7747,
      "## Er": 7748,
      "##ongo\n": 7749,
      "##ankow\n": 7750,
      "##ürg": 7751,
      "Guer": 7752,
      "##iesz": 7753,
      "Clay": 7754,
      "Smol": 7755,
      "##form": 7756,
      "##e, Georg": 7757,
      "##a, Paul": 7758,
      "##, Carlo\n": 7759,
      "Moon": 7760,
      "##, Annette\n": 7761,
      "## al-A": 7762,
      "Frey": 7763,
      "##, Paula\n": 7764,
      "##i, Carlo\n": 7765,
      "Molin": 7766,
      "##euse\n": 7767,
      "##roduct": 7768,
      "Cross": 7769,
      "##lenn\n": 7770,
      "##, Clara\n": 7771,
      "##e In": 7772,
      "Hartmann": 7773,
      "##, Monica\n": 7774,
      "##, Irene\n": 7775,
      "## Blues\n": 7776,
      "## Road\n": 7777,
      "##ociety\n": 7778,
      "##midt": 7779,
      "Edwards": 7780,
      "##ojciech\n": 7781,
      "##Heilige)\n": 7782,
      "##iederländisch)\n": 7783,
      "Bid": 7784,
      "Banc": 7785,
      "Bold": 7786,
      "Berl": 7787,
      "Bock": 7788,
      "Cir": 7789,
      "Dok": 7790,
      "Doc": 7791,
      "Dunn": 7792,
      "Emb": 7793,
      "Four": 7794,
      "Frau": 7795,
      "Feder": 7796,
      "Gig": 7797,
      "Ich": 7798,
      "Kall": 7799,
      "Kotsch": 7800,
      "Lett": 7801,
      "Lomb": 7802,
      "Lawrenc": 7803,
      "Myr": 7804,
      "Maxim": 7805,
      "Nd": 7806,
      "Nos": 7807,
      "Nim": 7808,
      "Pek": 7809,
      "Poul": 7810,
      "Samp": 7811,
      "Tib": 7812,
      "Treb": 7813,
      "Zer": 7814,
      "Zub": 7815,
      "##aos\n": 7816,
      "##aib": 7817,
      "##oachim\n": 7818,
      "##eber": 7819,
      "##sl": 7820,
      "##pa\n": 7821,
      "##gri": 7822,
      "##go\n": 7823,
      "##RA": 7824,
      "##üz": 7825,
      "##an)\n": 7826,
      "##inen\n": 7827,
      "##ale": 7828,
      "##alam": 7829,
      "##ats\n": 7830,
      "##atre\n": 7831,
      "##ili": 7832,
      "##amela\n": 7833,
      "##etin\n": 7834,
      "##es, G": 7835,
      "##es, B": 7836,
      "##a y": 7837,
      "##, Ay": 7838,
      "##, Az": 7839,
      "##asz\n": 7840,
      "##auv": 7841,
      "##rott": 7842,
      "##unic": 7843,
      "##er, Z": 7844,
      "##a, U": 7845,
      "##avent": 7846,
      "##ewod": 7847,
      "## Sol": 7848,
      "##igel\n": 7849,
      "##iche\n": 7850,
      "##, Rog": 7851,
      "Schk": 7852,
      "##ahu": 7853,
      "##aha\n": 7854,
      "Chic": 7855,
      "## Af": 7856,
      "Sto": 7857,
      "## Min": 7858,
      "## Castle\n": 7859,
      "##arden\n": 7860,
      "Al-S": 7861,
      "Al-K": 7862,
      "##, Ter": 7863,
      "##ents": 7864,
      "##ebe\n": 7865,
      "##udi\n": 7866,
      "##oga\n": 7867,
      "##, Konstantin": 7868,
      "##esta\n": 7869,
      "##ekt\n": 7870,
      "##ersp": 7871,
      "##ukh": 7872,
      "## Freder": 7873,
      "##, Io": 7874,
      "##ehdi\n": 7875,
      "##, Val": 7876,
      "##ocial": 7877,
      "##ia G": 7878,
      "##olds": 7879,
      "La V": 7880,
      "##spitze\n": 7881,
      "##-Preis\n": 7882,
      "##arma\n": 7883,
      "##io de ": 7884,
      "Akrot": 7885,
      "Inc": 7886,
      "##enhof\n": 7887,
      "##, Georgi\n": 7888,
      "##-Dsch": 7889,
      "al-A": 7890,
      "##a de S": 7891,
      "##e River\n": 7892,
      "##e, Jean\n": 7893,
      "Rouss": 7894,
      "##rowitsch\n": 7895,
      "##raben\n": 7896,
      "Santa C": 7897,
      "##a Al": 7898,
      "Heim": 7899,
      "Bouch": 7900,
      "##orth\n": 7901,
      "Ramirez": 7902,
      "Michael": 7903,
      "##, Isabelle\n": 7904,
      "Piazz": 7905,
      "##ystem\n": 7906,
      "## Joseph": 7907,
      "##, Theo\n": 7908,
      "Gilbert": 7909,
      "## Music\n": 7910,
      "## Head\n": 7911,
      "##, Jeffrey\n": 7912,
      "##, Hannah\n": 7913,
      "Concert": 7914,
      "Richardson": 7915,
      "Gordon": 7916,
      "##, Camille\n": 7917,
      "Bailey": 7918,
      "## (bei Shakespeare)\n": 7919,
      "##, Mikhail\n": 7920,
      "Bish": 7921,
      "Bosch": 7922,
      "Cy": 7923,
      "Cow": 7924,
      "Cov": 7925,
      "Crist": 7926,
      "Cerv": 7927,
      "Craw": 7928,
      "Dör": 7929,
      "Dres": 7930,
      "Desp": 7931,
      "Fant": 7932,
      "Fost": 7933,
      "Fry": 7934,
      "Fuch": 7935,
      "Gan": 7936,
      "Gub": 7937,
      "Glad": 7938,
      "Grac": 7939,
      "Hold": 7940,
      "Jed": 7941,
      "Kik": 7942,
      "Ked": 7943,
      "Le G": 7944,
      "Mist": 7945,
      "Nep": 7946,
      "Nish": 7947,
      "Of": 7948,
      "Pell": 7949,
      "Pip": 7950,
      "Poz": 7951,
      "Pasch": 7952,
      "Pizz": 7953,
      "Renn": 7954,
      "Roc": 7955,
      "Sod": 7956,
      "Vier": 7957,
      "Verh": 7958,
      "Viol": 7959,
      "Yak": 7960,
      "##ken\n": 7961,
      "##e'": 7962,
      "##yung": 7963,
      "##lom": 7964,
      "##lair": 7965,
      "##ug\n": 7966,
      "##san": 7967,
      "##pol": 7968,
      "##mir": 7969,
      "##mith": 7970,
      "##er, Mar": 7971,
      "##ering\n": 7972,
      "##anas\n": 7973,
      "##an P": 7974,
      "##aran\n": 7975,
      "##enet": 7976,
      "##enia\n": 7977,
      "##en B": 7978,
      "##enheim": 7979,
      "##inow": 7980,
      "##cha\n": 7981,
      "##ono\n": 7982,
      "##onis": 7983,
      "##onde\n": 7984,
      "##stetten\n": 7985,
      "##atr": 7986,
      "##rien\n": 7987,
      "##olina\n": 7988,
      "##asin\n": 7989,
      "##adow": 7990,
      "##icin": 7991,
      "##ic, M": 7992,
      "##rew": 7993,
      "##rop\n": 7994,
      "## (von": 7995,
      "##lek": 7996,
      "##rasch": 7997,
      "##acci": 7998,
      "##agin": 7999,
      "##, Raphael\n": 8000,
      "##, Cyr": 8001,
      "##, Craig\n": 8002,
      "##um ": 8003,
      "## Mc": 8004,
      "##entz": 8005,
      "##artin\n": 8006,
      "##, Ken\n": 8007,
      "##ekow\n": 8008,
      "##eys": 8009,
      "##uko\n": 8010,
      "## Dem": 8011,
      "Marien": 8012,
      "##organ\n": 8013,
      "##ustri": 8014,
      "##a (B": 8015,
      "## Juli": 8016,
      "##oche\n": 8017,
      "##ryan\n": 8018,
      "##ia D": 8019,
      "##aix": 8020,
      "##, Armin\n": 8021,
      "##ürgen": 8022,
      "##, Joao\n": 8023,
      "Kron": 8024,
      "##, Jean-J": 8025,
      "##io M": 8026,
      "##, Yuri\n": 8027,
      "##uhr": 8028,
      "##e AG\n": 8029,
      "##, Jacob": 8030,
      "Gros": 8031,
      "Kling": 8032,
      "Berry": 8033,
      "##a, Pet": 8034,
      "##er, Frank\n": 8035,
      "##oncert": 8036,
      "Santa Mari": 8037,
      "##czyn": 8038,
      "Davies": 8039,
      "##yps": 8040,
      "##, Jacqueline\n": 8041,
      "##hold\n": 8042,
      "Ramos": 8043,
      "##erese\n": 8044,
      "##er, Nor": 8045,
      "##irgit\n": 8046,
      "Michal": 8047,
      "##e, William\n": 8048,
      "##, Karin\n": 8049,
      "##, Hans-J": 8050,
      "##alcolm\n": 8051,
      "##, Louise\n": 8052,
      "##, Niklas\n": 8053,
      "## Angel": 8054,
      "##yndrom\n": 8055,
      "##, Victoria\n": 8056,
      "##, Jean-Louis\n": 8057,
      "##, Jean-Francois\n": 8058,
      "##jotr\n": 8059,
      "Akrotiri": 8060,
      "Ain": 8061,
      "Bian": 8062,
      "Biz": 8063,
      "Bois": 8064,
      "Cul": 8065,
      "Cub": 8066,
      "Court": 8067,
      "Def": 8068,
      "Domin": 8069,
      "Esk": 8070,
      "Fernand": 8071,
      "Gör": 8072,
      "Gül": 8073,
      "Hj": 8074,
      "Heilig": 8075,
      "If": 8076,
      "Joy": 8077,
      "Ket": 8078,
      "Kli": 8079,
      "Kath": 8080,
      "Kash": 8081,
      "Kohl": 8082,
      "Lus": 8083,
      "Ling": 8084,
      "Mund": 8085,
      "Malt": 8086,
      "Pric": 8087,
      "Perl": 8088,
      "Pros": 8089,
      "Popp": 8090,
      "Raw": 8091,
      "Rok": 8092,
      "Rick": 8093,
      "Rosch": 8094,
      "Soul": 8095,
      "Tes": 8096,
      "Tek": 8097,
      "Toy": 8098,
      "Wick": 8099,
      "##ty": 8100,
      "##a, Jose\n": 8101,
      "##dal\n": 8102,
      "##jow": 8103,
      "##eek": 8104,
      "##eir\n": 8105,
      "##rena\n": 8106,
      "##ier, L": 8107,
      "##sburg": 8108,
      "##sburg\n": 8109,
      "##hou\n": 8110,
      "##wat": 8111,
      "##SA\n": 8112,
      "##ög": 8113,
      "##äb": 8114,
      "##er, Andreas\n": 8115,
      "##an B": 8116,
      "##an, B": 8117,
      "##arat": 8118,
      "##arth\n": 8119,
      "##en K": 8120,
      "##onica\n": 8121,
      "##elt\n": 8122,
      "##elig": 8123,
      "##elipe\n": 8124,
      "##al S": 8125,
      "##alk\n": 8126,
      "##e U": 8127,
      "##e qu": 8128,
      "##risch": 8129,
      "##, Miguel\n": 8130,
      "##ader\n": 8131,
      "##adow\n": 8132,
      "## (russisch)\n": 8133,
      "##leon": 8134,
      "##osz": 8135,
      "##usal": 8136,
      "##ewsk": 8137,
      "##ing B": 8138,
      "##, Ronald\n": 8139,
      "Schö": 8140,
      "##range\n": 8141,
      "##ellen\n": 8142,
      "##, Douglas\n": 8143,
      "##achen\n": 8144,
      "Stark": 8145,
      "## Mat": 8146,
      "Als": 8147,
      "Alth": 8148,
      "## Brothers\n": 8149,
      "##obl": 8150,
      "##ischew\n": 8151,
      "## Paul": 8152,
      "##azar\n": 8153,
      "Thorn": 8154,
      "Theat": 8155,
      "##asser\n": 8156,
      "## Hall\n": 8157,
      "##ettes\n": 8158,
      "## Te": 8159,
      "## Love\n": 8160,
      "##afen\n": 8161,
      "##ei)\n": 8162,
      "##, Will\n": 8163,
      "##, Wilhelm": 8164,
      "## Film": 8165,
      "##ional": 8166,
      "##, Ibrahim\n": 8167,
      "##a (T": 8168,
      "## II": 8169,
      "##e-W": 8170,
      "Barri": 8171,
      "##illian\n": 8172,
      "##ndre\n": 8173,
      "##-Mont": 8174,
      "Elb": 8175,
      "##, Andres\n": 8176,
      "##hild": 8177,
      "##intsew\n": 8178,
      "Tscher": 8179,
      "##ations": 8180,
      "McM": 8181,
      "##e de l": 8182,
      "Prinz": 8183,
      "##ietz": 8184,
      "Play": 8185,
      "##i n": 8186,
      "##, Edgar\n": 8187,
      "Akk": 8188,
      "##innen\n": 8189,
      "##, Zs": 8190,
      "Reis": 8191,
      "##asco\n": 8192,
      "##atsch\n": 8193,
      "##, Emile\n": 8194,
      "##e, Bern": 8195,
      "##, Luca\n": 8196,
      "Zhu": 8197,
      "Urs": 8198,
      "Canal": 8199,
      "##loe\n": 8200,
      "##alvatore\n": 8201,
      "Rhod": 8202,
      "##, Theodor": 8203,
      "Nagy": 8204,
      "##rizio\n": 8205,
      "##alentina\n": 8206,
      "##likon\n": 8207,
      "## Christian\n": 8208,
      "##, Melanie\n": 8209,
      "##duardo\n": 8210,
      "##, Dominik\n": 8211,
      "Leonard": 8212,
      "##er, Charles\n": 8213,
      "##, Dimitri\n": 8214,
      "Gutierrez": 8215,
      "## Alexander\n": 8216,
      "##oundation\n": 8217,
      "## Center\n": 8218,
      "Benedikt": 8219,
      "Fürst": 8220,
      "##, Siegfried\n": 8221,
      "##heiligen": 8222,
      "##ymphony Orchestra\n": 8223,
      "Bam": 8224,
      "Crow": 8225,
      "Douglas": 8226,
      "Fo": 8227,
      "Fond": 8228,
      "Fred": 8229,
      "Gow": 8230,
      "Hov": 8231,
      "Hob": 8232,
      "Jok": 8233,
      "Jong": 8234,
      "Jean": 8235,
      "Jensen": 8236,
      "List": 8237,
      "Lloyd": 8238,
      "Niem": 8239,
      "Rip": 8240,
      "Roj": 8241,
      "Till": 8242,
      "Va": 8243,
      "Wig": 8244,
      "Weg": 8245,
      "##to\n": 8246,
      "##xt": 8247,
      "##xp": 8248,
      "##o, V": 8249,
      "##nan": 8250,
      "##dem": 8251,
      "##jagin\n": 8252,
      "##eas": 8253,
      "##ral\n": 8254,
      "## ha": 8255,
      "##i, Mar": 8256,
      "##i (=Dr. ...)\n": 8257,
      "##ci\n": 8258,
      "##lyn": 8259,
      "##lene\n": 8260,
      "##uart": 8261,
      "##uhl": 8262,
      "##har\n": 8263,
      "##fer\n": 8264,
      "##.S": 8265,
      "##werk": 8266,
      "##öz": 8267,
      "##-Qu": 8268,
      "##erich": 8269,
      "##anin": 8270,
      "##arald\n": 8271,
      "##ensk": 8272,
      "##onathan\n": 8273,
      "##elis\n": 8274,
      "##elene\n": 8275,
      "##alif": 8276,
      "##aton\n": 8277,
      "##olow\n": 8278,
      "##aman\n": 8279,
      "##es, C": 8280,
      "##esare\n": 8281,
      "##a f": 8282,
      "##itar": 8283,
      "##urch\n": 8284,
      "##isb": 8285,
      "##...\n": 8286,
      "##reir": 8287,
      "## (U": 8288,
      "##uno\n": 8289,
      "##, Sascha\n": 8290,
      "##irl\n": 8291,
      "##rast": 8292,
      "##liw": 8293,
      "##oug\n": 8294,
      "##aku\n": 8295,
      "##edi": 8296,
      "##ague\n": 8297,
      "##ulow\n": 8298,
      "Chu": 8299,
      "##, Laszlo\n": 8300,
      "##evi\n": 8301,
      "##uts": 8302,
      "## Mal": 8303,
      "##, Gott": 8304,
      "## Br": 8305,
      "##angu": 8306,
      "##quin": 8307,
      "##, Ferdinand\n": 8308,
      "## Hill\n": 8309,
      "## House\n": 8310,
      "## Lab": 8311,
      "## Rom\n": 8312,
      "##son, L": 8313,
      "##enna\n": 8314,
      "##enkin\n": 8315,
      "##e-R": 8316,
      "Abraham": 8317,
      "##, Os": 8318,
      "## Stud": 8319,
      "Barr": 8320,
      "Amp": 8321,
      "##burn": 8322,
      "##tschikow\n": 8323,
      "##aurus\n": 8324,
      "##ski, T": 8325,
      "Kras": 8326,
      "##enbro": 8327,
      "##, Yuri": 8328,
      "##erbach\n": 8329,
      "McN": 8330,
      "##i Y": 8331,
      "##arbar": 8332,
      "##osch\n": 8333,
      "## the ": 8334,
      "##ilda\n": 8335,
      "##rose\n": 8336,
      "Colomb": 8337,
      "## Alb": 8338,
      "Union": 8339,
      "##ieß": 8340,
      "## der B": 8341,
      "Neur": 8342,
      "Neub": 8343,
      "##a, Daniel\n": 8344,
      "##er, Tim\n": 8345,
      "##er, Werner\n": 8346,
      "Schmitt": 8347,
      "##utta\n": 8348,
      "##ext": 8349,
      "##felde\n": 8350,
      "##, Bernard": 8351,
      "##scar": 8352,
      "New York": 8353,
      "Hamilton": 8354,
      "## Abu\n": 8355,
      "##, Lauren\n": 8356,
      "##leksandr\n": 8357,
      "Wolff": 8358,
      "Abdel": 8359,
      "##ruck\n": 8360,
      "##, Anthony": 8361,
      "##leton": 8362,
      "##iccardo\n": 8363,
      "Rogers": 8364,
      "##, Stanislav\n": 8365,
      "##, Evgen": 8366,
      "Hansen": 8367,
      "Brooks": 8368,
      "Ahmed": 8369,
      "Kennedy": 8370,
      "Stevens": 8371,
      "Jordan": 8372,
      "##, Ruslan\n": 8373,
      "Phillips": 8374,
      "##iovanni Battista\n": 8375,
      "Bov": 8376,
      "Bech": 8377,
      "Cri": 8378,
      "Canc": 8379,
      "Clav": 8380,
      "Dil": 8381,
      "Dimit": 8382,
      "Fun": 8383,
      "Field": 8384,
      "Gle": 8385,
      "Gug": 8386,
      "Gray": 8387,
      "Kä": 8388,
      "Kamm": 8389,
      "Komm": 8390,
      "Mard": 8391,
      "Mug": 8392,
      "Mour": 8393,
      "Oll": 8394,
      "Pich": 8395,
      "Poh": 8396,
      "Pitt": 8397,
      "Prom": 8398,
      "Rou": 8399,
      "Rang": 8400,
      "Sind": 8401,
      "Tian": 8402,
      "Term": 8403,
      "Wich": 8404,
      "Öst": 8405,
      "##aomi\n": 8406,
      "##o, ": 8407,
      "##eong": 8408,
      "##e, Jean": 8409,
      "##ryn": 8410,
      "##ramm": 8411,
      "##yi\n": 8412,
      "##ysh": 8413,
      "## Dr. ...)\n": 8414,
      "##can\n": 8415,
      "##ver\n": 8416,
      "##vert": 8417,
      "##hy": 8418,
      "##hat": 8419,
      "##fahr": 8420,
      "##mark\n": 8421,
      "##zon": 8422,
      "##üh": 8423,
      "##erg\n": 8424,
      "##eros\n": 8425,
      "##anen": 8426,
      "##aner\n": 8427,
      "##arol\n": 8428,
      "##enic": 8429,
      "##en M": 8430,
      "##e for": 8431,
      "##ilow": 8432,
      "##amal": 8433,
      "##schen\n": 8434,
      "##etri": 8435,
      "##etit": 8436,
      "##as, G": 8437,
      "##, Mag": 8438,
      "##ision\n": 8439,
      "##ic, Z": 8440,
      "##uni\n": 8441,
      "##lem\n": 8442,
      "##omic": 8443,
      "##omed": 8444,
      "##, Sem": 8445,
      "##irol": 8446,
      "##irin\n": 8447,
      "##outh\n": 8448,
      "##edi\n": 8449,
      "##otow\n": 8450,
      "##abio\n": 8451,
      "##aven\n": 8452,
      "##ewis\n": 8453,
      "##ova, K": 8454,
      "##idi\n": 8455,
      "##, Ans": 8456,
      "Chant": 8457,
      "##illard": 8458,
      "## Ali": 8459,
      "## Award\n": 8460,
      "##ever\n": 8461,
      "Sten": 8462,
      "##, Est": 8463,
      "##, Esther\n": 8464,
      "##, Greg\n": 8465,
      "##, Hay": 8466,
      "##erna\n": 8467,
      "##enter\n": 8468,
      "##ogo\n": 8469,
      "##arten\n": 8470,
      "##ischa\n": 8471,
      "## Par": 8472,
      "##erswil\n": 8473,
      "Ank": 8474,
      "##ugo\n": 8475,
      "##ugin\n": 8476,
      "## Day\n": 8477,
      "Margar": 8478,
      "##ourd": 8479,
      "##shaw": 8480,
      "## de F": 8481,
      "##e-J": 8482,
      "##berger": 8483,
      "##ejo\n": 8484,
      "##undo\n": 8485,
      "##ucht\n": 8486,
      "Grass": 8487,
      "## Of": 8488,
      "##ittl": 8489,
      "Blak": 8490,
      "## Charles\n": 8491,
      "## of S": 8492,
      "##, Adam": 8493,
      "##-An": 8494,
      "##a, Serg": 8495,
      "##elsdorf\n": 8496,
      "##eila\n": 8497,
      "##elius\n": 8498,
      "Martins": 8499,
      "##er, Paul": 8500,
      "##er, Patrick\n": 8501,
      "Isl": 8502,
      "##arc\n": 8503,
      "##rzegor": 8504,
      "##e, El": 8505,
      "Moos": 8506,
      "##, Pete\n": 8507,
      "## & Co": 8508,
      "##e National": 8509,
      "##lag\n": 8510,
      "##laudio\n": 8511,
      "##, Samuel": 8512,
      "##, Antoin": 8513,
      "Böhm": 8514,
      "##, Katie\n": 8515,
      "##jakin\n": 8516,
      "Henry": 8517,
      "##hofen\n": 8518,
      "##, Luke\n": 8519,
      "Ambros": 8520,
      "## Energ": 8521,
      "Münch": 8522,
      "Howard": 8523,
      "Rohr": 8524,
      "##ukrainisch)\n": 8525,
      "## Antonio\n": 8526,
      "##, Ellen\n": 8527,
      "##atuor": 8528,
      "## III.\n": 8529,
      "##er, Ernst\n": 8530,
      "## Institute\n": 8531,
      "##wetlana\n": 8532,
      "##ürnberg": 8533,
      "Bost": 8534,
      "Benz": 8535,
      "Braz": 8536,
      "Coch": 8537,
      "Clement": 8538,
      "Duc": 8539,
      "Danz": 8540,
      "Ej": 8541,
      "Fi": 8542,
      "Fug": 8543,
      "Gabriel": 8544,
      "Grigor": 8545,
      "Hind": 8546,
      "Hopp": 8547,
      "Ili": 8548,
      "Jav": 8549,
      "Jah": 8550,
      "Jay": 8551,
      "Kv": 8552,
      "Kent": 8553,
      "Kurt": 8554,
      "Lon": 8555,
      "Le T": 8556,
      "Mom": 8557,
      "Mott": 8558,
      "Nichol": 8559,
      "Pt": 8560,
      "Picc": 8561,
      "Rech": 8562,
      "Rocc": 8563,
      "Vä": 8564,
      "Yan": 8565,
      "Zur": 8566,
      "ad": 8567,
      "##ti": 8568,
      "##tim": 8569,
      "##aol": 8570,
      "##aes": 8571,
      "##aber": 8572,
      "##oos\n": 8573,
      "##nau\n": 8574,
      "##iuk": 8575,
      "##cott": 8576,
      "##ubert\n": 8577,
      "##urit": 8578,
      "##uido\n": 8579,
      "##port": 8580,
      "##prach": 8581,
      "##has": 8582,
      "##wig\n": 8583,
      "##mad": 8584,
      "##bau": 8585,
      "##arn\n": 8586,
      "##arci": 8587,
      "##enew\n": 8588,
      "##in, W": 8589,
      "##onic": 8590,
      "##onym": 8591,
      "##elik": 8592,
      "##elow\n": 8593,
      "##elberg\n": 8594,
      "##alf": 8595,
      "##orie\n": 8596,
      "##ates\n": 8597,
      "##ols": 8598,
      "##schan\n": 8599,
      "##eti\n": 8600,
      "##a g": 8601,
      "##, Jake\n": 8602,
      "##reuz": 8603,
      "## (Z": 8604,
      "## (-": 8605,
      "## (russischer Name)\n": 8606,
      "##lec": 8607,
      "##imone\n": 8608,
      "##us S": 8609,
      "##. J": 8610,
      "##er, Franc": 8611,
      "##o t": 8612,
      "##i, Is": 8613,
      "##, Ruben\n": 8614,
      "##ody": 8615,
      "##odd\n": 8616,
      "## Ap": 8617,
      "##ayan": 8618,
      "## Corn": 8619,
      "##, Hanna\n": 8620,
      "##ecz": 8621,
      "##ajim\n": 8622,
      "##afa\n": 8623,
      "##, Alessandro\n": 8624,
      "##manu": 8625,
      "##, Ign": 8626,
      "Brz": 8627,
      "##shi\n": 8628,
      "##a (K": 8629,
      "Sher": 8630,
      "##engl": 8631,
      "##e (Variante)\n": 8632,
      "##onda\n": 8633,
      "##ung)\n": 8634,
      "El M": 8635,
      "##, Andrew": 8636,
      "##-Peter\n": 8637,
      "##, Yann": 8638,
      "##ombe\n": 8639,
      "##a, En": 8640,
      "San G": 8641,
      "Real": 8642,
      "##eonardo\n": 8643,
      "##i, Luigi\n": 8644,
      "##kinson": 8645,
      "Holt": 8646,
      "##unnar\n": 8647,
      "##, Frantis": 8648,
      "##rande\n": 8649,
      "##, Luc\n": 8650,
      "##iovanni": 8651,
      "## from": 8652,
      "Konrad": 8653,
      "Birk": 8654,
      "Conf": 8655,
      "##atherin": 8656,
      "##, Theodor\n": 8657,
      "##, Helene\n": 8658,
      "##, Erwin\n": 8659,
      "##, Michael (=Prof. Dr. ...)\n": 8660,
      "##, Nikos\n": 8661,
      "##, Aleksandar\n": 8662,
      "## Angel\n": 8663,
      "##er Landstraße\n": 8664,
      "Kovac": 8665,
      "Joseph": 8666,
      "##moos\n": 8667,
      "## August\n": 8668,
      "##olnisch)\n": 8669,
      "##rasilien)\n": 8670,
      "## Valley\n": 8671,
      "##ociation\n": 8672,
      "Zimmermann": 8673,
      "##, Stanley\n": 8674,
      "O'Conn": 8675,
      "Bann": 8676,
      "Bridg": 8677,
      "Cec": 8678,
      "Dans": 8679,
      "Duf": 8680,
      "Fid": 8681,
      "Frid": 8682,
      "Felix": 8683,
      "Garn": 8684,
      "Häm": 8685,
      "Ken": 8686,
      "Kill": 8687,
      "Le ": 8688,
      "Lek": 8689,
      "Mett": 8690,
      "Moc": 8691,
      "Moy": 8692,
      "Manc": 8693,
      "Moj": 8694,
      "Mosk": 8695,
      "Nur": 8696,
      "Nek": 8697,
      "Nieu": 8698,
      "Pang": 8699,
      "Prof": 8700,
      "Poss": 8701,
      "Rac": 8702,
      "Rass": 8703,
      "Richt": 8704,
      "Sow": 8705,
      "Sof": 8706,
      "Slav": 8707,
      "Somm": 8708,
      "Sever": 8709,
      "Tut": 8710,
      "Tub": 8711,
      "Vaz": 8712,
      "##tar": 8713,
      "##tion": 8714,
      "##aer": 8715,
      "##a, Julia\n": 8716,
      "##o, Jos": 8717,
      "##je": 8718,
      "##rub": 8719,
      "##iß": 8720,
      "##cast": 8721,
      "##vik\n": 8722,
      "##ES": 8723,
      "##wo\n": 8724,
      "##b\n": 8725,
      "##zabeth": 8726,
      "##-g": 8727,
      "##er, Martin\n": 8728,
      "##anos": 8729,
      "##inos": 8730,
      "##inus": 8731,
      "##oney": 8732,
      "##elst": 8733,
      "##sta\n": 8734,
      "##e Franc": 8735,
      "##atiana\n": 8736,
      "##asow\n": 8737,
      "##, Maciej\n": 8738,
      "##ury\n": 8739,
      "##ici": 8740,
      "##ream\n": 8741,
      "##roy\n": 8742,
      "##oss\n": 8743,
      "##irn": 8744,
      "##edric\n": 8745,
      "##otz": 8746,
      "##ews": 8747,
      "##ov, V": 8748,
      "## Su": 8749,
      "##thur\n": 8750,
      "##uld": 8751,
      "Schä": 8752,
      "Schur": 8753,
      "##odn": 8754,
      "Stat": 8755,
      "##, Gud": 8756,
      "##ards\n": 8757,
      "##ije\n": 8758,
      "##ijan\n": 8759,
      "##ector": 8760,
      "##, Bart": 8761,
      "##enta\n": 8762,
      "##estern\n": 8763,
      "## Pe": 8764,
      "## Pol": 8765,
      "## Project\n": 8766,
      "Thiel": 8767,
      "##, Nancy\n": 8768,
      "## Louis\n": 8769,
      "## Rad": 8770,
      "##aft\n": 8771,
      "##eig\n": 8772,
      "## Dsch": 8773,
      "##endörp\n": 8774,
      "##, Willy\n": 8775,
      "##ibl": 8776,
      "##head\n": 8777,
      "##, Vaclav\n": 8778,
      "##, Andr": 8779,
      "##, Andras\n": 8780,
      "##istan\n": 8781,
      "##istric": 8782,
      "Shir": 8783,
      "##uph": 8784,
      "## de N": 8785,
      "## Ev": 8786,
      "##ize\n": 8787,
      "##ynth": 8788,
      "##ense\n": 8789,
      "##ussow\n": 8790,
      "##inden\n": 8791,
      "##ören\n": 8792,
      "##encia\n": 8793,
      "##aurent\n": 8794,
      "##yla\n": 8795,
      "Adl": 8796,
      "##, Alexandr\n": 8797,
      "##into\n": 8798,
      "##yse\n": 8799,
      "Karn": 8800,
      "Karak": 8801,
      "##enzel": 8802,
      "##ophe\n": 8803,
      "##-Heinz\n": 8804,
      "##ymn": 8805,
      "##incenzo\n": 8806,
      "Platt": 8807,
      "##iye\n": 8808,
      "##i, Giuli": 8809,
      "Erl": 8810,
      "##e, Luc": 8811,
      "##e (=Sir": 8812,
      "## Your": 8813,
      "##rund\n": 8814,
      "Beit": 8815,
      "##ydia\n": 8816,
      "##aida\n": 8817,
      "##rud\n": 8818,
      "##holm": 8819,
      "##, Gerd\n": 8820,
      "##lev\n": 8821,
      "Bird": 8822,
      "Imp": 8823,
      "## Josef\n": 8824,
      "##, Clar": 8825,
      "##skij rajon\n": 8826,
      "Bourg": 8827,
      "##ictoria\n": 8828,
      "##e, Christian\n": 8829,
      "##Quartet\n": 8830,
      "##, Gregory\n": 8831,
      "##irginia\n": 8832,
      "## Exp": 8833,
      "##, Hubert\n": 8834,
      "General": 8835,
      "##ärtyrer)\n": 8836,
      "##, Ralf\n": 8837,
      "##mytro\n": 8838,
      "Akrotirion": 8839,
      "AC": 8840,
      "Ait": 8841,
      "Best": 8842,
      "Biss": 8843,
      "Bash": 8844,
      "Cic": 8845,
      "Ding": 8846,
      "Dah": 8847,
      "Denn": 8848,
      "Earl": 8849,
      "Faz": 8850,
      "Full": 8851,
      "Gass": 8852,
      "Gry": 8853,
      "Hyd": 8854,
      "IN": 8855,
      "Job": 8856,
      "Jabl": 8857,
      "Kuch": 8858,
      "Ler": 8859,
      "Lik": 8860,
      "Lay": 8861,
      "Leng": 8862,
      "Lech": 8863,
      "Link": 8864,
      "Mö": 8865,
      "Mosch": 8866,
      "Nis": 8867,
      "Nielsen": 8868,
      "Pon": 8869,
      "Paz": 8870,
      "Slaw": 8871,
      "Tig": 8872,
      "Trist": 8873,
      "Trom": 8874,
      "Teatro": 8875,
      "Vu": 8876,
      "Vat": 8877,
      "Woll": 8878,
      "Warn": 8879,
      "##kan\n": 8880,
      "##ner, E": 8881,
      "##jet": 8882,
      "##eam": 8883,
      "##ra ": 8884,
      "##rath": 8885,
      "##y J": 8886,
      "## sh": 8887,
      "##uert": 8888,
      "##sn": 8889,
      "##sey": 8890,
      "##fur": 8891,
      "##fle": 8892,
      "##CA": 8893,
      "##witz\n": 8894,
      "##ba": 8895,
      "##bo\n": 8896,
      "##äer\n": 8897,
      "##an, R": 8898,
      "##an, H": 8899,
      "##enl": 8900,
      "##enfeld\n": 8901,
      "##in'": 8902,
      "##onrad": 8903,
      "##elie\n": 8904,
      "##elman": 8905,
      "##elyn\n": 8906,
      "##alan": 8907,
      "##e h": 8908,
      "##ami": 8909,
      "##amber": 8910,
      "##amar\n": 8911,
      "##etal\n": 8912,
      "##asan": 8913,
      "##, Mad": 8914,
      "##ade": 8915,
      "##rek": 8916,
      "##roup\n": 8917,
      "##, Sz": 8918,
      "##. A": 8919,
      "##. S": 8920,
      "##. L": 8921,
      "##ander": 8922,
      "##er, Is": 8923,
      "##berhard\n": 8924,
      "##o Z": 8925,
      "##abe\n": 8926,
      "##able\n": 8927,
      "## Song\n": 8928,
      "##igt": 8929,
      "Schust": 8930,
      "##, Anastas": 8931,
      "Cha": 8932,
      "## A.\n": 8933,
      "##eve\n": 8934,
      "Stand": 8935,
      "##, Per\n": 8936,
      "##, Piotr\n": 8937,
      "##ego\n": 8938,
      "##egan\n": 8939,
      "##ogor": 8940,
      "##ogen\n": 8941,
      "##alls\n": 8942,
      "##az, La\n": 8943,
      "##ierung\n": 8944,
      "Anc": 8945,
      "##ristan\n": 8946,
      "##ontsch": 8947,
      "##enda\n": 8948,
      "##endi\n": 8949,
      "## Frank": 8950,
      "##ense": 8951,
      "##aniele\n": 8952,
      "##ussein\n": 8953,
      "##ussell\n": 8954,
      "##ochin\n": 8955,
      "##otta\n": 8956,
      "The E": 8957,
      "Barry": 8958,
      "El C": 8959,
      "## Verlag\n": 8960,
      "Spenc": 8961,
      "## of B": 8962,
      "##, Christiane\n": 8963,
      "Quatuor": 8964,
      "##e Sch": 8965,
      "##ophia\n": 8966,
      "##io de\n": 8967,
      "##e de l'": 8968,
      "##i s": 8969,
      "##a, Man": 8970,
      "##eidi\n": 8971,
      "Inner": 8972,
      "##other": 8973,
      "##a, Ed": 8974,
      "##er, Barbara\n": 8975,
      "##kowsk": 8976,
      "##-Th": 8977,
      "##ulia\n": 8978,
      "Saint-M": 8979,
      "##uther": 8980,
      "Herman": 8981,
      "Corre": 8982,
      "##rück\n": 8983,
      "##i, Pietro\n": 8984,
      "Castel": 8985,
      "##, Heinrich": 8986,
      "## (Fluss)\n": 8987,
      "##erstin\n": 8988,
      "Geis": 8989,
      "##, Ahmad\n": 8990,
      "L'E": 8991,
      "##, Katja\n": 8992,
      "## Francis\n": 8993,
      "##, Gabriele\n": 8994,
      "##, Olaf\n": 8995,
      "##i, Ali\n": 8996,
      "##, Angel\n": 8997,
      "##, August\n": 8998,
      "##, Jakub\n": 8999,
      "##ängerin)\n": 9000,
      "##, Mathieu\n": 9001,
      "##adeleine\n": 9002,
      "##, Sylvia\n": 9003,
      "##, Derek\n": 9004,
      "Hughes": 9005,
      "Aran": 9006,
      "Bli": 9007,
      "Bev": 9008,
      "Cron": 9009,
      "Dis": 9010,
      "Eph": 9011,
      "Fac": 9012,
      "Fut": 9013,
      "Gorg": 9014,
      "Gunn": 9015,
      "Gibb": 9016,
      "Jov": 9017,
      "Jess": 9018,
      "Jeff": 9019,
      "Kag": 9020,
      "Kran": 9021,
      "Kib": 9022,
      "Kort": 9023,
      "Kapp": 9024,
      "Lanz": 9025,
      "Minn": 9026,
      "Nürnberg": 9027,
      "Oud": 9028,
      "Oost": 9029,
      "Pint": 9030,
      "Pyr": 9031,
      "Rust": 9032,
      "Reut": 9033,
      "Sell": 9034,
      "Senn": 9035,
      "Tyr": 9036,
      "Zamb": 9037,
      "sp": 9038,
      "##ker": 9039,
      "##kirchen\n": 9040,
      "##oes": 9041,
      "##yck": 9042,
      "##ym\n": 9043,
      "## is": 9044,
      "##i)\n": 9045,
      "##iet\n": 9046,
      "##vey\n": 9047,
      "##par": 9048,
      "##hit": 9049,
      "##TE": 9050,
      "##.c": 9051,
      "##EN": 9052,
      "##CO": 9053,
      "##wick\n": 9054,
      "##weiß": 9055,
      "##bas": 9056,
      "##RI": 9057,
      "##'n": 9058,
      "##an (=Prof. Dr. ...)\n": 9059,
      "##aric": 9060,
      "##enes": 9061,
      "##en H": 9062,
      "##en (=Dr. ...)\n": 9063,
      "##in, G": 9064,
      "##ele": 9065,
      "##alat": 9066,
      "##orum\n": 9067,
      "##städ": 9068,
      "##ilio\n": 9069,
      "##rim\n": 9070,
      "##olith\n": 9071,
      "##schel": 9072,
      "##es, D": 9073,
      "##asqu": 9074,
[...]
